<unk>	0
<s>	0
</s>	0
▁t	-0
▁a	-1
in	-2
er	-3
on	-4
he	-5
re	-6
▁s	-7
▁c	-8
▁d	-9
at	-10
en	-11
▁p	-12
or	-13
an	-14
▁the	-15
es	-16
al	-17
it	-18
is	-19
▁o	-20
ic	-21
ar	-22
▁m	-23
▁in	-24
▁f	-25
▁l	-26
el	-27
▁w	-28
ion	-29
ed	-30
▁an	-31
▁b	-32
ro	-33
ent	-34
il	-35
▁of	-36
ing	-37
▁e	-38
un	-39
▁n	-40
as	-41
▁di	-42
ol	-43
▁and	-44
▁to	-45
om	-46
▁h	-47
et	-48
ut	-49
ra	-50
us	-51
os	-52
▁g	-53
im	-54
▁th	-55
le	-56
▁re	-57
ur	-58
▁T	-59
ec	-60
iv	-61
am	-62
▁S	-63
▁con	-64
▁C	-65
▁A	-66
to	-67
▁v	-68
ul	-69
▁al	-70
▁I	-71
ac	-72
ot	-73
id	-74
▁un	-75
ell	-76
ia	-77
qu	-78
ig	-79
▁st	-80
io	-81
▁per	-82
▁is	-83
▁P	-84
▁pro	-85
em	-86
▁M	-87
ta	-88
ter	-89
▁r	-90
ation	-91
ess	-92
ere	-93
▁for	-94
ch	-95
zion	-96
ly	-97
ir	-98
▁la	-99
ow	-100
▁com	-101
ers	-102
ti	-103
are	-104
ce	-105
▁on	-106
▁1	-107
ag	-108
▁be	-109
▁that	-110
▁L	-111
▁(	-112
▁su	-113
ad	-114
▁il	-115
▁as	-116
te	-117
▁che	-118
▁B	-119
res	-120
▁qu	-121
and	-122
pp	-123
▁y	-124
▁D	-125
th	-126
ve	-127
▁de	-128
▁2	-129
od	-130
ato	-131
▁le	-132
▁The	-133
ist	-134
ay	-135
ith	-136
▁or	-137
▁del	-138
▁R	-139
ver	-140
um	-141
op	-142
▁wh	-143
▁F	-144
li	-145
ct	-146
ate	-147
ri	-148
est	-149
▁are	-150
▁E	-151
zione	-152
oc	-153
▁G	-154
▁it	-155
ff	-156
▁with	-157
▁N	-158
st	-159
▁yo	-160
▁ha	-161
if	-162
iz	-163
▁H	-164
og	-165
▁W	-166
▁dell	-167
ect	-168
ale	-169
se	-170
ore	-171
▁-	-172
ab	-173
▁at	-174
▁all	-175
ud	-176
ost	-177
ment	-178
▁sp	-179
▁ch	-180
end	-181
cc	-182
▁In	-183
ill	-184
▁è	-185
▁ex	-186
ort	-187
art	-188
all	-189
ant	-190
ity	-191
▁se	-192
rom	-193
ive	-194
▁ne	-195
ap	-196
▁he	-197
za	-198
ies	-199
no	-200
ug	-201
ine	-202
ure	-203
00	-204
ib	-205
▁im	-206
igh	-207
▁by	-208
ie	-209
▁can	-210
▁O	-211
▁us	-212
so	-213
ke	-214
ial	-215
ente	-216
ono	-217
▁da	-218
ip	-219
▁sc	-220
..	-221
▁U	-222
▁was	-223
▁from	-224
▁ma	-225
per	-226
▁i	-227
ata	-228
▁ad	-229
▁not	-230
▁co	-231
▁comp	-232
ian	-233
ica	-234
ard	-235
▁ab	-236
▁non	-237
▁della	-238
▁una	-239
ile	-240
ich	-241
▁"	-242
ge	-243
▁you	-244
▁cont	-245
▁pre	-246
ass	-247
ical	-248
ov	-249
ati	-250
ome	-251
▁dis	-252
ond	-253
up	-254
▁si	-255
▁have	-256
che	-257
▁V	-258
▁sh	-259
▁20	-260
ità	-261
▁Th	-262
orm	-263
▁we	-264
av	-265
▁imp	-266
ult	-267
ast	-268
out	-269
und	-270
▁this	-271
ento	-272
ide	-273
▁pr	-274
ens	-275
ight	-276
▁J	-277
enti	-278
▁inc	-279
ub	-280
ran	-281
gg	-282
ord	-283
ust	-284
▁pi	-285
ions	-286
one	-287
▁ar	-288
uld	-289
du	-290
▁pl	-291
ugh	-292
▁ra	-293
▁man	-294
ated	-295
ind	-296
▁do	-297
▁app	-298
azione	-299
lo	-300
ett	-301
ice	-302
▁tra	-303
▁their	-304
▁pres	-305
ue	-306
ano	-307
ire	-308
▁“	-309
▁k	-310
▁pos	-311
▁en	-312
ther	-313
ear	-314
▁res	-315
▁so	-316
ren	-317
ual	-318
▁wor	-319
rit	-320
▁inf	-321
▁inter	-322
ico	-323
ito	-324
ni	-325
▁your	-326
▁which	-327
emp	-328
ater	-329
co	-330
▁they	-331
ence	-332
▁col	-333
ong	-334
▁part	-335
▁3	-336
▁cons	-337
ok	-338
ori	-339
her	-340
ain	-341
ep	-342
hen	-343
ents	-344
▁es	-345
zioni	-346
▁will	-347
▁cl	-348
enza	-349
ura	-350
erm	-351
▁19	-352
ign	-353
▁more	-354
▁fo	-355
erv	-356
▁dei	-357
▁me	-358
ione	-359
use	-360
ru	-361
ci	-362
olog	-363
ase	-364
att	-365
ations	-366
▁par	-367
▁has	-368
▁att	-369
ber	-370
▁It	-371
act	-372
lic	-373
▁An	-374
▁acc	-375
▁ris	-376
ach	-377
ary	-378
olo	-379
▁201	-380
▁nel	-381
▁ques	-382
▁ev	-383
▁St	-384
ould	-385
).	-386
age	-387
▁K	-388
vel	-389
▁ind	-390
ime	-391
ild	-392
pt	-393
ose	-394
▁sono	-395
▁am	-396
ite	-397
amp	-398
▁più	-399
▁go	-400
ry	-401
▁Un	-402
ace	-403
ali	-404
▁–	-405
ak	-406
▁come	-407
▁but	-408
ici	-409
▁lo	-410
▁stud	-411
▁Ch	-412
ino	-413
▁gi	-414
amo	-415
ors	-416
▁ed	-417
ack	-418
▁were	-419
ne	-420
reat	-421
▁ro	-422
▁also	-423
▁one	-424
▁tut	-425
ont	-426
ely	-427
unt	-428
▁Al	-429
▁comm	-430
iss	-431
ella	-432
▁po	-433
ari	-434
ress	-435
ene	-436
la	-437
▁av	-438
▁el	-439
▁j	-440
ando	-441
▁ag	-442
▁La	-443
eg	-444
ina	-445
▁mod	-446
ance	-447
▁sul	-448
ang	-449
ons	-450
ita	-451
amente	-452
zi	-453
▁out	-454
▁ass	-455
ces	-456
na	-457
ame	-458
▁other	-459
▁delle	-460
▁diff	-461
▁alla	-462
▁pe	-463
der	-464
anno	-465
▁reg	-466
▁rec	-467
▁pers	-468
era	-469
▁Il	-470
ish	-471
able	-472
ma	-473
uc	-474
▁anche	-475
...	-476
ory	-477
▁about	-478
izz	-479
ini	-480
▁This	-481
ition	-482
▁tr	-483
ction	-484
▁gen	-485
etto	-486
ram	-487
ks	-488
▁4	-489
ific	-490
les	-491
erc	-492
▁poss	-493
ss	-494
int	-495
▁sy	-496
▁ver	-497
▁his	-498
▁them	-499
),	-500
ew	-501
▁5	-502
▁prov	-503
ante	-504
▁ess	-505
▁Y	-506
▁up	-507
ble	-508
mer	-509
now	-510
▁exp	-511
▁li	-512
▁its	-513
tain	-514
▁eff	-515
rop	-516
▁dec	-517
▁inv	-518
▁des	-519
ric	-520
▁te	-521
ld	-522
▁bec	-523
▁car	-524
fer	-525
▁no	-526
▁than	-527
▁may	-528
▁prop	-529
▁who	-530
▁gro	-531
red	-532
ole	-533
▁spec	-534
ople	-535
▁some	-536
oro	-537
ans	-538
ree	-539
▁year	-540
ays	-541
▁rep	-542
ima	-543
lud	-544
ates	-545
amento	-546
▁dal	-547
ings	-548
▁Q	-549
bi	-550
▁most	-551
▁sa	-552
uto	-553
▁met	-554
▁when	-555
▁there	-556
▁pot	-557
▁been	-558
▁cor	-559
ced	-560
ggi	-561
zz	-562
vers	-563
king	-564
ph	-565
gli	-566
agg	-567
our	-568
▁pol	-569
▁ac	-570
inc	-571
itt	-572
▁into	-573
ev	-574
rib	-575
▁sol	-576
low	-577
ys	-578
tt	-579
ili	-580
ally	-581
▁time	-582
▁int	-583
▁ins	-584
▁prog	-585
▁these	-586
rov	-587
▁form	-588
▁gli	-589
▁people	-590
ause	-591
▁how	-592
rough	-593
20	-594
▁over	-595
ung	-596
▁rel	-597
ero	-598
ativ	-599
oci	-600
ui	-601
▁had	-602
ello	-603
ism	-604
▁sec	-605
▁our	-606
▁use	-607
arch	-608
ron	-609
▁vis	-610
▁med	-611
bb	-612
▁Com	-613
▁act	-614
emb	-615
▁cas	-616
▁dall	-617
▁bet	-618
we	-619
imo	-620
gan	-621
▁200	-622
ative	-623
iti	-624
alth	-625
▁pub	-626
ities	-627
▁know	-628
▁cap	-629
▁gr	-630
▁produ	-631
▁gra	-632
ario	-633
▁new	-634
ech	-635
ning	-636
irst	-637
▁vol	-638
▁Wh	-639
▁would	-640
ject	-641
als	-642
esso	-643
form	-644
ars	-645
velop	-646
stem	-647
anti	-648
▁fin	-649
▁includ	-650
wo	-651
▁em	-652
▁need	-653
wn	-654
▁fe	-655
▁str	-656
uo	-657
▁such	-658
▁differ	-659
▁if	-660
ational	-661
let	-662
▁cent	-663
▁person	-664
yp	-665
ough	-666
▁mol	-667
tern	-668
▁conc	-669
▁hel	-670
iche	-671
orn	-672
ues	-673
▁child	-674
ement	-675
▁any	-676
▁questo	-677
▁import	-678
▁num	-679
▁cos	-680
ts	-681
▁work	-682
▁help	-683
▁6	-684
▁ci	-685
ail	-686
▁|	-687
▁what	-688
▁bu	-689
ating	-690
ath	-691
▁ric	-692
▁inform	-693
ular	-694
▁sub	-695
tre	-696
▁mar	-697
▁used	-698
▁high	-699
▁only	-700
rans	-701
▁ph	-702
▁add	-703
vent	-704
▁min	-705
▁chi	-706
mente	-707
erg	-708
rol	-709
▁off	-710
chi	-711
▁det	-712
ivers	-713
arm	-714
ora	-715
▁qual	-716
▁bo	-717
ics	-718
▁serv	-719
ze	-720
▁many	-721
▁through	-722
▁aff	-723
▁supp	-724
▁dire	-725
lio	-726
▁ai	-727
▁develop	-728
fter	-729
ris	-730
▁first	-731
▁nella	-732
oth	-733
ca	-734
▁bl	-735
▁val	-736
▁He	-737
con	-738
▁sm	-739
▁Le	-740
▁essere	-741
▁Per	-742
uring	-743
riv	-744
di	-745
▁dist	-746
▁alle	-747
ful	-748
ob	-749
▁Ar	-750
very	-751
▁Pro	-752
▁En	-753
▁system	-754
oli	-755
▁possib	-756
▁two	-757
▁aut	-758
ola	-759
▁18	-760
▁bas	-761
▁Sp	-762
ese	-763
ower	-764
▁ob	-765
▁partic	-766
tic	-767
ility	-768
uov	-769
ident	-770
pos	-771
▁cre	-772
hed	-773
ider	-774
ily	-775
▁like	-776
▁gu	-777
ade	-778
ft	-779
▁sur	-780
iano	-781
atto	-782
ious	-783
▁gener	-784
uch	-785
▁sim	-786
ondo	-787
de	-788
▁conf	-789
▁10	-790
old	-791
own	-792
▁due	-793
cess	-794
ures	-795
▁loc	-796
▁ser	-797
igli	-798
▁7	-799
▁ter	-800
anto	-801
▁should	-802
ool	-803
ista	-804
▁rem	-805
▁resp	-806
▁fam	-807
ioni	-808
▁cui	-809
▁sign	-810
ins	-811
▁well	-812
▁real	-813
▁leg	-814
▁trans	-815
ise	-816
▁pass	-817
▁water	-818
▁prof	-819
▁We	-820
oss	-821
▁lav	-822
▁nost	-823
▁For	-824
▁As	-825
ivo	-826
ween	-827
ract	-828
▁years	-829
▁ut	-830
▁Con	-831
cy	-832
▁proble	-833
zza	-834
ural	-835
itu	-836
ick	-837
its	-838
ution	-839
fore	-840
▁semp	-841
ink	-842
▁ca	-843
endo	-844
▁def	-845
arg	-846
▁vi	-847
ute	-848
▁health	-849
land	-850
ott	-851
ness	-852
▁between	-853
▁could	-854
que	-855
▁ta	-856
▁where	-857
ature	-858
▁mon	-859
ever	-860
▁bel	-861
xt	-862
ife	-863
▁make	-864
amb	-865
ior	-866
ied	-867
asc	-868
▁fun	-869
▁temp	-870
▁If	-871
▁8	-872
ven	-873
ou	-874
acc	-875
elf	-876
▁occ	-877
ants	-878
imento	-879
ology	-880
ited	-881
▁cer	-882
bl	-883
ange	-884
ane	-885
ten	-886
▁ho	-887
▁imm	-888
▁Mar	-889
pl	-890
▁alt	-891
uro	-892
▁cost	-893
▁her	-894
round	-895
▁seg	-896
chool	-897
atter	-898
▁suo	-899
▁cond	-900
000	-901
do	-902
ict	-903
▁liv	-904
▁gio	-905
▁9	-906
▁ent	-907
▁ear	-908
iare	-909
▁fl	-910
▁organ	-911
ount	-912
▁Se	-913
com	-914
▁rese	-915
eng	-916
▁don	-917
▁How	-918
▁cal	-919
▁nuov	-920
▁after	-921
▁found	-922
▁Amer	-923
▁lear	-924
peri	-925
▁incre	-926
urn	-927
19	-928
▁fol	-929
▁mi	-930
ists	-931
led	-932
omen	-933
▁contin	-934
▁program	-935
ection	-936
▁pop	-937
▁Ma	-938
uman	-939
▁because	-940
ments	-941
▁long	-942
uss	-943
aggio	-944
▁research	-945
omet	-946
▁world	-947
ually	-948
▁degli	-949
▁even	-950
▁problem	-951
tare	-952
line	-953
▁then	-954
ck	-955
▁very	-956
▁disc	-957
▁dalla	-958
▁sal	-959
▁effect	-960
▁hanno	-961
▁process	-962
▁under	-963
▁way	-964
anza	-965
other	-966
▁sci	-967
▁anni	-968
opo	-969
▁cur	-970
iew	-971
ele	-972
edi	-973
▁0	-974
une	-975
▁typ	-976
▁tutti	-977
▁see	-978
▁fa	-979
ets	-980
▁ke	-981
▁present	-982
ocial	-983
▁different	-984
etti	-985
ety	-986
▁inst	-987
agn	-988
▁solo	-989
▁data	-990
bo	-991
eno	-992
ically	-993
ret	-994
▁test	-995
anc	-996
utt	-997
▁those	-998
ivid	-999
ices	-1000
ders	-1001
▁just	-1002
".	-1003
otto	-1004
ork	-1005
▁count	-1006
vern	-1007
eri	-1008
▁New	-1009
▁mil	-1010
azioni	-1011
min	-1012
▁call	-1013
ana	-1014
▁control	-1015
▁every	-1016
▁dep	-1017
bbe	-1018
▁children	-1019
▁requ	-1020
iron	-1021
ved	-1022
ody	-1023
.”	-1024
hing	-1025
▁term	-1026
▁bene	-1027
▁class	-1028
alia	-1029
ines	-1030
elli	-1031
▁said	-1032
ecess	-1033
▁far	-1034
ER	-1035
▁lead	-1036
▁fac	-1037
iva	-1038
▁pu	-1039
▁result	-1040
▁tech	-1041
sp	-1042
vis	-1043
vi	-1044
▁being	-1045
va	-1046
▁They	-1047
.,	-1048
▁each	-1049
▁fact	-1050
ON	-1051
▁important	-1052
ert	-1053
conom	-1054
▁cir	-1055
▁colle	-1056
lia	-1057
▁op	-1058
▁life	-1059
aria	-1060
▁There	-1061
urop	-1062
ected	-1063
cept	-1064
▁mater	-1065
atti	-1066
▁commun	-1067
▁mus	-1068
ani	-1069
▁end	-1070
ern	-1071
ruct	-1072
ché	-1073
ward	-1074
▁oper	-1075
▁sk	-1076
ood	-1077
▁prima	-1078
▁quest	-1079
gra	-1080
inter	-1081
▁information	-1082
ilità	-1083
▁15	-1084
▁she	-1085
▁much	-1086
▁And	-1087
▁loro	-1088
▁sett	-1089
oria	-1090
▁succ	-1091
izi	-1092
hip	-1093
▁follow	-1094
ather	-1095
▁read	-1096
imes	-1097
▁nat	-1098
▁food	-1099
▁consider	-1100
▁Re	-1101
▁parte	-1102
atori	-1103
▁Ad	-1104
▁during	-1105
▁own	-1106
▁lib	-1107
▁ide	-1108
▁via	-1109
ased	-1110
vol	-1111
10	-1112
▁get	-1113
ized	-1114
▁level	-1115
▁stato	-1116
▁br	-1117
▁students	-1118
▁fil	-1119
▁right	-1120
▁same	-1121
▁necess	-1122
gni	-1123
any	-1124
▁made	-1125
ample	-1126
▁back	-1127
par	-1128
iamo	-1129
▁does	-1130
▁opp	-1131
ppo	-1132
ital	-1133
▁But	-1134
▁sempre	-1135
▁questa	-1136
▁Z	-1137
ize	-1138
ous	-1139
▁study	-1140
▁find	-1141
▁può	-1142
izza	-1143
ince	-1144
ove	-1145
ember	-1146
▁molto	-1147
▁design	-1148
▁sua	-1149
▁caus	-1150
▁show	-1151
lus	-1152
▁On	-1153
▁pa	-1154
atore	-1155
isc	-1156
▁cell	-1157
▁tre	-1158
▁sar	-1159
▁Sc	-1160
▁sia	-1161
▁complet	-1162
▁good	-1163
▁grand	-1164
▁look	-1165
osa	-1166
ateg	-1167
▁both	-1168
ner	-1169
asi	-1170
▁z	-1171
▁my	-1172
▁vers	-1173
ible	-1174
▁comun	-1175
ters	-1176
viron	-1177
▁Qu	-1178
▁12	-1179
▁cult	-1180
▁before	-1181
els	-1182
seg	-1183
▁Ind	-1184
▁You	-1185
▁group	-1186
ages	-1187
elle	-1188
▁[	-1189
▁small	-1190
▁using	-1191
▁school	-1192
▁social	-1193
▁perc	-1194
hes	-1195
less	-1196
esi	-1197
▁Is	-1198
▁prot	-1199
uti	-1200
eld	-1201
osi	-1202
ai	-1203
▁bre	-1204
▁propr	-1205
▁dr	-1206
▁ext	-1207
▁gior	-1208
▁writ	-1209
▁prod	-1210
▁econom	-1211
▁camp	-1212
az	-1213
▁hist	-1214
ark	-1215
▁divers	-1216
▁tutto	-1217
▁again	-1218
ential	-1219
▁treat	-1220
▁mov	-1221
ined	-1222
▁energ	-1223
aren	-1224
arge	-1225
▁ment	-1226
▁sulla	-1227
embre	-1228
gen	-1229
▁often	-1230
▁uno	-1231
ex	-1232
pr	-1233
▁sto	-1234
▁trov	-1235
resent	-1236
The	-1237
ua	-1238
▁less	-1239
▁What	-1240
▁while	-1241
▁est	-1242
▁second	-1243
▁fi	-1244
ands	-1245
ional	-1246
▁grow	-1247
▁down	-1248
▁activ	-1249
▁soci	-1250
▁individ	-1251
▁Americ	-1252
ished	-1253
▁day	-1254
▁power	-1255
ivi	-1256
▁state	-1257
▁er	-1258
▁equ	-1259
▁pun	-1260
alt	-1261
▁u	-1262
ena	-1263
▁dise	-1264
▁unders	-1265
▁polit	-1266
▁take	-1267
▁number	-1268
ww	-1269
▁De	-1270
▁Co	-1271
▁Res	-1272
etta	-1273
ona	-1274
▁support	-1275
▁anc	-1276
▁util	-1277
||	-1278
iversity	-1279
ury	-1280
▁now	-1281
ides	-1282
▁To	-1283
▁ogni	-1284
▁rip	-1285
▁fare	-1286
zzo	-1287
▁govern	-1288
go	-1289
▁did	-1290
▁et	-1291
▁&	-1292
▁Col	-1293
▁Sh	-1294
▁dom	-1295
izio	-1296
▁'	-1297
ences	-1298
▁pur	-1299
▁senza	-1300
vironment	-1301
▁.	-1302
▁lim	-1303
ulation	-1304
read	-1305
▁body	-1306
▁199	-1307
ps	-1308
▁him	-1309
▁perio	-1310
ann	-1311
ull	-1312
▁dem	-1313
▁When	-1314
▁tak	-1315
ross	-1316
▁start	-1317
▁Car	-1318
▁anal	-1319
▁main	-1320
▁tem	-1321
tand	-1322
▁human	-1323
▁17	-1324
▁These	-1325
zo	-1326
▁around	-1327
▁orig	-1328
atic	-1329
▁must	-1330
rent	-1331
inal	-1332
incip	-1333
ete	-1334
rim	-1335
day	-1336
▁educ	-1337
ral	-1338
▁three	-1339
app	-1340
osc	-1341
TI	-1342
▁prom	-1343
ator	-1344
urope	-1345
ument	-1346
arsi	-1347
▁common	-1348
▁care	-1349
▁tempo	-1350
▁alc	-1351
zionale	-1352
▁appro	-1353
oto	-1354
ves	-1355
▁redu	-1356
▁16	-1357
van	-1358
▁ident	-1359
lood	-1360
▁‘	-1361
▁point	-1362
▁cle	-1363
▁great	-1364
ware	-1365
▁expl	-1366
▁word	-1367
reen	-1368
cer	-1369
▁artic	-1370
▁profess	-1371
▁dev	-1372
nd	-1373
ara	-1374
ton	-1375
▁nei	-1376
▁Non	-1377
▁dopo	-1378
way	-1379
▁report	-1380
▁ol	-1381
."	-1382
▁risp	-1383
▁giv	-1384
me	-1385
ock	-1386
tag	-1387
fic	-1388
AN	-1389
rain	-1390
▁Ex	-1391
AR	-1392
row	-1393
olare	-1394
▁example	-1395
ple	-1396
▁desc	-1397
▁fr	-1398
▁material	-1399
▁techn	-1400
21	-1401
ave	-1402
imi	-1403
▁cour	-1404
▁super	-1405
hi	-1406
oni	-1407
▁fre	-1408
ared	-1409
▁including	-1410
▁though	-1411
itions	-1412
,”	-1413
▁diffic	-1414
acter	-1415
orto	-1416
ll	-1417
▁anim	-1418
EN	-1419
▁coll	-1420
▁build	-1421
utto	-1422
▁allow	-1423
icc	-1424
enze	-1425
lu	-1426
▁Fran	-1427
▁era	-1428
man	-1429
▁const	-1430
▁ref	-1431
▁modo	-1432
ries	-1433
▁set	-1434
▁experi	-1435
▁11	-1436
outh	-1437
",	-1438
▁Ph	-1439
orta	-1440
▁So	-1441
▁riv	-1442
▁pat	-1443
▁nell	-1444
▁art	-1445
▁understand	-1446
▁At	-1447
▁called	-1448
▁esp	-1449
▁mom	-1450
ida	-1451
iness	-1452
▁princip	-1453
▁elect	-1454
▁public	-1455
▁still	-1456
-1	-1457
▁Or	-1458
▁success	-1459
tto	-1460
▁beh	-1461
▁ancora	-1462
ense	-1463
▁dov	-1464
▁perché	-1465
▁line	-1466
▁...	-1467
ecn	-1468
▁pract	-1469
eral	-1470
▁Comm	-1471
▁mot	-1472
▁somet	-1473
▁rif	-1474
▁fu	-1475
orso	-1476
▁port	-1477
▁Rom	-1478
OR	-1479
the	-1480
▁14	-1481
▁cam	-1482
ately	-1483
iment	-1484
▁stand	-1485
nal	-1486
oms	-1487
▁known	-1488
▁Ques	-1489
ortun	-1490
rodu	-1491
▁rich	-1492
▁quando	-1493
▁circ	-1494
▁web	-1495
angu	-1496
ird	-1497
▁mass	-1498
ling	-1499
▁acqu	-1500
▁play	-1501
▁stat	-1502
ids	-1503
▁norm	-1504
fe	-1505
▁require	-1506
▁book	-1507
__	-1508
▁Be	-1509
hod	-1510
▁tras	-1511
oso	-1512
▁Eng	-1513
itive	-1514
atta	-1515
▁fatto	-1516
▁few	-1517
ività	-1518
▁13	-1519
▁However	-1520
ason	-1521
,000	-1522
▁30	-1523
▁area	-1524
▁individual	-1525
▁arriv	-1526
▁ret	-1527
▁Gi	-1528
▁plan	-1529
isti	-1530
▁Cent	-1531
istr	-1532
ece	-1533
▁sing	-1534
▁vari	-1535
ination	-1536
▁might	-1537
▁University	-1538
▁Cl	-1539
ently	-1540
ga	-1541
▁stra	-1542
ogn	-1543
▁Im	-1544
▁let	-1545
età	-1546
▁spe	-1547
▁fut	-1548
ving	-1549
▁quello	-1550
▁ti	-1551
▁decis	-1552
▁chang	-1553
ogg	-1554
▁Pl	-1555
▁Si	-1556
▁disp	-1557
▁environment	-1558
▁want	-1559
▁vita	-1560
▁without	-1561
ization	-1562
ases	-1563
▁place	-1564
▁sym	-1565
▁special	-1566
izione	-1567
ibile	-1568
▁learn	-1569
▁lavoro	-1570
▁energy	-1571
be	-1572
indi	-1573
▁iss	-1574
▁San	-1575
▁large	-1576
▁altri	-1577
uta	-1578
▁mark	-1579
▁within	-1580
▁product	-1581
ording	-1582
▁American	-1583
▁change	-1584
get	-1585
▁poi	-1586
▁signific	-1587
ote	-1588
▁mill	-1589
▁post	-1590
ifica	-1591
AL	-1592
▁direct	-1593
oh	-1594
▁dove	-1595
▁sens	-1596
▁doc	-1597
▁phys	-1598
▁Am	-1599
▁(1	-1600
▁include	-1601
▁Par	-1602
▁proprio	-1603
▁bus	-1604
▁air	-1605
▁determ	-1606
▁nelle	-1607
▁situ	-1608
▁mat	-1609
▁Di	-1610
▁Med	-1611
enn	-1612
rebbe	-1613
▁development	-1614
50	-1615
▁rest	-1616
orth	-1617
ister	-1618
mi	-1619
ativa	-1620
▁—	-1621
▁project	-1622
201	-1623
▁mor	-1624
▁disease	-1625
▁Go	-1626
▁respons	-1627
▁così	-1628
▁tip	-1629
ema	-1630
▁quanto	-1631
osed	-1632
▁home	-1633
ats	-1634
amenti	-1635
abor	-1636
itor	-1637
IN	-1638
▁sever	-1639
30	-1640
▁another	-1641
▁cit	-1642
▁aver	-1643
isce	-1644
ament	-1645
ES	-1646
bal	-1647
imp	-1648
zia	-1649
▁women	-1650
▁order	-1651
▁abb	-1652
sc	-1653
▁pag	-1654
▁light	-1655
▁sop	-1656
▁All	-1657
▁Cont	-1658
abile	-1659
▁access	-1660
biamo	-1661
▁asp	-1662
▁,	-1663
ulti	-1664
▁consum	-1665
imate	-1666
▁top	-1667
2.	-1668
jor	-1669
▁rapp	-1670
rà	-1671
▁best	-1672
omm	-1673
ological	-1674
▁hand	-1675
teg	-1676
lex	-1677
▁«	-1678
▁men	-1679
▁scient	-1680
blic	-1681
thers	-1682
▁risk	-1683
da	-1684
zie	-1685
▁mondo	-1686
▁dest	-1687
▁belie	-1688
iglio	-1689
uard	-1690
▁interest	-1691
▁cred	-1692
▁comb	-1693
ided	-1694
▁ri	-1695
▁contain	-1696
▁tecn	-1697
▁pati	-1698
▁sarà	-1699
▁bro	-1700
▁Cal	-1701
▁cause	-1702
▁segu	-1703
gin	-1704
▁tuo	-1705
▁pain	-1706
ggio	-1707
▁pens	-1708
▁racc	-1709
▁invest	-1710
ways	-1711
ially	-1712
▁sic	-1713
▁dig	-1714
▁già	-1715
iter	-1716
▁ital	-1717
ery	-1718
▁vir	-1719
▁priv	-1720
▁percent	-1721
▁crit	-1722
urs	-1723
▁meas	-1724
kes	-1725
otti	-1726
▁ann	-1727
▁perform	-1728
hor	-1729
ission	-1730
▁utilizz	-1731
▁offer	-1732
▁law	-1733
▁press	-1734
▁sour	-1735
▁sta	-1736
▁Pa	-1737
AT	-1738
ty	-1739
▁stor	-1740
ffer	-1741
▁eng	-1742
▁become	-1743
ted	-1744
mo	-1745
osp	-1746
▁Gen	-1747
icro	-1748
▁blood	-1749
▁online	-1750
▁Cons	-1751
bre	-1752
▁sent	-1753
▁creat	-1754
▁method	-1755
▁Pre	-1756
▁Pol	-1757
▁government	-1758
▁low	-1759
▁X	-1760
▁land	-1761
▁char	-1762
▁ult	-1763
▁better	-1764
▁Ro	-1765
▁last	-1766
▁volta	-1767
▁against	-1768
▁Reg	-1769
//	-1770
▁ott	-1771
▁Ass	-1772
▁sugg	-1773
▁proper	-1774
In	-1775
ining	-1776
til	-1777
▁contrib	-1778
▁early	-1779
▁rim	-1780
▁case	-1781
most	-1782
▁trad	-1783
▁teach	-1784
ette	-1785
▁ben	-1786
ismo	-1787
izzazione	-1788
▁keep	-1789
br	-1790
org	-1791
aut	-1792
▁perm	-1793
▁war	-1794
▁Can	-1795
▁here	-1796
ency	-1797
▁provide	-1798
▁lab	-1799
▁indic	-1800
▁caso	-1801
▁larg	-1802
stit	-1803
▁too	-1804
▁period	-1805
ption	-1806
▁United	-1807
▁means	-1808
ills	-1809
▁US	-1810
ians	-1811
aper	-1812
vil	-1813
not	-1814
▁grande	-1815
po	-1816
ek	-1817
AS	-1818
1.	-1819
▁family	-1820
▁fine	-1821
▁migli	-1822
▁sf	-1823
▁local	-1824
▁manag	-1825
▁history	-1826
lement	-1827
▁vide	-1828
ements	-1829
▁avail	-1830
▁Acc	-1831
erà	-1832
▁indust	-1833
▁ved	-1834
▁prev	-1835
▁prevent	-1836
▁possible	-1837
▁major	-1838
▁gl	-1839
▁eas	-1840
occ	-1841
esc	-1842
▁sl	-1843
▁invol	-1844
▁/	-1845
▁One	-1846
ards	-1847
▁say	-1848
▁particular	-1849
▁Ab	-1850
▁tro	-1851
ames	-1852
▁base	-1853
▁sito	-1854
▁Pr	-1855
▁lung	-1856
▁contr	-1857
▁nuovo	-1858
▁tal	-1859
▁learning	-1860
▁casa	-1861
▁near	-1862
ittle	-1863
▁age	-1864
aggi	-1865
iana	-1866
ash	-1867
ound	-1868
ustr	-1869
idence	-1870
▁1.	-1871
▁addition	-1872
ank	-1873
wh	-1874
▁open	-1875
://	-1876
sour	-1877
▁primo	-1878
▁several	-1879
oper	-1880
iglia	-1881
rest	-1882
agli	-1883
▁Europe	-1884
▁applic	-1885
osto	-1886
▁mal	-1887
▁rig	-1888
IC	-1889
IS	-1890
▁able	-1891
▁dur	-1892
22	-1893
uzione	-1894
▁God	-1895
ects	-1896
▁benef	-1897
▁mean	-1898
▁associ	-1899
abil	-1900
▁bi	-1901
ape	-1902
▁Su	-1903
▁Man	-1904
▁happ	-1905
▁quindi	-1906
ites	-1907
▁Sci	-1908
▁conn	-1909
▁comput	-1910
ah	-1911
▁aggi	-1912
▁nostro	-1913
▁things	-1914
▁emp	-1915
▁Wor	-1916
▁current	-1917
▁langu	-1918
▁tot	-1919
▁persone	-1920
ogli	-1921
▁sist	-1922
esta	-1923
▁ill	-1924
▁Bl	-1925
▁cosa	-1926
▁specific	-1927
loy	-1928
▁feel	-1929
aster	-1930
▁quella	-1931
▁lu	-1932
▁natural	-1933
ativo	-1934
ffici	-1935
erca	-1936
▁dai	-1937
ches	-1938
▁remain	-1939
▁areas	-1940
▁25	-1941
▁species	-1942
▁alcun	-1943
col	-1944
▁foc	-1945
▁Ne	-1946
▁24	-1947
▁Italia	-1948
uale	-1949
▁Mil	-1950
▁since	-1951
▁treatment	-1952
▁others	-1953
▁among	-1954
▁tri	-1955
hy	-1956
▁tutte	-1957
ala	-1958
emente	-1959
though	-1960
iali	-1961
▁think	-1962
ring	-1963
ify	-1964
essa	-1965
ends	-1966
▁country	-1967
▁States	-1968
lish	-1969
▁says	-1970
▁sost	-1971
ilar	-1972
▁lik	-1973
▁rit	-1974
▁based	-1975
ured	-1976
▁Tra	-1977
ziend	-1978
rend	-1979
▁fur	-1980
▁following	-1981
omo	-1982
razione	-1983
▁available	-1984
200	-1985
ression	-1986
sy	-1987
▁temper	-1988
orre	-1989
esse	-1990
3.	-1991
▁personal	-1992
EL	-1993
▁plant	-1994
ots	-1995
,"	-1996
▁times	-1997
▁ur	-1998
▁view	-1999
▁list	-2000
usc	-2001
idente	-2002
▁head	-2003
▁stata	-2004
▁Af	-2005
▁Bo	-2006
▁run	-2007
oll	-2008
ended	-2009
ope	-2010
▁whe	-2011
▁bar	-2012
omp	-2013
▁fino	-2014
▁With	-2015
amm	-2016
work	-2017
▁four	-2018
▁dalle	-2019
▁anti	-2020
▁National	-2021
1,	-2022
▁film	-2023
▁later	-2024
tà	-2025
▁object	-2026
▁suggest	-2027
▁rece	-2028
▁nov	-2029
▁possono	-2030
▁red	-2031
ym	-2032
▁Some	-2033
sel	-2034
rare	-2035
ones	-2036
▁hard	-2037
▁ore	-2038
iet	-2039
▁oltre	-2040
▁memb	-2041
2,	-2042
vo	-2043
▁month	-2044
▁struct	-2045
▁contro	-2046
▁certain	-2047
▁By	-2048
▁name	-2049
▁glo	-2050
▁oggi	-2051
▁refer	-2052
▁$	-2053
inf	-2054
5.	-2055
cing	-2056
▁type	-2057
▁discuss	-2058
imenti	-2059
▁Dr	-2060
▁cells	-2061
▁Comp	-2062
▁Rep	-2063
ified	-2064
▁Stud	-2065
▁App	-2066
▁dra	-2067
ittà	-2068
chio	-2069
icazione	-2070
▁prim	-2071
▁attra	-2072
▁parti	-2073
anzi	-2074
▁mer	-2075
atch	-2076
port	-2077
▁100	-2078
▁little	-2079
▁defin	-2080
▁possibile	-2081
▁prob	-2082
▁dello	-2083
▁propri	-2084
▁disco	-2085
▁Do	-2086
ohn	-2087
▁questi	-2088
▁cho	-2089
▁prote	-2090
ffic	-2091
idd	-2092
▁free	-2093
▁levels	-2094
▁young	-2095
▁frequ	-2096
▁exper	-2097
oco	-2098
▁viene	-2099
▁sw	-2100
▁farm	-2101
▁squ	-2102
▁198	-2103
▁tit	-2104
▁gre	-2105
▁Intern	-2106
uno	-2107
▁resour	-2108
▁quale	-2109
▁merc	-2110
▁ten	-2111
ume	-2112
▁50	-2113
▁Germ	-2114
▁problems	-2115
▁neg	-2116
▁mis	-2117
▁tas	-2118
ela	-2119
It	-2120
▁flow	-2121
air	-2122
▁team	-2123
▁continu	-2124
▁mo	-2125
▁tur	-2126
yc	-2127
ritto	-2128
▁picc	-2129
▁No	-2130
ability	-2131
acy	-2132
▁htt	-2133
▁until	-2134
▁diet	-2135
▁sotto	-2136
iem	-2137
▁vo	-2138
▁cook	-2139
▁focus	-2140
bit	-2141
ode	-2142
▁euro	-2143
▁paren	-2144
ogra	-2145
▁prec	-2146
▁making	-2147
▁amount	-2148
etic	-2149
▁heart	-2150
▁event	-2151
aps	-2152
▁Lo	-2153
▁impact	-2154
▁business	-2155
▁fra	-2156
▁function	-2157
▁Gu	-2158
ede	-2159
▁seem	-2160
nov	-2161
▁dati	-2162
▁dispos	-2163
▁cli	-2164
▁exc	-2165
▁secondo	-2166
iver	-2167
▁ing	-2168
view	-2169
▁record	-2170
▁Pres	-2171
▁Ag	-2172
unc	-2173
▁giorni	-2174
▁given	-2175
atory	-2176
iani	-2177
▁pubblic	-2178
ratt	-2179
IT	-2180
▁2.	-2181
6.	-2182
ither	-2183
ived	-2184
▁intern	-2185
ances	-2186
lect	-2187
face	-2188
▁compet	-2189
izia	-2190
▁fav	-2191
ably	-2192
8.	-2193
3,	-2194
▁significant	-2195
▁something	-2196
▁pred	-2197
▁turn	-2198
▁influ	-2199
4.	-2200
▁giorno	-2201
▁strateg	-2202
▁community	-2203
yn	-2204
▁clear	-2205
aro	-2206
vilu	-2207
ledge	-2208
▁behav	-2209
▁rad	-2210
▁past	-2211
▁field	-2212
▁Te	-2213
▁Ear	-2214
af	-2215
▁likely	-2216
▁course	-2217
▁Ed	-2218
▁net	-2219
▁corre	-2220
▁ave	-2221
amin	-2222
▁Cor	-2223
▁along	-2224
▁anno	-2225
▁rid	-2226
▁lavor	-2227
▁cop	-2228
▁sus	-2229
▁momento	-2230
▁John	-2231
▁mem	-2232
▁visit	-2233
▁potential	-2234
▁Sec	-2235
▁ant	-2236
▁stesso	-2237
▁arm	-2238
▁always	-2239
▁region	-2240
▁ru	-2241
▁mai	-2242
earch	-2243
▁territ	-2244
▁obs	-2245
▁perf	-2246
book	-2247
▁Mon	-2248
▁Ho	-2249
▁education	-2250
arious	-2251
ending	-2252
▁(19	-2253
▁medic	-2254
▁days	-2255
▁rele	-2256
ik	-2257
▁media	-2258
ier	-2259
▁create	-2260
▁gar	-2261
edic	-2262
▁foto	-2263
▁incont	-2264
▁systems	-2265
▁increase	-2266
chie	-2267
▁death	-2268
▁numero	-2269
▁appear	-2270
reg	-2271
▁experience	-2272
▁video	-2273
▁words	-2274
ream	-2275
▁Nov	-2276
▁nut	-2277
▁future	-2278
▁Sal	-2279
▁mag	-2280
ava	-2281
iale	-2282
▁Pub	-2283
▁attravers	-2284
ival	-2285
▁million	-2286
▁lot	-2287
ecially	-2288
▁:	-2289
NA	-2290
tabl	-2291
IA	-2292
▁usually	-2293
▁proced	-2294
▁results	-2295
▁Em	-2296
▁Brit	-2297
▁Val	-2298
▁mess	-2299
gether	-2300
7.	-2301
▁plac	-2302
▁brain	-2303
▁give	-2304
arie	-2305
alità	-2306
▁opportun	-2307
8,	-2308
▁old	-2309
▁language	-2310
▁today	-2311
▁fond	-2312
▁population	-2313
eth	-2314
▁bamb	-2315
bon	-2316
5,	-2317
▁div	-2318
▁Ge	-2319
▁That	-2320
▁ey	-2321
enso	-2322
▁short	-2323
ering	-2324
▁Gra	-2325
▁technology	-2326
▁why	-2327
ration	-2328
ptoms	-2329
ordin	-2330
▁needs	-2331
▁arg	-2332
▁viol	-2333
entire	-2334
of	-2335
▁author	-2336
irm	-2337
▁nostra	-2338
▁above	-2339
▁pubbl	-2340
asing	-2341
▁century	-2342
▁general	-2343
7,	-2344
esto	-2345
6,	-2346
▁ap	-2347
ID	-2348
utes	-2349
omb	-2350
▁conditions	-2351
uf	-2352
▁esc	-2353
▁similar	-2354
▁describ	-2355
▁next	-2356
sw	-2357
esa	-2358
▁dam	-2359
▁cancer	-2360
11	-2361
▁sui	-2362
▁put	-2363
ria	-2364
▁exist	-2365
▁ecc	-2366
0.	-2367
eter	-2368
▁World	-2369
▁Che	-2370
ators	-2371
▁relig	-2372
itud	-2373
ef	-2374
▁È	-2375
enz	-2376
9.	-2377
▁hy	-2378
▁strong	-2379
▁qualche	-2380
ha	-2381
ruction	-2382
istic	-2383
▁agli	-2384
oney	-2385
▁altre	-2386
▁CO	-2387
▁deb	-2388
ho	-2389
resc	-2390
▁character	-2391
▁Nel	-2392
▁città	-2393
igg	-2394
ised	-2395
▁across	-2396
▁works	-2397
▁Una	-2398
ilt	-2399
▁origin	-2400
izzare	-2401
ives	-2402
▁begin	-2403
▁Min	-2404
▁War	-2405
▁arch	-2406
▁multi	-2407
ieme	-2408
zzi	-2409
▁svilu	-2410
▁establ	-2411
▁Come	-2412
▁changes	-2413
aking	-2414
rist	-2415
▁higher	-2416
▁try	-2417
atura	-2418
▁working	-2419
vero	-2420
▁abbiamo	-2421
▁cover	-2422
vere	-2423
):	-2424
alf	-2425
▁vend	-2426
pid	-2427
▁noi	-2428
▁various	-2429
▁While	-2430
▁never	-2431
▁kind	-2432
▁giorn	-2433
ively	-2434
▁fig	-2435
▁side	-2436
ged	-2437
▁least	-2438
ogo	-2439
▁2020	-2440
selves	-2441
▁soft	-2442
tere	-2443
▁Ste	-2444
olar	-2445
▁emer	-2446
enzi	-2447
omes	-2448
▁tel	-2449
▁tool	-2450
▁cat	-2451
▁bis	-2452
▁together	-2453
▁civ	-2454
utions	-2455
▁occur	-2456
ley	-2457
▁polic	-2458
▁hour	-2459
▁enough	-2460
orts	-2461
▁calc	-2462
9,	-2463
▁ven	-2464
▁however	-2465
▁countries	-2466
▁integ	-2467
izzato	-2468
risti	-2469
ories	-2470
▁away	-2471
4,	-2472
uoi	-2473
▁fall	-2474
▁21	-2475
▁ec	-2476
▁197	-2477
▁After	-2478
▁improv	-2479
ium	-2480
pe	-2481
▁avere	-2482
thing	-2483
▁chem	-2484
▁account	-2485
inking	-2486
▁micro	-2487
▁especially	-2488
▁qui	-2489
ils	-2490
▁jo	-2491
ysis	-2492
▁full	-2493
aves	-2494
ray	-2495
▁quali	-2496
by	-2497
▁She	-2498
▁left	-2499
▁key	-2500
▁vic	-2501
▁meno	-2502
▁market	-2503
▁punto	-2504
ention	-2505
ET	-2506
ecip	-2507
▁having	-2508
▁nuova	-2509
anta	-2510
rid	-2511
▁divent	-2512
una	-2513
ologia	-2514
▁scel	-2515
▁plants	-2516
!!	-2517
▁sap	-2518
▁step	-2519
▁Fe	-2520
▁ways	-2521
▁tend	-2522
....	-2523
▁invece	-2524
ministr	-2525
▁suoi	-2526
anda	-2527
rig	-2528
iore	-2529
aring	-2530
atica	-2531
▁attività	-2532
▁ir	-2533
▁single	-2534
essi	-2535
▁cases	-2536
▁English	-2537
▁self	-2538
▁opt	-2539
▁space	-2540
ctor	-2541
side	-2542
ichi	-2543
bero	-2544
orio	-2545
str	-2546
▁types	-2547
▁sum	-2548
▁Bar	-2549
ibili	-2550
▁attraverso	-2551
▁lower	-2552
aw	-2553
▁fund	-2554
▁capac	-2555
▁effects	-2556
gn	-2557
RO	-2558
▁comment	-2559
▁Health	-2560
60	-2561
▁alcuni	-2562
▁ens	-2563
enere	-2564
▁relations	-2565
▁Inter	-2566
▁grat	-2567
▁studies	-2568
ired	-2569
▁symptoms	-2570
elo	-2571
tific	-2572
▁Dec	-2573
▁mentre	-2574
tad	-2575
vert	-2576
asse	-2577
▁subject	-2578
▁Roma	-2579
urch	-2580
▁difficult	-2581
▁became	-2582
urity	-2583
ered	-2584
▁prodotti	-2585
self	-2586
▁risult	-2587
▁mind	-2588
▁house	-2589
▁parl	-2590
▁makes	-2591
▁tratt	-2592
▁por	-2593
ada	-2594
▁physical	-2595
▁sulle	-2596
▁reason	-2597
▁caratter	-2598
▁=	-2599
▁city	-2600
▁ge	-2601
▁forn	-2602
▁distrib	-2603
▁knowledge	-2604
▁collabor	-2605
▁whether	-2606
ama	-2607
▁represent	-2608
▁patients	-2609
itori	-2610
▁Pe	-2611
rica	-2612
▁York	-2613
▁altro	-2614
eds	-2615
urg	-2616
▁hum	-2617
▁live	-2618
osta	-2619
▁chall	-2620
eria	-2621
ened	-2622
▁going	-2623
itare	-2624
▁prefer	-2625
▁storia	-2626
▁question	-2627
▁•	-2628
ready	-2629
▁further	-2630
▁El	-2631
▁music	-2632
▁dedic	-2633
▁II	-2634
▁science	-2635
▁ground	-2636
▁tutta	-2637
▁story	-2638
▁mio	-2639
▁rate	-2640
esti	-2641
ows	-2642
bs	-2643
▁role	-2644
▁text	-2645
▁Questo	-2646
▁esemp	-2647
mail	-2648
▁profession	-2649
▁cin	-2650
▁#	-2651
▁Research	-2652
▁rispetto	-2653
▁computer	-2654
--	-2655
por	-2656
lished	-2657
xim	-2658
▁color	-2659
▁sel	-2660
▁Ital	-2661
▁America	-2662
for	-2663
▁Part	-2664
▁May	-2665
▁stress	-2666
▁condu	-2667
▁sure	-2668
▁sistema	-2669
▁fem	-2670
▁pan	-2671
ler	-2672
▁2021	-2673
▁week	-2674
▁particip	-2675
▁wind	-2676
atures	-2677
ules	-2678
Th	-2679
ality	-2680
▁employ	-2681
uth	-2682
▁explain	-2683
▁rappresent	-2684
▁deve	-2685
▁activities	-2686
▁link	-2687
▁ban	-2688
oltre	-2689
▁Dep	-2690
▁assist	-2691
OL	-2692
▁separ	-2693
▁Po	-2694
▁groups	-2695
▁loss	-2696
▁value	-2697
▁site	-2698
▁idea	-2699
▁range	-2700
▁Not	-2701
▁Ins	-2702
▁maggio	-2703
▁durante	-2704
▁legg	-2705
/0	-2706
▁offic	-2707
▁partecip	-2708
▁elett	-2709
▁infatti	-2710
▁below	-2711
▁model	-2712
▁rice	-2713
▁article	-2714
▁grazie	-2715
▁seen	-2716
▁Don	-2717
▁den	-2718
uso	-2719
▁centro	-2720
▁Ac	-2721
▁ov	-2722
▁fri	-2723
▁activity	-2724
▁already	-2725
▁gest	-2726
▁products	-2727
▁toward	-2728
▁gas	-2729
▁black	-2730
▁ask	-2731
▁rather	-2732
lin	-2733
▁dispon	-2734
RE	-2735
isi	-2736
ney	-2737
▁resources	-2738
▁communic	-2739
▁introdu	-2740
rove	-2741
▁bisog	-2742
▁growth	-2743
▁rag	-2744
▁really	-2745
osis	-2746
▁circa	-2747
▁ve	-2748
▁Da	-2749
▁Rec	-2750
▁informazioni	-2751
▁dav	-2752
ield	-2753
enzione	-2754
▁Dis	-2755
tead	-2756
▁done	-2757
▁40	-2758
▁sun	-2759
▁stati	-2760
TO	-2761
pi	-2762
▁flu	-2763
▁protect	-2764
▁ora	-2765
▁servizio	-2766
▁3.	-2767
▁production	-2768
▁tradition	-2769
iding	-2770
illi	-2771
▁evidence	-2772
▁quality	-2773
▁recogn	-2774
uali	-2775
▁North	-2776
rattutto	-2777
▁cr	-2778
▁either	-2779
imm	-2780
ump	-2781
▁medical	-2782
ried	-2783
engono	-2784
▁meet	-2785
▁developed	-2786
▁Gr	-2787
▁però	-2788
▁building	-2789
anz	-2790
ativi	-2791
▁ang	-2792
40	-2793
otel	-2794
▁return	-2795
rict	-2796
12	-2797
olution	-2798
▁once	-2799
▁settim	-2800
”.	-2801
ournal	-2802
▁source	-2803
▁simp	-2804
▁gru	-2805
▁reduce	-2806
▁pri	-2807
▁abs	-2808
www	-2809
▁matter	-2810
▁five	-2811
ido	-2812
pping	-2813
▁compon	-2814
etting	-2815
▁according	-2816
ights	-2817
erap	-2818
▁Sy	-2819
▁progetto	-2820
▁deg	-2821
▁Lib	-2822
AM	-2823
▁observ	-2824
▁issues	-2825
ee	-2826
▁achie	-2827
▁vost	-2828
▁South	-2829
▁conv	-2830
▁prepar	-2831
▁Act	-2832
▁national	-2833
▁climate	-2834
ison	-2835
▁collect	-2836
▁resist	-2837
▁researchers	-2838
▁ricerca	-2839
segu	-2840
▁drug	-2841
▁members	-2842
cl	-2843
▁Fin	-2844
ivamente	-2845
▁More	-2846
unque	-2847
▁skills	-2848
▁concept	-2849
adem	-2850
elling	-2851
TE	-2852
OS	-2853
▁sare	-2854
ettore	-2855
▁address	-2856
▁occup	-2857
leep	-2858
▁immedi	-2859
▁dim	-2860
ranno	-2861
▁musc	-2862
▁living	-2863
ugg	-2864
▁paper	-2865
pped	-2866
erve	-2867
▁detail	-2868
▁Tr	-2869
▁servizi	-2870
▁fore	-2871
▁spir	-2872
▁upon	-2873
zionali	-2874
▁questions	-2875
▁pal	-2876
▁categ	-2877
▁taken	-2878
ula	-2879
▁surface	-2880
▁ist	-2881
▁qualità	-2882
AC	-2883
▁giov	-2884
▁global	-2885
ota	-2886
▁whole	-2887
▁enco	-2888
▁semb	-2889
ening	-2890
aci	-2891
▁Most	-2892
▁interp	-2893
asci	-2894
▁nature	-2895
ania	-2896
put	-2897
▁Cap	-2898
bbero	-2899
▁standard	-2900
acqu	-2901
sh	-2902
iting	-2903
▁sound	-2904
▁concent	-2905
▁Me	-2906
▁22	-2907
▁bal	-2908
▁created	-2909
▁themselves	-2910
▁verso	-2911
almente	-2912
▁fed	-2913
Un	-2914
▁Mod	-2915
▁student	-2916
▁adv	-2917
▁Serv	-2918
▁white	-2919
▁considered	-2920
▁particolare	-2921
onom	-2922
▁pay	-2923
idi	-2924
anze	-2925
▁inizi	-2926
▁tua	-2927
▁advan	-2928
▁lay	-2929
▁dic	-2930
▁came	-2931
▁cla	-2932
▁answ	-2933
amples	-2934
▁IN	-2935
▁size	-2936
▁san	-2937
.)	-2938
▁finanzi	-2939
▁soprattutto	-2940
▁recomm	-2941
ript	-2942
▁conosc	-2943
arti	-2944
emi	-2945
▁sull	-2946
▁diagn	-2947
▁cannot	-2948
son	-2949
▁Inf	-2950
glio	-2951
▁diverse	-2952
▁fat	-2953
▁attack	-2954
▁fail	-2955
▁x	-2956
▁Fl	-2957
▁Us	-2958
▁der	-2959
▁produce	-2960
▁23	-2961
ucle	-2962
▁thought	-2963
▁political	-2964
▁skin	-2965
▁altern	-2966
▁autom	-2967
▁na	-2968
-2	-2969
▁riguard	-2970
▁gioc	-2971
▁queste	-2972
▁tw	-2973
▁pross	-2974
▁aziend	-2975
ched	-2976
▁hold	-2977
▁DI	-2978
orse	-2979
ught	-2980
▁Hist	-2981
rato	-2982
▁sch	-2983
▁associated	-2984
▁increased	-2985
▁Earth	-2986
▁condi	-2987
▁modern	-2988
▁presso	-2989
▁conten	-2990
ush	-2991
urezza	-2992
▁adult	-2993
erra	-2994
issimo	-2995
▁richies	-2996
▁mob	-2997
▁management	-2998
▁ord	-2999
asso	-3000
▁economic	-3001
▁pul	-3002
▁pressure	-3003
▁concern	-3004
▁qualc	-3005
▁recent	-3006
illed	-3007
▁practice	-3008
▁understanding	-3009
▁insieme	-3010
zio	-3011
▁raggi	-3012
▁saf	-3013
▁corso	-3014
▁preced	-3015
ardi	-3016
▁ricord	-3017
▁effici	-3018
▁mia	-3019
▁Mo	-3020
▁actually	-3021
ieg	-3022
▁Mi	-3023
rire	-3024
▁assess	-3025
▁His	-3026
▁Many	-3027
▁svol	-3028
ox	-3029
▁simple	-3030
yle	-3031
dd	-3032
rice	-3033
▁1,	-3034
lies	-3035
▁animals	-3036
▁required	-3037
▁veg	-3038
▁rights	-3039
abili	-3040
eso	-3041
80	-3042
sequ	-3043
▁itself	-3044
▁Inc	-3045
▁face	-3046
▁published	-3047
▁esempio	-3048
lied	-3049
ting	-3050
pper	-3051
via	-3052
segn	-3053
▁approach	-3054
artment	-3055
▁effective	-3056
▁quick	-3057
▁Des	-3058
▁avo	-3059
usto	-3060
▁commerc	-3061
▁states	-3062
▁complex	-3063
▁Home	-3064
▁relationship	-3065
▁related	-3066
▁Gio	-3067
▁green	-3068
ored	-3069
ges	-3070
▁almost	-3071
▁ren	-3072
▁histor	-3073
▁needed	-3074
apan	-3075
▁vacc	-3076
umento	-3077
ires	-3078
▁ciò	-3079
____	-3080
▁sport	-3081
ections	-3082
bers	-3083
▁ability	-3084
▁mesi	-3085
▁nostri	-3086
▁condition	-3087
gi	-3088
urale	-3089
▁facil	-3090
▁scu	-3091
unci	-3092
-0	-3093
ropri	-3094
▁maintain	-3095
▁mac	-3096
epend	-3097
▁provides	-3098
uly	-3099
▁strutt	-3100
ION	-3101
▁exam	-3102
▁piano	-3103
▁miglior	-3104
hib	-3105
aries	-3106
oy	-3107
▁comes	-3108
▁materials	-3109
▁milit	-3110
ingu	-3111
▁ep	-3112
▁bio	-3113
ision	-3114
IL	-3115
▁healthy	-3116
▁Br	-3117
graf	-3118
▁Russ	-3119
adre	-3120
▁Tut	-3121
▁sil	-3122
▁cele	-3123
▁negli	-3124
▁univers	-3125
mon	-3126
▁vit	-3127
▁interv	-3128
sych	-3129
▁ste	-3130
▁fish	-3131
▁siamo	-3132
▁services	-3133
▁perd	-3134
▁entire	-3135
▁exerc	-3136
▁oil	-3137
▁scar	-3138
▁sin	-3139
lying	-3140
ograph	-3141
▁months	-3142
rel	-3143
ulations	-3144
▁necessary	-3145
▁half	-3146
▁dog	-3147
unto	-3148
ban	-3149
▁parts	-3150
▁serie	-3151
uted	-3152
astic	-3153
ties	-3154
uove	-3155
▁money	-3156
▁effett	-3157
▁2017	-3158
▁weight	-3159
ims	-3160
▁techni	-3161
▁importante	-3162
▁letter	-3163
▁pen	-3164
▁sogg	-3165
omin	-3166
▁funzion	-3167
▁decre	-3168
ept	-3169
▁engine	-3170
▁poco	-3171
iste	-3172
▁+	-3173
ake	-3174
ror	-3175
▁conserv	-3176
iction	-3177
▁took	-3178
ocia	-3179
perienza	-3180
ED	-3181
▁*	-3182
▁path	-3183
▁fire	-3184
▁Red	-3185
▁occas	-3186
▁document	-3187
▁quant	-3188
▁essential	-3189
▁ever	-3190
edia	-3191
▁Bu	-3192
ective	-3193
▁2018	-3194
▁Apr	-3195
▁targ	-3196
▁etc	-3197
ensive	-3198
▁società	-3199
ky	-3200
▁content	-3201
▁sue	-3202
▁began	-3203
▁react	-3204
▁dol	-3205
▁2019	-3206
ivity	-3207
▁meglio	-3208
▁Instit	-3209
▁parents	-3210
graph	-3211
mat	-3212
▁hours	-3213
▁Ci	-3214
aco	-3215
▁software	-3216
▁volte	-3217
▁molti	-3218
ables	-3219
▁factors	-3220
cia	-3221
▁temperature	-3222
▁posto	-3223
rano	-3224
▁British	-3225
orsi	-3226
▁log	-3227
▁State	-3228
alk	-3229
▁colon	-3230
IV	-3231
▁fru	-3232
▁install	-3233
meno	-3234
▁aper	-3235
▁sac	-3236
▁action	-3237
▁Japan	-3238
▁196	-3239
▁2016	-3240
▁http	-3241
▁feed	-3242
▁Although	-3243
▁Sm	-3244
▁bur	-3245
▁tanto	-3246
▁yet	-3247
▁Dav	-3248
▁prodotto	-3249
▁chemical	-3250
imin	-3251
▁reading	-3252
ugno	-3253
▁Here	-3254
▁Pal	-3255
▁School	-3256
▁service	-3257
▁allo	-3258
istica	-3259
▁sex	-3260
▁livello	-3261
erson	-3262
▁soil	-3263
▁Gli	-3264
duc	-3265
gar	-3266
egu	-3267
▁labor	-3268
cient	-3269
lig	-3270
pro	-3271
uri	-3272
▁popular	-3273
▁file	-3274
based	-3275
▁sense	-3276
▁improve	-3277
ying	-3278
▁Prog	-3279
▁job	-3280
▁sott	-3281
▁io	-3282
tif	-3283
▁analysis	-3284
▁pattern	-3285
▁rom	-3286
▁liter	-3287
▁cittad	-3288
▁throughout	-3289
load	-3290
estern	-3291
ronic	-3292
▁total	-3293
▁Milano	-3294
15	-3295
▁2010	-3296
isf	-3297
ibilità	-3298
▁sat	-3299
izzo	-3300
▁mach	-3301
▁quasi	-3302
istiche	-3303
alu	-3304
▁Christi	-3305
▁share	-3306
▁regard	-3307
ification	-3308
▁Mus	-3309
echan	-3310
▁Nat	-3311
▁Att	-3312
▁fis	-3313
ners	-3314
▁measure	-3315
bol	-3316
iddle	-3317
▁osp	-3318
▁cu	-3319
izing	-3320
▁(2	-3321
▁potrebbe	-3322
agine	-3323
▁veget	-3324
au	-3325
eni	-3326
▁disord	-3327
▁interess	-3328
▁increasing	-3329
uses	-3330
▁taking	-3331
rem	-3332
▁possibilità	-3333
La	-3334
ttobre	-3335
▁€	-3336
iously	-3337
-19	-3338
aches	-3339
ising	-3340
▁sor	-3341
biett	-3342
▁magn	-3343
itted	-3344
si	-3345
▁mercato	-3346
▁4.	-3347
▁porta	-3348
▁conduct	-3349
▁break	-3350
▁aud	-3351
▁Sono	-3352
▁training	-3353
interno	-3354
▁aveva	-3355
▁carbon	-3356
RA	-3357
▁interact	-3358
▁heat	-3359
▁diversi	-3360
/201	-3361
ogle	-3362
TA	-3363
hol	-3364
▁shows	-3365
▁position	-3366
yl	-3367
▁tell	-3368
▁individuals	-3369
▁King	-3370
▁Jew	-3371
eto	-3372
▁longer	-3373
▁bra	-3374
▁Har	-3375
IO	-3376
verno	-3377
▁cand	-3378
▁six	-3379
▁limit	-3380
▁structure	-3381
▁behavior	-3382
▁culture	-3383
▁rin	-3384
▁nar	-3385
▁Your	-3386
▁spesso	-3387
▁grado	-3388
▁va	-3389
▁industry	-3390
ester	-3391
);	-3392
▁26	-3393
▁cerc	-3394
▁son	-3395
ensione	-3396
▁webs	-3397
”,	-3398
agna	-3399
▁meaning	-3400
lands	-3401
▁ambi	-3402
ades	-3403
▁Sch	-3404
like	-3405
▁writing	-3406
▁rapid	-3407
new	-3408
onse	-3409
▁cod	-3410
▁sicurezza	-3411
▁company	-3412
aling	-3413
▁environmental	-3414
▁28	-3415
▁Arch	-3416
▁tratta	-3417
▁2013	-3418
▁interna	-3419
▁bring	-3420
▁implement	-3421
▁tipo	-3422
▁discover	-3423
attle	-3424
▁emot	-3425
▁contact	-3426
▁provided	-3427
rate	-3428
▁saranno	-3429
▁guid	-3430
▁thing	-3431
▁legge	-3432
▁progress	-3433
▁proc	-3434
».	-3435
pond	-3436
issione	-3437
ald	-3438
▁According	-3439
▁true	-3440
▁built	-3441
▁sleep	-3442
▁heav	-3443
▁inj	-3444
▁clean	-3445
▁extre	-3446
▁quelli	-3447
▁bill	-3448
▁Ser	-3449
▁India	-3450
▁surv	-3451
▁dent	-3452
▁innov	-3453
▁terms	-3454
tta	-3455
▁stag	-3456
▁consist	-3457
▁led	-3458
rac	-3459
▁society	-3460
▁easy	-3461
▁Aug	-3462
▁Soci	-3463
▁Cas	-3464
▁27	-3465
ersi	-3466
hold	-3467
irth	-3468
▁designed	-3469
▁bott	-3470
▁includes	-3471
▁agric	-3472
ande	-3473
ient	-3474
▁page	-3475
▁repl	-3476
eli	-3477
▁Es	-3478
▁dip	-3479
▁original	-3480
reng	-3481
ppi	-3482
▁benefits	-3483
▁caused	-3484
ila	-3485
ulla	-3486
Italia	-3487
naio	-3488
▁auto	-3489
▁donne	-3490
uge	-3491
aff	-3492
fully	-3493
aggior	-3494
▁rifer	-3495
▁cut	-3496
▁propria	-3497
▁Int	-3498
oph	-3499
▁network	-3500
atte	-3501
ender	-3502
▁194	-3503
▁spread	-3504
▁lives	-3505
Il	-3506
▁close	-3507
▁Lu	-3508
▁Chi	-3509
▁lif	-3510
▁earth	-3511
▁bird	-3512
ellig	-3513
▁news	-3514
▁maggior	-3515
▁check	-3516
▁performance	-3517
▁clos	-3518
▁shown	-3519
ule	-3520
▁bambini	-3521
▁slow	-3522
abilità	-3523
rad	-3524
▁guard	-3525
▁--	-3526
▁programs	-3527
▁famil	-3528
▁viv	-3529
ibility	-3530
▁agg	-3531
▁2015	-3532
▁subst	-3533
▁variety	-3534
ensioni	-3535
▁Science	-3536
▁Bro	-3537
istics	-3538
umenti	-3539
▁methods	-3540
▁causes	-3541
▁manif	-3542
▁threat	-3543
▁quel	-3544
▁grandi	-3545
vano	-3546
hood	-3547
bbra	-3548
itter	-3549
aging	-3550
US	-3551
umin	-3552
▁Leg	-3553
vey	-3554
rench	-3555
▁From	-3556
▁60	-3557
dom	-3558
▁big	-3559
▁stamp	-3560
▁Rev	-3561
▁uses	-3562
rought	-3563
▁simply	-3564
▁lack	-3565
▁nuovi	-3566
▁Aut	-3567
▁regular	-3568
▁Ang	-3569
amed	-3570
ike	-3571
▁positive	-3572
atives	-3573
▁Camp	-3574
uments	-3575
uglio	-3576
allo	-3577
igi	-3578
▁complete	-3579
▁2012	-3580
▁move	-3581
▁forma	-3582
▁nucle	-3583
-3	-3584
▁vista	-3585
▁Jan	-3586
▁sometimes	-3587
rup	-3588
ulate	-3589
▁quelle	-3590
aving	-3591
▁believe	-3592
▁vu	-3593
▁varia	-3594
▁eat	-3595
▁displ	-3596
▁sod	-3597
▁tax	-3598
▁costru	-3599
▁deep	-3600
▁pian	-3601
▁schools	-3602
▁migliori	-3603
▁detto	-3604
▁wild	-3605
▁love	-3606
rete	-3607
onto	-3608
▁clin	-3609
▁trovare	-3610
EC	-3611
cchi	-3612
▁ago	-3613
arlo	-3614
▁Fed	-3615
▁Prof	-3616
▁greater	-3617
▁propos	-3618
ufact	-3619
▁ple	-3620
▁China	-3621
▁Met	-3622
▁tor	-3623
unter	-3624
▁monitor	-3625
▁issue	-3626
▁average	-3627
edì	-3628
▁Was	-3629
lice	-3630
▁cresc	-3631
▁gioco	-3632
▁Educ	-3633
▁policy	-3634
▁poor	-3635
▁ricon	-3636
▁>	-3637
▁resid	-3638
rial	-3639
osci	-3640
▁My	-3641
inese	-3642
16	-3643
▁Center	-3644
▁lui	-3645
▁scientists	-3646
▁extra	-3647
▁gir	-3648
▁movement	-3649
▁basic	-3650
xy	-3651
rese	-3652
▁helps	-3653
▁normal	-3654
illa	-3655
▁nav	-3656
▁reported	-3657
▁involved	-3658
enc	-3659
▁prest	-3660
▁cris	-3661
ales	-3662
▁demon	-3663
▁written	-3664
▁compan	-3665
▁Tor	-3666
arian	-3667
▁visto	-3668
ustom	-3669
▁events	-3670
ende	-3671
▁gain	-3672
▁photo	-3673
rat	-3674
▁Bec	-3675
iscono	-3676
▁milioni	-3677
▁News	-3678
▁therap	-3679
onte	-3680
▁affect	-3681
▁emb	-3682
▁foods	-3683
azz	-3684
▁encoura	-3685
ros	-3686
▁visual	-3687
▁suffer	-3688
▁bag	-3689
light	-3690
▁mani	-3691
▁Sim	-3692
▁harm	-3693
▁cross	-3694
▁doing	-3695
▁sources	-3696
vest	-3697
An	-3698
▁territorio	-3699
▁bacter	-3700
ba	-3701
▁gruppo	-3702
hic	-3703
chia	-3704
▁cuc	-3705
mar	-3706
▁virt	-3707
▁identify	-3708
▁2014	-3709
▁review	-3710
altro	-3711
▁male	-3712
▁mechan	-3713
oma	-3714
▁realtà	-3715
▁pict	-3716
▁2022	-3717
ension	-3718
cegli	-3719
ilia	-3720
▁image	-3721
ique	-3722
cont	-3723
▁damage	-3724
ka	-3725
know	-3726
ctions	-3727
▁developing	-3728
▁stessa	-3729
▁fres	-3730
itore	-3731
▁particularly	-3732
▁ness	-3733
▁mut	-3734
▁pubblico	-3735
▁ensure	-3736
▁streng	-3737
▁nor	-3738
▁Now	-3739
▁prior	-3740
▁alcune	-3741
▁seguito	-3742
▁cose	-3743
isl	-3744
▁Add	-3745
alsi	-3746
▁forms	-3747
▁fel	-3748
yr	-3749
▁First	-3750
▁civil	-3751
ecc	-3752
isto	-3753
▁response	-3754
▁Jes	-3755
ttamente	-3756
▁force	-3757
back	-3758
oman	-3759
enced	-3760
▁poll	-3761
▁Ol	-3762
PA	-3763
▁tram	-3764
We	-3765
arily	-3766
▁outside	-3767
▁quot	-3768
▁vedere	-3769
▁IS	-3770
tage	-3771
leg	-3772
II	-3773
▁minim	-3774
▁ful	-3775
▁Vol	-3776
▁remov	-3777
▁previs	-3778
▁driv	-3779
▁»	-3780
urre	-3781
acher	-3782
▁fer	-3783
ength	-3784
atively	-3785
etes	-3786
▁fib	-3787
come	-3788
ardo	-3789
top	-3790
▁reach	-3791
▁nuove	-3792
▁contemp	-3793
iforn	-3794
▁Pi	-3795
oti	-3796
▁bab	-3797
▁appropri	-3798
▁vengono	-3799
▁continue	-3800
RI	-3801
raft	-3802
▁attention	-3803
▁leaders	-3804
ndere	-3805
echn	-3806
rea	-3807
▁settore	-3808
▁Luc	-3809
▁Read	-3810
▁Other	-3811
▁apr	-3812
azio	-3813
90	-3814
▁Ke	-3815
▁Prov	-3816
▁tale	-3817
bbraio	-3818
▁attemp	-3819
14	-3820
▁growing	-3821
▁Ver	-3822
▁challeng	-3823
LA	-3824
▁vel	-3825
ached	-3826
13	-3827
val	-3828
▁investig	-3829
▁ideas	-3830
▁nome	-3831
▁late	-3832
▁periodo	-3833
▁prep	-3834
▁avoid	-3835
▁sess	-3836
▁Count	-3837
▁wall	-3838
▁2011	-3839
ques	-3840
▁draw	-3841
▁generally	-3842
vention	-3843
onia	-3844
▁conclus	-3845
cco	-3846
▁safety	-3847
▁series	-3848
▁stim	-3849
HE	-3850
resa	-3851
▁Dire	-3852
abb	-3853
▁torn	-3854
▁gratu	-3855
wor	-3856
▁sei	-3857
▁davvero	-3858
▁rispos	-3859
▁cookie	-3860
▁famiglia	-3861
resso	-3862
roc	-3863
▁dare	-3864
▁Char	-3865
▁sustain	-3866
equ	-3867
etri	-3868
izzata	-3869
ams	-3870
▁scientific	-3871
▁produced	-3872
▁presente	-3873
ground	-3874
umb	-3875
▁vog	-3876
▁During	-3877
▁subito	-3878
▁teachers	-3879
▁Our	-3880
▁sed	-3881
▁studio	-3882
pris	-3883
▁om	-3884
▁campo	-3885
eta	-3886
▁fram	-3887
ony	-3888
▁zona	-3889
18	-3890
▁Ris	-3891
▁personale	-3892
▁cambi	-3893
bor	-3894
ordo	-3895
vole	-3896
▁Child	-3897
▁programma	-3898
▁March	-3899
useum	-3900
▁inser	-3901
▁sembra	-3902
MA	-3903
▁International	-3904
▁sea	-3905
▁electric	-3906
▁seconda	-3907
▁numbers	-3908
▁chiam	-3909
▁batter	-3910
▁night	-3911
▁probably	-3912
ems	-3913
▁specif	-3914
▁international	-3915
ulture	-3916
▁travel	-3917
▁fast	-3918
▁wood	-3919
▁central	-3920
▁Del	-3921
▁express	-3922
▁integr	-3923
▁terra	-3924
▁sarebbe	-3925
▁Bas	-3926
▁persona	-3927
25	-3928
ancial	-3929
ulated	-3930
▁third	-3931
▁accomp	-3932
▁problema	-3933
▁UN	-3934
▁Vi	-3935
70	-3936
▁animal	-3937
▁getting	-3938
ifornia	-3939
▁flo	-3940
▁diab	-3941
▁dichi	-3942
▁29	-3943
itto	-3944
▁security	-3945
▁aware	-3946
uary	-3947
▁mas	-3948
iab	-3949
▁impeg	-3950
▁patient	-3951
▁(200	-3952
▁vinc	-3953
▁manufact	-3954
▁doesn	-3955
▁oss	-3956
▁lungo	-3957
▁feet	-3958
▁hol	-3959
▁looking	-3960
untain	-3961
▁final	-3962
uble	-3963
▁Mc	-3964
alsiasi	-3965
▁included	-3966
rog	-3967
haps	-3968
▁moder	-3969
▁Dopo	-3970
▁Christ	-3971
▁takes	-3972
oca	-3973
▁europe	-3974
itch	-3975
inato	-3976
itation	-3977
▁dato	-3978
▁books	-3979
▁qualsiasi	-3980
▁someone	-3981
▁independ	-3982
▁private	-3983
▁Institute	-3984
▁Mass	-3985
▁fos	-3986
ppe	-3987
rican	-3988
▁note	-3989
▁sequ	-3990
ppa	-3991
▁kids	-3992
itivo	-3993
usa	-3994
issions	-3995
▁Internet	-3996
ises	-3997
▁cura	-3998
pite	-3999
▁camb	-4000
▁daily	-4001
iving	-4002
▁instead	-4003
▁hyd	-4004
ami	-4005
▁correct	-4006
▁km	-4007
icare	-4008
ector	-4009
▁dif	-4010
▁presidente	-4011
▁European	-4012
▁Face	-4013
▁immag	-4014
▁accept	-4015
▁estim	-4016
▁California	-4017
▁ril	-4018
osph	-4019
▁liqu	-4020
▁Arm	-4021
incia	-4022
▁French	-4023
▁Rober	-4024
▁front	-4025
▁quar	-4026
▁Black	-4027
▁fron	-4028
▁favor	-4029
into	-4030
istrazione	-4031
▁eth	-4032
▁Lond	-4033
▁dang	-4034
▁therefore	-4035
room	-4036
▁Sw	-4037
▁warm	-4038
itude	-4039
▁thus	-4040
▁Google	-4041
▁fort	-4042
▁eye	-4043
▁instit	-4044
▁Post	-4045
▁town	-4046
▁vent	-4047
▁easily	-4048
unta	-4049
▁tradi	-4050
▁riusc	-4051
▁Africa	-4052
▁Cong	-4053
udd	-4054
cci	-4055
orie	-4056
▁consigli	-4057
▁Repub	-4058
CO	-4059
pose	-4060
▁traditional	-4061
▁quite	-4062
▁website	-4063
▁amp	-4064
▁necessario	-4065
eding	-4066
emo	-4067
▁communities	-4068
▁ul	-4069
▁determine	-4070
▁West	-4071
▁Ber	-4072
asons	-4073
▁safe	-4074
Al	-4075
▁multiple	-4076
unic	-4077
otta	-4078
▁Bi	-4079
▁effettu	-4080
icazioni	-4081
ritti	-4082
uper	-4083
▁added	-4084
▁Anche	-4085
▁started	-4086
▁difference	-4087
ergy	-4088
omini	-4089
▁sem	-4090
▁established	-4091
▁bad	-4092
▁compared	-4093
met	-4094
ops	-4095
itato	-4096
▁road	-4097
rebbero	-4098
▁dicembre	-4099
▁solar	-4100
▁elev	-4101
▁cyc	-4102
▁psych	-4103
▁Department	-4104
▁tree	-4105
▁Even	-4106
orsa	-4107
▁tools	-4108
▁syn	-4109
▁aiut	-4110
altra	-4111
▁nation	-4112
▁comunque	-4113
▁Hol	-4114
used	-4115
ellow	-4116
issima	-4117
▁allows	-4118
▁scelta	-4119
▁sopra	-4120
▁fuori	-4121
▁mental	-4122
▁Her	-4123
accia	-4124
▁earli	-4125
▁inside	-4126
uk	-4127
▁2,	-4128
▁points	-4129
zze	-4130
▁primary	-4131
▁thous	-4132
▁radi	-4133
ZION	-4134
▁held	-4135
▁Nap	-4136
▁German	-4137
▁City	-4138
uck	-4139
▁target	-4140
▁speak	-4141
▁companies	-4142
▁numer	-4143
aces	-4144
17	-4145
uropa	-4146
▁capital	-4147
▁hai	-4148
▁Christian	-4149
▁virus	-4150
▁Of	-4151
where	-4152
▁date	-4153
ancy	-4154
▁military	-4155
ube	-4156
acco	-4157
ls	-4158
▁decl	-4159
▁Mor	-4160
▁sviluppo	-4161
▁quickly	-4162
▁Artic	-4163
▁Trans	-4164
▁prezzo	-4165
▁diseases	-4166
ax	-4167
▁usc	-4168
▁Vir	-4169
inks	-4170
rane	-4171
▁larger	-4172
▁High	-4173
ras	-4174
▁punti	-4175
▁archit	-4176
▁directly	-4177
▁problemi	-4178
▁Web	-4179
▁card	-4180
▁mese	-4181
▁reflect	-4182
izie	-4183
▁vero	-4184
▁trib	-4185
▁Mac	-4186
▁donna	-4187
▁trees	-4188
Ar	-4189
thern	-4190
▁Austr	-4191
▁Since	-4192
▁serve	-4193
▁theory	-4194
▁birth	-4195
▁tiss	-4196
aged	-4197
▁doctor	-4198
ront	-4199
▁poter	-4200
ued	-4201
izzati	-4202
▁Av	-4203
▁active	-4204
igliore	-4205
▁additional	-4206
▁bisogno	-4207
▁wid	-4208
joy	-4209
rary	-4210
▁analy	-4211
ener	-4212
▁Art	-4213
▁gard	-4214
▁evalu	-4215
urt	-4216
▁host	-4217
ips	-4218
▁gradu	-4219
▁valut	-4220
▁dice	-4221
▁rivol	-4222
▁bian	-4223
omi	-4224
▁Lear	-4225
▁pack	-4226
tagon	-4227
▁causa	-4228
olari	-4229
eph	-4230
▁humans	-4231
itale	-4232
▁families	-4233
▁bit	-4234
▁demonstr	-4235
▁novembre	-4236
▁expos	-4237
undred	-4238
▁digital	-4239
▁June	-4240
▁Press	-4241
▁Cer	-4242
gency	-4243
▁Day	-4244
▁semplice	-4245
▁AN	-4246
▁Cast	-4247
▁enter	-4248
▁assum	-4249
▁Oc	-4250
▁stri	-4251
▁settembre	-4252
▁marzo	-4253
xed	-4254
▁Mart	-4255
▁firm	-4256
▁seems	-4257
▁History	-4258
icolo	-4259
▁behind	-4260
hington	-4261
▁programm	-4262
23	-4263
▁soldi	-4264
berg	-4265
▁Let	-4266
▁0.	-4267
▁scegli	-4268
este	-4269
▁Ter	-4270
rale	-4271
loud	-4272
ermo	-4273
▁waste	-4274
rai	-4275
▁print	-4276
▁raga	-4277
▁5.	-4278
▁Jesus	-4279
▁ros	-4280
▁Park	-4281
▁sper	-4282
▁although	-4283
cean	-4284
▁custom	-4285
▁highly	-4286
▁infection	-4287
▁exercise	-4288
▁foot	-4289
▁successo	-4290
▁unique	-4291
water	-4292
▁coin	-4293
▁acid	-4294
▁Frances	-4295
oming	-4296
chè	-4297
▁capt	-4298
▁confron	-4299
▁Facebook	-4300
▁giugno	-4301
ham	-4302
▁habit	-4303
formation	-4304
yond	-4305
etro	-4306
▁mig	-4307
onti	-4308
▁professional	-4309
eks	-4310
assi	-4311
▁went	-4312
ken	-4313
care	-4314
▁nazionale	-4315
uries	-4316
eranno	-4317
ago	-4318
▁Isra	-4319
▁convers	-4320
▁amb	-4321
▁Willi	-4322
24	-4323
▁god	-4324
edere	-4325
rab	-4326
▁interpret	-4327
▁scop	-4328
▁wide	-4329
▁answer	-4330
▁official	-4331
EG	-4332
▁insp	-4333
▁costitu	-4334
▁italiano	-4335
▁gestione	-4336
▁cav	-4337
ests	-4338
attro	-4339
apt	-4340
▁dry	-4341
▁game	-4342
▁Colle	-4343
▁libro	-4344
▁id	-4345
▁diss	-4346
▁compar	-4347
▁elements	-4348
▁tim	-4349
▁broad	-4350
▁troppo	-4351
ociazione	-4352
cep	-4353
▁minuti	-4354
▁prem	-4355
text	-4356
▁critical	-4357
▁soon	-4358
elef	-4359
erma	-4360
▁Spec	-4361
▁giud	-4362
▁beginning	-4363
▁ottobre	-4364
▁Cam	-4365
▁presenza	-4366
▁Canada	-4367
▁stay	-4368
▁har	-4369
▁colleg	-4370
ungere	-4371
▁Why	-4372
atico	-4373
▁transport	-4374
tti	-4375
ecut	-4376
lam	-4377
▁equip	-4378
▁claim	-4379
rogen	-4380
ms	-4381
▁scuola	-4382
▁supply	-4383
▁decision	-4384
▁sho	-4385
▁Because	-4386
▁smart	-4387
▁bul	-4388
▁mant	-4389
▁teaching	-4390
▁distin	-4391
▁African	-4392
▁pare	-4393
▁Bel	-4394
▁leading	-4395
▁dagli	-4396
▁protection	-4397
/20	-4398
▁fatt	-4399
▁negative	-4400
▁dark	-4401
▁sind	-4402
▁migliore	-4403
ging	-4404
▁Sept	-4405
▁features	-4406
hern	-4407
tanto	-4408
▁parole	-4409
cohol	-4410
▁whose	-4411
▁tramite	-4412
▁vill	-4413
usi	-4414
▁towards	-4415
▁vendita	-4416
▁July	-4417
asp	-4418
▁thinking	-4419
▁Associ	-4420
▁respect	-4421
SA	-4422
▁situazione	-4423
▁stop	-4424
rag	-4425
▁hot	-4426
▁approv	-4427
CC	-4428
▁protein	-4429
itting	-4430
▁minutes	-4431
▁email	-4432
▁elimin	-4433
▁reve	-4434
ultural	-4435
▁talk	-4436
St	-4437
▁produzione	-4438
eff	-4439
▁erano	-4440
▁limited	-4441
▁Washington	-4442
▁corpo	-4443
▁qualcosa	-4444
▁goal	-4445
▁lands	-4446
▁else	-4447
▁lost	-4448
▁Program	-4449
▁molec	-4450
istico	-4451
▁lasci	-4452
▁spett	-4453
ilos	-4454
fo	-4455
olic	-4456
▁useful	-4457
▁celebr	-4458
asta	-4459
▁north	-4460
DA	-4461
▁Also	-4462
ologies	-4463
▁August	-4464
▁gennaio	-4465
▁Social	-4466
▁blog	-4467
▁canc	-4468
▁Ha	-4469
▁siano	-4470
ference	-4471
▁senso	-4472
iglie	-4473
Wh	-4474
▁ancient	-4475
▁nasc	-4476
▁Questa	-4477
orno	-4478
eness	-4479
▁contains	-4480
▁situation	-4481
▁section	-4482
▁sb	-4483
▁consegu	-4484
▁serious	-4485
▁fight	-4486
▁beaut	-4487
▁search	-4488
▁semplic	-4489
▁spazio	-4490
istor	-4491
▁(3	-4492
▁stagione	-4493
▁vot	-4494
▁financial	-4495
▁hands	-4496
asto	-4497
▁inoltre	-4498
▁almeno	-4499
erous	-4500
▁dichiar	-4501
▁Imp	-4502
▁values	-4503
▁largest	-4504
estic	-4505
▁opin	-4506
▁mie	-4507
▁spirit	-4508
▁politica	-4509
ription	-4510
▁Tur	-4511
istry	-4512
▁purpose	-4513
▁adults	-4514
▁Mag	-4515
ostante	-4516
▁candid	-4517
▁rob	-4518
▁Ric	-4519
▁valore	-4520
mai	-4521
ype	-4522
alo	-4523
ruc	-4524
adra	-4525
▁casi	-4526
▁reco	-4527
outhern	-4528
▁images	-4529
▁Then	-4530
term	-4531
▁cool	-4532
▁device	-4533
▁vitt	-4534
▁Govern	-4535
wise	-4536
▁Via	-4537
▁transm	-4538
▁Over	-4539
▁Mont	-4540
isa	-4541
▁application	-4542
▁aggiorn	-4543
▁luogo	-4544
▁Ev	-4545
isms	-4546
roup	-4547
▁enjoy	-4548
▁percorso	-4549
▁received	-4550
▁Na	-4551
▁April	-4552
inare	-4553
▁193	-4554
▁hundred	-4555
▁esclus	-4556
tober	-4557
ascia	-4558
▁adop	-4559
▁ones	-4560
▁ast	-4561
▁Indian	-4562
▁described	-4563
▁raccol	-4564
▁influence	-4565
head	-4566
▁puoi	-4567
▁demand	-4568
▁obtain	-4569
▁presenti	-4570
▁season	-4571
▁giovani	-4572
▁195	-4573
tab	-4574
▁gius	-4575
▁illustr	-4576
ualmente	-4577
▁Gre	-4578
▁radio	-4579
▁lat	-4580
▁brought	-4581
orb	-4582
▁jud	-4583
▁AL	-4584
azzi	-4585
▁Just	-4586
▁remains	-4587
▁sche	-4588
eric	-4589
▁consent	-4590
rote	-4591
▁center	-4592
iles	-4593
istra	-4594
▁discip	-4595
▁write	-4596
▁diritto	-4597
▁mano	-4598
▁compos	-4599
▁aprile	-4600
▁Wind	-4601
ift	-4602
▁Pat	-4603
▁ps	-4604
▁carry	-4605
▁conto	-4606
▁requires	-4607
▁presc	-4608
▁cast	-4609
▁exact	-4610
▁settimana	-4611
▁Chinese	-4612
▁Feb	-4613
ado	-4614
▁destro	-4615
▁Mark	-4616
▁People	-4617
atorio	-4618
itis	-4619
▁legisl	-4620
▁https	-4621
▁rates	-4622
▁rare	-4623
▁sele	-4624
▁River	-4625
▁location	-4626
▁antic	-4627
▁oppure	-4628
▁Net	-4629
▁depos	-4630
▁Education	-4631
▁conclud	-4632
▁located	-4633
▁places	-4634
izations	-4635
▁tab	-4636
▁block	-4637
▁Develop	-4638
▁federal	-4639
atamente	-4640
life	-4641
ford	-4642
rast	-4643
▁atm	-4644
▁devices	-4645
▁complic	-4646
▁trattamento	-4647
▁miss	-4648
▁Journal	-4649
▁futuro	-4650
▁vuole	-4651
▁stre	-4652
▁avuto	-4653
ettura	-4654
han	-4655
ache	-4656
▁Air	-4657
▁appre	-4658
▁Vis	-4659
▁Sol	-4660
▁Rel	-4661
▁establish	-4662
▁weeks	-4663
▁President	-4664
▁condizioni	-4665
▁nearly	-4666
▁generale	-4667
-4	-4668
xi	-4669
enda	-4670
▁Cos	-4671
▁compl	-4672
▁workers	-4673
▁Americans	-4674
time	-4675
▁length	-4676
▁expect	-4677
▁agre	-4678
ambi	-4679
hens	-4680
▁Nor	-4681
▁transl	-4682
▁intellig	-4683
▁shall	-4684
▁incontri	-4685
odies	-4686
▁System	-4687
▁becomes	-4688
▁musica	-4689
▁nutri	-4690
▁screen	-4691
▁user	-4692
▁risultati	-4693
ova	-4694
arent	-4695
▁south	-4696
▁laws	-4697
tura	-4698
▁except	-4699
bblig	-4700
▁memory	-4701
▁rock	-4702
▁avv	-4703
nam	-4704
▁proto	-4705
▁staff	-4706
orr	-4707
▁Conf	-4708
▁legal	-4709
IM	-4710
UR	-4711
▁unit	-4712
reek	-4713
▁dead	-4714
▁tests	-4715
▁appropriate	-4716
▁Mal	-4717
▁luglio	-4718
▁efforts	-4719
▁egg	-4720
▁stabil	-4721
▁tu	-4722
▁cart	-4723
▁solid	-4724
▁importance	-4725
▁dat	-4726
PS	-4727
▁lines	-4728
biettivo	-4729
▁infl	-4730
▁projects	-4731
rows	-4732
▁Mol	-4733
iente	-4734
▁coast	-4735
eva	-4736
▁CON	-4737
▁fran	-4738
▁summer	-4739
▁mention	-4740
▁surround	-4741
orge	-4742
▁bacteria	-4743
▁Civ	-4744
▁costs	-4745
▁dimost	-4746
ief	-4747
▁solution	-4748
▁Op	-4749
▁scen	-4750
▁rete	-4751
amma	-4752
▁communication	-4753
▁2009	-4754
▁eating	-4755
▁80	-4756
▁strada	-4757
▁vict	-4758
▁termine	-4759
▁religious	-4760
▁speed	-4761
▁England	-4762
▁symbol	-4763
▁respond	-4764
▁rela	-4765
▁leaves	-4766
▁eyes	-4767
▁foss	-4768
zienda	-4769
▁vehic	-4770
urali	-4771
▁www	-4772
organ	-4773
▁experiment	-4774
▁citiz	-4775
akes	-4776
▁forse	-4777
▁formazione	-4778
▁trova	-4779
▁friends	-4780
▁sugar	-4781
5%	-4782
▁sites	-4783
ae	-4784
▁um	-4785
:3	-4786
▁Use	-4787
irà	-4788
▁democ	-4789
▁ester	-4790
uous	-4791
▁Cat	-4792
▁giornata	-4793
rutt	-4794
▁ultimi	-4795
▁command	-4796
▁box	-4797
▁saw	-4798
▁scale	-4799
▁mult	-4800
▁told	-4801
▁basis	-4802
▁Bra	-4803
▁born	-4804
▁leader	-4805
▁coinvol	-4806
▁techniques	-4807
▁andare	-4808
▁applications	-4809
▁display	-4810
ipend	-4811
▁fondament	-4812
agement	-4813
CA	-4814
▁miles	-4815
▁coup	-4816
▁molte	-4817
▁resto	-4818
▁typically	-4819
▁processes	-4820
oline	-4821
▁testing	-4822
▁Tw	-4823
▁star	-4824
▁stream	-4825
▁doll	-4826
uncil	-4827
▁winter	-4828
▁property	-4829
▁severe	-4830
▁suffici	-4831
alog	-4832
▁Great	-4833
▁hope	-4834
uls	-4835
▁anything	-4836
▁90	-4837
odo	-4838
▁DEL	-4839
▁January	-4840
▁weak	-4841
▁70	-4842
...]	-4843
▁See	-4844
itte	-4845
▁Water	-4846
▁code	-4847
ospital	-4848
▁Techn	-4849
uomo	-4850
▁practices	-4851
▁nothing	-4852
▁domin	-4853
▁died	-4854
▁ogg	-4855
▁got	-4856
▁creating	-4857
▁cultural	-4858
▁vig	-4859
▁init	-4860
▁Eg	-4861
▁31	-4862
orti	-4863
▁himself	-4864
▁mother	-4865
▁controllo	-4866
▁appe	-4867
▁everything	-4868
unch	-4869
oring	-4870
▁clienti	-4871
▁vac	-4872
table	-4873
uit	-4874
▁protagon	-4875
fi	-4876
ceed	-4877
▁surg	-4878
▁Once	-4879
▁cold	-4880
▁figure	-4881
▁September	-4882
▁volume	-4883
▁Quando	-4884
izes	-4885
▁responsible	-4886
rong	-4887
year	-4888
▁guida	-4889
▁adj	-4890
▁forces	-4891
▁therapy	-4892
▁Another	-4893
alla	-4894
▁mid	-4895
▁October	-4896
▁David	-4897
▁stage	-4898
▁din	-4899
▁Green	-4900
▁remember	-4901
▁Fer	-4902
▁Each	-4903
▁Book	-4904
▁band	-4905
▁internet	-4906
▁room	-4907
▁assic	-4908
▁Fre	-4909
▁crop	-4910
▁gives	-4911
▁rapporto	-4912
▁spl	-4913
enge	-4914
▁veloc	-4915
▁assol	-4916
▁lic	-4917
▁studi	-4918
This	-4919
▁primi	-4920
ologie	-4921
▁sociale	-4922
▁isol	-4923
oke	-4924
99	-4925
▁contempor	-4926
▁pure	-4927
▁General	-4928
▁grav	-4929
▁creare	-4930
▁diabetes	-4931
encies	-4932
▁utenti	-4933
▁mand	-4934
▁beyond	-4935
▁fant	-4936
▁element	-4937
▁economy	-4938
▁mel	-4939
▁pochi	-4940
uli	-4941
▁quattro	-4942
▁construction	-4943
estival	-4944
▁Sic	-4945
ultimo	-4946
▁breat	-4947
▁Church	-4948
▁Dio	-4949
▁preved	-4950
▁forte	-4951
▁Maria	-4952
▁mezzo	-4953
▁choose	-4954
▁older	-4955
roid	-4956
▁teacher	-4957
▁Pot	-4958
ilo	-4959
▁Dal	-4960
▁fit	-4961
▁depend	-4962
▁tempi	-4963
odi	-4964
▁machine	-4965
occup	-4966
▁objects	-4967
▁recently	-4968
ords	-4969
▁followed	-4970
apter	-4971
ki	-4972
omenica	-4973
pa	-4974
▁pazi	-4975
▁Lat	-4976
rew	-4977
▁ball	-4978
UN	-4979
▁2000	-4980
▁benefit	-4981
▁asked	-4982
ubb	-4983
▁examples	-4984
▁comune	-4985
uramente	-4986
▁middle	-4987
▁buona	-4988
▁chies	-4989
▁trade	-4990
pre	-4991
rive	-4992
▁ruolo	-4993
▁febbraio	-4994
bra	-4995
▁navig	-4996
▁reasons	-4997
enziale	-4998
▁planet	-4999
▁East	-5000
▁king	-5001
anish	-5002
▁manc	-5003
emia	-5004
▁sosten	-5005
▁London	-5006
▁Mich	-5007
▁telef	-5008
▁partire	-5009
▁cuore	-5010
▁Australia	-5011
▁providing	-5012
▁Comune	-5013
utting	-5014
▁Organ	-5015
▁LA	-5016
▁Mad	-5017
▁tent	-5018
▁attrib	-5019
▁elem	-5020
icol	-5021
▁viaggio	-5022
▁scritto	-5023
▁Cour	-5024
LE	-5025
▁motiv	-5026
▁expected	-5027
▁ice	-5028
rod	-5029
endere	-5030
45	-5031
▁rot	-5032
illing	-5033
▁fronte	-5034
▁November	-5035
segna	-5036
▁Law	-5037
▁struttura	-5038
▁fear	-5039
oltà	-5040
aled	-5041
▁pet	-5042
▁diretto	-5043
cks	-5044
▁ottenere	-5045
▁aument	-5046
▁receive	-5047
▁fuel	-5048
▁accur	-5049
▁nutrit	-5050
▁Ann	-5051
▁richied	-5052
▁smaller	-5053
▁opportunity	-5054
isco	-5055
osso	-5056
▁DNA	-5057
iazza	-5058
▁quad	-5059
▁consequ	-5060
▁evol	-5061
uff	-5062
▁tour	-5063
78	-5064
▁titolo	-5065
▁Sen	-5066
▁alto	-5067
assa	-5068
▁tanti	-5069
atro	-5070
omas	-5071
rome	-5072
icato	-5073
▁piace	-5074
▁desider	-5075
▁relative	-5076
▁Ob	-5077
osing	-5078
tazione	-5079
▁Cur	-5080
:00	-5081
oo	-5082
inary	-5083
▁ign	-5084
izioni	-5085
▁esperienza	-5086
▁annunci	-5087
disf	-5088
eved	-5089
▁currently	-5090
tra	-5091
▁House	-5092
▁yourself	-5093
▁cogn	-5094
▁effic	-5095
▁salute	-5096
rizione	-5097
▁standards	-5098
▁Sub	-5099
▁completely	-5100
▁pagina	-5101
▁bran	-5102
▁instr	-5103
arte	-5104
edom	-5105
▁amm	-5106
▁organization	-5107
▁Qual	-5108
▁alone	-5109
▁letto	-5110
otic	-5111
▁luce	-5112
amous	-5113
▁extrem	-5114
▁December	-5115
▁affected	-5116
anni	-5117
▁collection	-5118
▁tum	-5119
▁gran	-5120
▁matt	-5121
AP	-5122
▁squadra	-5123
▁tag	-5124
▁exposure	-5125
▁beg	-5126
▁rules	-5127
more	-5128
▁pregn	-5129
▁stran	-5130
▁Tod	-5131
rata	-5132
▁Form	-5133
▁goes	-5134
atiche	-5135
▁trying	-5136
▁fotograf	-5137
▁effort	-5138
oking	-5139
▁successful	-5140
▁svilupp	-5141
▁Mr	-5142
▁deal	-5143
▁shape	-5144
▁wrote	-5145
▁offre	-5146
▁woman	-5147
oses	-5148
▁teeth	-5149
▁Food	-5150
▁everyone	-5151
▁disposizione	-5152
▁pap	-5153
▁fosse	-5154
▁status	-5155
▁continued	-5156
26	-5157
lor	-5158
▁equipment	-5159
▁leave	-5160
▁linea	-5161
▁2008	-5162
▁users	-5163
▁cio	-5164
▁ormai	-5165
▁divis	-5166
retto	-5167
▁fanno	-5168
itable	-5169
▁genetic	-5170
▁importanti	-5171
▁recommend	-5172
▁drugs	-5173
▁previous	-5174
▁former	-5175
▁differences	-5176
▁billion	-5177
▁Ul	-5178
▁forest	-5179
▁occurs	-5180
▁models	-5181
▁Anton	-5182
▁possa	-5183
▁wa	-5184
▁won	-5185
istro	-5186
▁finale	-5187
▁trasform	-5188
▁Society	-5189
▁nego	-5190
▁processo	-5191
antic	-5192
▁italiana	-5193
▁[...]	-5194
▁Tre	-5195
▁uomo	-5196
▁conven	-5197
▁neigh	-5198
rimon	-5199
▁tempor	-5200
▁member	-5201
▁administr	-5202
▁alcohol	-5203
▁James	-5204
▁degree	-5205
▁commercial	-5206
▁nostre	-5207
▁constant	-5208
orial	-5209
▁Fire	-5210
ggia	-5211
▁bell	-5212
▁Aust	-5213
▁birds	-5214
▁interesting	-5215
igure	-5216
▁leggere	-5217
aters	-5218
▁conflic	-5219
▁mare	-5220
▁incor	-5221
verse	-5222
▁wond	-5223
▁Medic	-5224
▁ulter	-5225
ilities	-5226
oint	-5227
▁tema	-5228
▁earlier	-5229
iane	-5230
icamente	-5231
▁posizione	-5232
eration	-5233
▁prime	-5234
iversità	-5235
▁genere	-5236
fia	-5237
▁pelle	-5238
▁Dem	-5239
▁fair	-5240
▁concer	-5241
▁Profess	-5242
▁commonly	-5243
using	-5244
▁pp	-5245
▁strength	-5246
▁mission	-5247
▁sn	-5248
▁pil	-5249
▁County	-5250
▁measures	-5251
▁cittadini	-5252
▁direttamente	-5253
▁capacità	-5254
Ch	-5255
▁cm	-5256
▁Micro	-5257
▁6.	-5258
▁purch	-5259
ruary	-5260
▁court	-5261
▁overall	-5262
▁promot	-5263
▁Ap	-5264
▁bloc	-5265
▁paese	-5266
▁camera	-5267
▁allora	-5268
▁Mex	-5269
▁named	-5270
AD	-5271
▁Rad	-5272
iny	-5273
set	-5274
▁pover	-5275
▁siti	-5276
▁(201	-5277
▁rischio	-5278
▁weather	-5279
▁vision	-5280
▁allowed	-5281
olazione	-5282
acqua	-5283
▁Nella	-5284
wide	-5285
▁initi	-5286
▁perfect	-5287
eck	-5288
rio	-5289
arci	-5290
▁uffici	-5291
ccio	-5292
▁baby	-5293
▁risol	-5294
▁sint	-5295
▁isn	-5296
▁fert	-5297
abato	-5298
▁Test	-5299
▁discovered	-5300
xic	-5301
ensity	-5302
▁Sil	-5303
▁Contin	-5304
▁coordin	-5305
▁spieg	-5306
▁hyp	-5307
▁placed	-5308
iful	-5309
▁joint	-5310
10.	-5311
▁store	-5312
▁reduced	-5313
▁steps	-5314
▁collaborazione	-5315
▁fid	-5316
▁Thus	-5317
▁forza	-5318
▁vanta	-5319
▁natura	-5320
▁consul	-5321
▁applied	-5322
▁10.	-5323
▁Sign	-5324
▁fase	-5325
▁Public	-5326
▁richiesta	-5327
▁fruit	-5328
ificare	-5329
▁formed	-5330
omma	-5331
onda	-5332
▁certo	-5333
▁riferimento	-5334
▁lei	-5335
▁rise	-5336
omer	-5337
▁minor	-5338
▁Port	-5339
IG	-5340
over	-5341
▁resta	-5342
▁gold	-5343
▁bil	-5344
▁electr	-5345
▁coming	-5346
hemat	-5347
▁father	-5348
▁Rich	-5349
wards	-5350
▁urban	-5351
▁buon	-5352
▁iron	-5353
▁rule	-5354
▁cry	-5355
▁guide	-5356
▁PC	-5357
▁uomini	-5358
▁35	-5359
▁gene	-5360
▁perhaps	-5361
▁ries	-5362
ximately	-5363
▁church	-5364
rown	-5365
▁Off	-5366
ball	-5367
▁metal	-5368
▁3,	-5369
▁zone	-5370
▁Their	-5371
▁historical	-5372
ministrazione	-5373
ppia	-5374
known	-5375
▁didn	-5376
▁nulla	-5377
▁aziende	-5378
yal	-5379
iorno	-5380
▁riguarda	-5381
ned	-5382
▁context	-5383
cent	-5384
ialmente	-5385
▁governo	-5386
etter	-5387
▁nello	-5388
▁identified	-5389
▁vul	-5390
▁detta	-5391
▁precis	-5392
▁river	-5393
oration	-5394
▁devono	-5395
▁powerful	-5396
uzioni	-5397
▁stile	-5398
tion	-5399
enty	-5400
▁Dist	-5401
acci	-5402
▁majority	-5403
▁deliver	-5404
▁version	-5405
▁salv	-5406
▁William	-5407
aly	-5408
▁procedure	-5409
▁anticip	-5410
OM	-5411
▁Sa	-5412
evole	-5413
▁Congress	-5414
▁presence	-5415
28	-5416
▁tuoi	-5417
▁Environment	-5418
▁ip	-5419
▁Loc	-5420
▁transfer	-5421
cast	-5422
▁modello	-5423
▁moment	-5424
▁partner	-5425
▁showed	-5426
orren	-5427
▁AS	-5428
▁vec	-5429
:5	-5430
▁Econom	-5431
house	-5432
▁eventi	-5433
▁soddisf	-5434
▁Grazie	-5435
key	-5436
util	-5437
hest	-5438
▁cities	-5439
▁imposs	-5440
▁appart	-5441
▁Ca	-5442
▁load	-5443
▁comf	-5444
▁assign	-5445
▁facile	-5446
▁actions	-5447
▁Tel	-5448
▁gave	-5449
urazione	-5450
▁alternative	-5451
-5	-5452
▁sudd	-5453
▁Gar	-5454
▁Are	-5455
▁Children	-5456
▁Inoltre	-5457
▁ring	-5458
▁Napoli	-5459
▁fully	-5460
Le	-5461
▁Gl	-5462
▁UK	-5463
▁strugg	-5464
▁esig	-5465
▁predict	-5466
nes	-5467
etica	-5468
itivi	-5469
▁Fur	-5470
bile	-5471
▁relatively	-5472
▁TV	-5473
▁scorso	-5474
ciale	-5475
▁illness	-5476
▁Stato	-5477
▁increases	-5478
▁italiani	-5479
▁perman	-5480
▁Germany	-5481
▁immune	-5482
▁dovrebbe	-5483
▁Russia	-5484
▁Paul	-5485
inazione	-5486
▁properties	-5487
▁dram	-5488
ude	-5489
iring	-5490
▁Cop	-5491
▁compless	-5492
▁choice	-5493
▁moving	-5494
▁Class	-5495
▁appena	-5496
▁easi	-5497
▁susp	-5498
▁2007	-5499
off	-5500
▁repe	-5501
▁Association	-5502
▁passato	-5503
▁prova	-5504
▁macch	-5505
▁names	-5506
issimi	-5507
ancio	-5508
EM	-5509
▁Plan	-5510
ns	-5511
▁Israel	-5512
▁running	-5513
27	-5514
▁Ben	-5515
raw	-5516
▁AD	-5517
▁Roman	-5518
anks	-5519
▁scriv	-5520
▁capire	-5521
▁pren	-5522
▁rile	-5523
▁perchè	-5524
ZIONE	-5525
olit	-5526
remo	-5527
▁piece	-5528
▁stories	-5529
▁maggiore	-5530
▁Ir	-5531
redi	-5532
▁February	-5533
▁partners	-5534
▁lavori	-5535
▁Data	-5536
▁amici	-5537
▁capacity	-5538
▁500	-5539
▁Human	-5540
▁patterns	-5541
▁worked	-5542
▁sede	-5543
▁replac	-5544
volution	-5545
▁Union	-5546
▁belief	-5547
▁offers	-5548
▁que	-5549
▁swe	-5550
▁voc	-5551
▁comunicazione	-5552
▁Fo	-5553
▁ST	-5554
▁signs	-5555
esp	-5556
▁France	-5557
▁construct	-5558
aign	-5559
▁190	-5560
▁appears	-5561
▁volont	-5562
▁principali	-5563
estra	-5564
▁core	-5565
ental	-5566
▁telev	-5567
▁worth	-5568
▁voi	-5569
▁effetti	-5570
▁belle	-5571
▁constit	-5572
▁utilizzare	-5573
▁Div	-5574
▁mouth	-5575
tical	-5576
ionato	-5577
rief	-5578
▁Every	-5579
▁breast	-5580
▁peace	-5581
▁orient	-5582
irc	-5583
▁chance	-5584
▁philos	-5585
▁famili	-5586
obile	-5587
29	-5588
▁ce	-5589
▁Prot	-5590
▁crescita	-5591
▁changed	-5592
▁Mary	-5593
▁versione	-5594
▁blue	-5595
ificazione	-5596
▁watch	-5597
▁Ecco	-5598
Ass	-5599
zon	-5600
OT	-5601
▁alta	-5602
phas	-5603
OC	-5604
▁academ	-5605
▁oppos	-5606
▁pad	-5607
▁Giovan	-5608
ternal	-5609
▁rout	-5610
azienda	-5611
▁expand	-5612
tro	-5613
mp	-5614
▁bound	-5615
▁maxim	-5616
▁giving	-5617
▁ragazzi	-5618
▁cucina	-5619
▁risultato	-5620
▁quotid	-5621
▁task	-5622
▁educational	-5623
▁Sur	-5624
▁permette	-5625
▁raff	-5626
▁fresh	-5627
▁functions	-5628
▁existing	-5629
▁evolution	-5630
▁risposta	-5631
▁sanit	-5632
▁price	-5633
▁friend	-5634
onf	-5635
▁contrast	-5636
:4	-5637
2)	-5638
▁crim	-5639
▁Retri	-5640
attività	-5641
▁Japanese	-5642
▁piccolo	-5643
▁disponibile	-5644
▁internazionale	-5645
▁Pers	-5646
ya	-5647
▁Western	-5648
▁Control	-5649
▁cy	-5650
▁Sta	-5651
urance	-5652
▁Today	-5653
▁opportunities	-5654
▁attract	-5655
▁challenges	-5656
:0	-5657
isp	-5658
ogen	-5659
▁cultura	-5660
▁pensi	-5661
▁isc	-5662
▁findings	-5663
aca	-5664
iante	-5665
▁Found	-5666
▁trend	-5667
▁inn	-5668
▁surpris	-5669
▁muscle	-5670
▁peso	-5671
▁aliment	-5672
▁esper	-5673
▁colore	-5674
▁Council	-5675
▁invent	-5676
ulum	-5677
▁cic	-5678
▁separate	-5679
▁Sar	-5680
▁tissue	-5681
▁picture	-5682
▁Mars	-5683
▁instance	-5684
88	-5685
▁match	-5686
oglie	-5687
▁details	-5688
▁root	-5689
▁style	-5690
▁office	-5691
▁Comun	-5692
▁immagini	-5693
▁locali	-5694
▁Jewish	-5695
▁imper	-5696
▁female	-5697
ianti	-5698
▁cloud	-5699
▁regions	-5700
▁articolo	-5701
▁Io	-5702
▁Rem	-5703
▁sapere	-5704
▁forward	-5705
ronom	-5706
erd	-5707
▁ling	-5708
▁eserc	-5709
ultima	-5710
▁achieve	-5711
▁thousands	-5712
▁direction	-5713
▁components	-5714
▁Super	-5715
▁journal	-5716
▁entro	-5717
▁dot	-5718
▁IL	-5719
▁Mess	-5720
▁uman	-5721
▁foreign	-5722
▁mostra	-5723
▁citizens	-5724
▁disorder	-5725
▁equal	-5726
▁domanda	-5727
▁Students	-5728
▁difficile	-5729
▁personali	-5730
see	-5731
▁factor	-5732
▁balance	-5733
▁alter	-5734
▁party	-5735
▁Francesco	-5736
4)	-5737
ander	-5738
▁emissions	-5739
▁Imm	-5740
▁PER	-5741
▁Sto	-5742
area	-5743
▁sov	-5744
▁Ant	-5745
▁learned	-5746
▁George	-5747
take	-5748
▁map	-5749
ruzione	-5750
ASA	-5751
▁Sk	-5752
ague	-5753
arla	-5754
itz	-5755
▁istitu	-5756
▁Retrieved	-5757
▁pes	-5758
▁table	-5759
ecture	-5760
▁agosto	-5761
▁native	-5762
▁spettac	-5763
ighest	-5764
osphere	-5765
change	-5766
▁Ama	-5767
usion	-5768
▁ricev	-5769
isation	-5770
▁income	-5771
▁distance	-5772
▁Jos	-5773
▁reli	-5774
▁defined	-5775
▁strumenti	-5776
ux	-5777
65	-5778
▁options	-5779
▁affid	-5780
▁wrong	-5781
▁vostro	-5782
▁Mat	-5783
▁fal	-5784
▁soluzione	-5785
▁Fil	-5786
▁reports	-5787
75	-5788
▁svolg	-5789
▁topic	-5790
▁trasp	-5791
andon	-5792
▁Out	-5793
▁suggests	-5794
rolog	-5795
yright	-5796
▁resistance	-5797
▁Bre	-5798
▁believed	-5799
▁caratteristiche	-5800
▁mettere	-5801
hors	-5802
aint	-5803
▁Pubblic	-5804
▁totale	-5805
▁modalità	-5806
▁eventually	-5807
▁survey	-5808
▁planning	-5809
▁certific	-5810
▁prossimo	-5811
▁technologies	-5812
▁drop	-5813
▁autor	-5814
▁recuper	-5815
▁Budd	-5816
xiety	-5817
▁punt	-5818
▁apply	-5819
abilmente	-5820
rimonio	-5821
▁Lord	-5822
▁evid	-5823
▁consumption	-5824
▁reality	-5825
UT	-5826
▁liquid	-5827
▁strategies	-5828
▁und	-5829
▁nas	-5830
▁nerv	-5831
ologico	-5832
▁Ven	-5833
eces	-5834
order	-5835
▁mobile	-5836
▁vitamin	-5837
imal	-5838
▁Cre	-5839
▁medicine	-5840
▁kid	-5841
▁passed	-5842
▁Project	-5843
▁hair	-5844
urb	-5845
▁catt	-5846
▁grass	-5847
▁aim	-5848
CH	-5849
▁Development	-5850
itazione	-5851
▁board	-5852
unction	-5853
▁lov	-5854
▁inclus	-5855
▁round	-5856
rehens	-5857
▁challenge	-5858
▁disponibili	-5859
▁rib	-5860
▁tav	-5861
atrice	-5862
▁Sun	-5863
▁contract	-5864
▁scegliere	-5865
▁Museum	-5866
▁continua	-5867
▁Up	-5868
▁imprese	-5869
▁confer	-5870
▁sos	-5871
▁appl	-5872
▁sand	-5873
▁famous	-5874
▁spa	-5875
▁vicino	-5876
irus	-5877
▁truth	-5878
wood	-5879
▁Fam	-5880
▁stessi	-5881
▁Fol	-5882
▁dipend	-5883
▁seven	-5884
▁plastic	-5885
armi	-5886
▁bed	-5887
▁sole	-5888
▁Stat	-5889
▁destroy	-5890
non	-5891
▁Er	-5892
▁Ti	-5893
rap	-5894
rici	-5895
vant	-5896
▁feature	-5897
-20	-5898
▁Regione	-5899
▁batt	-5900
▁classroom	-5901
▁carried	-5902
▁goals	-5903
▁divert	-5904
▁frequent	-5905
▁7.	-5906
▁garden	-5907
▁distribution	-5908
fond	-5909
▁300	-5910
▁immediately	-5911
▁frag	-5912
▁Windows	-5913
▁maniera	-5914
▁happen	-5915
▁scrit	-5916
▁Glo	-5917
▁Lav	-5918
▁ped	-5919
▁Cle	-5920
▁spring	-5921
▁decades	-5922
▁experiences	-5923
▁exhib	-5924
ding	-5925
▁march	-5926
▁organizations	-5927
ey	-5928
▁rat	-5929
▁excess	-5930
▁homes	-5931
lim	-5932
▁misura	-5933
cher	-5934
▁Supp	-5935
▁clim	-5936
LI	-5937
▁Cond	-5938
ettare	-5939
▁cooper	-5940
ican	-5941
▁hon	-5942
▁industrial	-5943
hel	-5944
uel	-5945
▁phen	-5946
ste	-5947
▁huge	-5948
istare	-5949
▁faith	-5950
▁morte	-5951
▁locale	-5952
▁stampa	-5953
▁highest	-5954
▁garant	-5955
ressione	-5956
▁dunque	-5957
▁College	-5958
▁structures	-5959
unte	-5960
lick	-5961
inate	-5962
▁plat	-5963
▁plans	-5964
▁fasc	-5965
rati	-5966
ystem	-5967
▁extremely	-5968
▁segnal	-5969
▁president	-5970
▁Emp	-5971
rip	-5972
accio	-5973
35	-5974
▁Group	-5975
▁rub	-5976
1)	-5977
iono	-5978
▁track	-5979
istenza	-5980
▁consult	-5981
abilities	-5982
▁Pan	-5983
AG	-5984
bu	-5985
▁sexual	-5986
▁nuclear	-5987
▁treated	-5988
▁premi	-5989
▁emphas	-5990
▁conqu	-5991
▁glass	-5992
▁reference	-5993
▁generation	-5994
▁4,	-5995
▁instruct	-5996
▁cong	-5997
CE	-5998
onta	-5999
▁prendere	-6000
olesc	-6001
▁Therefore	-6002
▁mond	-6003
▁heavy	-6004
▁Island	-6005
▁approximately	-6006
▁sog	-6007
umi	-6008
ael	-6009
▁Ess	-6010
rees	-6011
▁sale	-6012
▁preserv	-6013
▁observed	-6014
▁dyn	-6015
urally	-6016
ologist	-6017
',	-6018
▁favore	-6019
▁clinical	-6020
▁milk	-6021
fficio	-6022
▁gram	-6023
▁varie	-6024
▁depression	-6025
▁Gal	-6026
▁ambient	-6027
▁registr	-6028
tezza	-6029
edes	-6030
▁walk	-6031
▁libert	-6032
onic	-6033
▁Design	-6034
▁games	-6035
▁actual	-6036
▁connect	-6037
▁credito	-6038
▁bone	-6039
men	-6040
ilib	-6041
▁release	-6042
xygen	-6043
▁rispond	-6044
▁obblig	-6045
oghi	-6046
idea	-6047
▁Consiglio	-6048
▁diritti	-6049
▁45	-6050
▁moto	-6051
TM	-6052
eed	-6053
▁items	-6054
▁attenzione	-6055
▁rul	-6056
related	-6057
▁decisions	-6058
▁Cost	-6059
▁confirm	-6060
olarmente	-6061
▁gara	-6062
rone	-6063
▁bodies	-6064
▁rend	-6065
rif	-6066
Ph	-6067
▁moved	-6068
▁setting	-6069
▁Prop	-6070
ishing	-6071
▁eight	-6072
▁significantly	-6073
▁abbia	-6074
▁sla	-6075
▁slight	-6076
▁stanno	-6077
▁uns	-6078
IP	-6079
▁Life	-6080
▁stret	-6081
iner	-6082
▁bigg	-6083
▁notte	-6084
▁Asia	-6085
iori	-6086
▁persp	-6087
▁prezzi	-6088
▁connected	-6089
▁mountain	-6090
▁contenuti	-6091
▁Hy	-6092
ittee	-6093
anche	-6094
▁fores	-6095
ressive	-6096
iché	-6097
▁chronic	-6098
▁estimated	-6099
board	-6100
▁save	-6101
▁dettagli	-6102
tm	-6103
▁occhi	-6104
inizio	-6105
▁possiamo	-6106
▁notes	-6107
▁USA	-6108
anci	-6109
▁Two	-6110
▁Scient	-6111
iments	-6112
▁tran	-6113
▁Second	-6114
▁Spanish	-6115
gio	-6116
▁easier	-6117
▁progetti	-6118
▁mix	-6119
izzate	-6120
▁disorders	-6121
▁becoming	-6122
▁resource	-6123
aching	-6124
▁master	-6125
riculum	-6126
▁populations	-6127
works	-6128
▁Stati	-6129
▁Further	-6130
astro	-6131
▁presented	-6132
▁)	-6133
nel	-6134
rico	-6135
▁massimo	-6136
iling	-6137
rian	-6138
▁vary	-6139
otte	-6140
▁breve	-6141
▁aspects	-6142
▁conducted	-6143
attaform	-6144
emic	-6145
▁deciso	-6146
▁reserv	-6147
▁difficoltà	-6148
▁operations	-6149
▁avrebbe	-6150
▁Republic	-6151
rich	-6152
▁lun	-6153
▁Using	-6154
▁naturale	-6155
▁Like	-6156
▁sosp	-6157
▁riconosc	-6158
UL	-6159
urato	-6160
▁square	-6161
▁Hen	-6162
▁trasc	-6163
▁lit	-6164
tazioni	-6165
▁benefic	-6166
▁clearly	-6167
▁records	-6168
▁Alla	-6169
▁testim	-6170
-6	-6171
33	-6172
▁credit	-6173
ructure	-6174
▁household	-6175
irizzo	-6176
▁requirements	-6177
▁Tex	-6178
▁infrast	-6179
▁Ju	-6180
▁colp	-6181
▁graph	-6182
▁Jo	-6183
▁introduced	-6184
▁pow	-6185
▁trust	-6186
▁doct	-6187
viamente	-6188
▁sicuramente	-6189
▁meeting	-6190
▁giovane	-6191
mark	-6192
▁sched	-6193
mento	-6194
▁burn	-6195
hab	-6196
comp	-6197
▁Hel	-6198
▁starting	-6199
▁discussion	-6200
▁bud	-6201
▁incorpor	-6202
▁crisi	-6203
eca	-6204
▁Priv	-6205
▁Government	-6206
▁participants	-6207
▁riserv	-6208
▁Phys	-6209
▁avanti	-6210
▁compound	-6211
▁prove	-6212
▁Thomas	-6213
▁organic	-6214
▁bella	-6215
▁frequently	-6216
▁buy	-6217
eler	-6218
▁ferm	-6219
▁White	-6220
▁testa	-6221
▁electricity	-6222
▁fondo	-6223
zing	-6224
vious	-6225
DF	-6226
▁trasfer	-6227
essere	-6228
▁output	-6229
▁Santa	-6230
▁acqua	-6231
▁remove	-6232
elines	-6233
▁comunità	-6234
▁Pac	-6235
▁drive	-6236
▁ocean	-6237
het	-6238
▁datab	-6239
▁contra	-6240
PR	-6241
arc	-6242
▁Service	-6243
▁Temp	-6244
▁About	-6245
icy	-6246
ker	-6247
▁prosp	-6248
▁buildings	-6249
▁allerg	-6250
▁released	-6251
enne	-6252
▁hear	-6253
▁risc	-6254
-8	-6255
▁storage	-6256
▁cycle	-6257
▁parlare	-6258
▁fields	-6259
ager	-6260
▁Sett	-6261
amore	-6262
▁combination	-6263
▁osserv	-6264
▁layer	-6265
▁sav	-6266
rated	-6267
atric	-6268
▁calci	-6269
▁feeling	-6270
▁battle	-6271
▁numerous	-6272
olf	-6273
95	-6274
▁Paolo	-6275
▁independent	-6276
▁parent	-6277
▁upd	-6278
▁doub	-6279
▁Aless	-6280
▁Cath	-6281
▁unico	-6282
idge	-6283
inata	-6284
▁Commun	-6285
▁anyone	-6286
▁freedom	-6287
▁occasione	-6288
▁policies	-6289
▁chied	-6290
▁expression	-6291
▁turned	-6292
▁ship	-6293
▁Sport	-6294
gor	-6295
▁widely	-6296
▁message	-6297
▁cad	-6298
▁iniz	-6299
▁campaign	-6300
esperienza	-6301
cious	-6302
▁noted	-6303
▁bottom	-6304
▁risks	-6305
rum	-6306
▁gets	-6307
enous	-6308
field	-6309
▁lived	-6310
enth	-6311
▁tom	-6312
▁miei	-6313
▁spect	-6314
▁vulner	-6315
▁Tag	-6316
mit	-6317
ulta	-6318
avano	-6319
▁diam	-6320
egno	-6321
uma	-6322
▁Ple	-6323
encing	-6324
▁CD	-6325
▁guerra	-6326
ophy	-6327
ix	-6328
▁Greek	-6329
▁option	-6330
▁killed	-6331
ctive	-6332
▁costi	-6333
phone	-6334
astica	-6335
▁storico	-6336
▁indicate	-6337
▁college	-6338
▁liber	-6339
▁pros	-6340
istero	-6341
▁Its	-6342
▁literature	-6343
well	-6344
▁gather	-6345
▁causing	-6346
▁recommended	-6347
▁rilev	-6348
▁2006	-6349
▁fatti	-6350
part	-6351
▁neut	-6352
▁covered	-6353
hyd	-6354
▁vivere	-6355
▁relazione	-6356
▁rifi	-6357
usso	-6358
amental	-6359
▁sample	-6360
].	-6361
▁immig	-6362
▁produtt	-6363
▁changing	-6364
▁creation	-6365
▁scoper	-6366
▁mys	-6367
▁imag	-6368
▁metab	-6369
▁Def	-6370
andom	-6371
econom	-6372
▁assessment	-6373
usione	-6374
▁connection	-6375
ortion	-6376
▁beautiful	-6377
100	-6378
▁annual	-6379
▁necessità	-6380
▁touch	-6381
▁violence	-6382
▁Bay	-6383
▁island	-6384
▁ready	-6385
▁sen	-6386
iled	-6387
▁inqu	-6388
ilomet	-6389
▁Merc	-6390
▁shap	-6391
anzia	-6392
▁Well	-6393
▁epis	-6394
ologists	-6395
▁Tit	-6396
▁accompagn	-6397
SS	-6398
▁vess	-6399
▁temperatures	-6400
▁precedente	-6401
eci	-6402
ridge	-6403
▁comport	-6404
▁background	-6405
▁technique	-6406
▁avven	-6407
blica	-6408
________	-6409
▁cra	-6410
▁settimane	-6411
▁protocol	-6412
▁Amazon	-6413
▁Nav	-6414
▁segn	-6415
▁Alex	-6416
▁Cov	-6417
▁resulting	-6418
▁param	-6419
▁oxygen	-6420
otos	-6421
▁nem	-6422
▁marketing	-6423
amic	-6424
itate	-6425
▁voce	-6426
▁colori	-6427
▁speech	-6428
▁dangerous	-6429
▁counter	-6430
▁completamente	-6431
ingly	-6432
500	-6433
▁ascol	-6434
▁tub	-6435
▁Giovanni	-6436
itamente	-6437
▁performed	-6438
vio	-6439
▁trasm	-6440
▁186	-6441
▁gall	-6442
IR	-6443
estire	-6444
ideo	-6445
▁wanted	-6446
ING	-6447
inn	-6448
▁Dig	-6449
▁circum	-6450
▁piattaform	-6451
oler	-6452
▁Quest	-6453
▁piccoli	-6454
▁photograph	-6455
▁principale	-6456
▁Both	-6457
▁happens	-6458
▁Elect	-6459
burg	-6460
▁domenica	-6461
word	-6462
▁finding	-6463
▁tess	-6464
▁Dur	-6465
essione	-6466
▁mort	-6467
▁tooth	-6468
▁input	-6469
▁relationships	-6470
▁Sov	-6471
atici	-6472
▁vera	-6473
▁referred	-6474
▁Writ	-6475
▁solutions	-6476
body	-6477
▁Conc	-6478
▁Virgin	-6479
▁esegu	-6480
▁reprodu	-6481
rendere	-6482
▁regionale	-6483
▁pip	-6484
▁please	-6485
inale	-6486
▁properly	-6487
▁internal	-6488
▁enh	-6489
▁cruc	-6490
▁Sam	-6491
▁Prima	-6492
▁authors	-6493
▁whom	-6494
▁initial	-6495
▁offerte	-6496
▁partita	-6497
▁risorse	-6498
▁kill	-6499
▁vital	-6500
▁gender	-6501
▁Presidente	-6502
▁characteristics	-6503
▁physic	-6504
3)	-6505
▁Que	-6506
▁unf	-6507
▁evitare	-6508
▁valid	-6509
▁Torino	-6510
▁Polit	-6511
▁Paese	-6512
▁anxiety	-6513
▁controll	-6514
▁regarding	-6515
▁principles	-6516
▁tru	-6517
▁Pass	-6518
▁proprietà	-6519
iso	-6520
▁infer	-6521
stitution	-6522
▁NASA	-6523
▁upper	-6524
▁Marco	-6525
ws	-6526
anted	-6527
▁lingu	-6528
▁Ur	-6529
▁degrees	-6530
alle	-6531
▁carri	-6532
▁motor	-6533
anzo	-6534
inger	-6535
▁professor	-6536
osystem	-6537
▁flood	-6538
othes	-6539
▁Under	-6540
▁helped	-6541
▁conoscere	-6542
anned	-6543
▁studenti	-6544
arp	-6545
▁portare	-6546
▁Make	-6547
▁Sant	-6548
▁potrà	-6549
den	-6550
▁Aff	-6551
▁youth	-6552
respond	-6553
▁Atl	-6554
▁reducing	-6555
▁sera	-6556
▁Italy	-6557
▁surgery	-6558
udi	-6559
▁bon	-6560
▁possess	-6561
▁cant	-6562
▁Secondo	-6563
▁Note	-6564
▁Bio	-6565
▁excell	-6566
▁determined	-6567
▁comprehens	-6568
▁meat	-6569
▁pagamento	-6570
▁Oggi	-6571
▁pari	-6572
▁Medical	-6573
▁Europa	-6574
TER	-6575
irs	-6576
lif	-6577
What	-6578
▁hotel	-6579
▁exactly	-6580
▁elementi	-6581
▁lont	-6582
▁pick	-6583
ault	-6584
▁Cook	-6585
▁invas	-6586
▁PRO	-6587
inder	-6588
▁Power	-6589
▁condiv	-6590
tages	-6591
▁promo	-6592
6)	-6593
MS	-6594
▁Gold	-6595
▁Tutti	-6596
▁cinque	-6597
▁nit	-6598
▁affron	-6599
eccan	-6600
tiene	-6601
▁termini	-6602
▁HIV	-6603
iveness	-6604
▁Online	-6605
▁arran	-6606
▁edizione	-6607
▁Mel	-6608
▁opere	-6609
▁server	-6610
▁Num	-6611
▁motivo	-6612
ortunately	-6613
▁manifesta	-6614
▁Stand	-6615
ancing	-6616
▁injury	-6617
▁units	-6618
▁belong	-6619
▁carta	-6620
▁secret	-6621
articolo	-6622
▁pubblicato	-6623
ested	-6624
▁correl	-6625
▁err	-6626
▁chia	-6627
▁charg	-6628
ietro	-6629
arli	-6630
▁preval	-6631
▁genes	-6632
▁immun	-6633
▁ovvero	-6634
unti	-6635
▁mentioned	-6636
▁funzione	-6637
▁hor	-6638
▁Gian	-6639
▁mathemat	-6640
▁distingu	-6641
ccia	-6642
▁capit	-6643
▁Lou	-6644
ughter	-6645
▁conservation	-6646
olato	-6647
▁Treat	-6648
▁org	-6649
▁Mond	-6650
EO	-6651
onc	-6652
▁inflamm	-6653
39	-6654
down	-6655
unge	-6656
▁giochi	-6657
▁verrà	-6658
▁religion	-6659
▁dil	-6660
▁Academ	-6661
▁sold	-6662
ressed	-6663
ulating	-6664
▁significa	-6665
▁linked	-6666
▁previously	-6667
VA	-6668
▁strategy	-6669
▁provincia	-6670
▁conver	-6671
▁served	-6672
gr	-6673
▁sorp	-6674
▁brows	-6675
▁northern	-6676
▁Stre	-6677
ALE	-6678
des	-6679
iform	-6680
▁passo	-6681
▁experienced	-6682
▁heard	-6683
▁mostly	-6684
▁AR	-6685
▁dir	-6686
▁8.	-6687
oche	-6688
▁Fab	-6689
▁Miche	-6690
▁chain	-6691
ontro	-6692
▁salt	-6693
▁costo	-6694
▁statement	-6695
agra	-6696
▁hom	-6697
▁brand	-6698
▁describe	-6699
utta	-6700
▁arriva	-6701
▁bank	-6702
▁Central	-6703
▁removed	-6704
▁IT	-6705
▁involves	-6706
nic	-6707
ource	-6708
▁presenta	-6709
▁infections	-6710
riage	-6711
▁ristor	-6712
▁relevant	-6713
▁soff	-6714
▁zero	-6715
▁Civil	-6716
▁failure	-6717
▁radiation	-6718
▁impegn	-6719
▁mm	-6720
ulin	-6721
Am	-6722
evo	-6723
iders	-6724
▁emerg	-6725
alled	-6726
▁leads	-6727
urare	-6728
▁landsc	-6729
▁Court	-6730
▁Top	-6731
▁americ	-6732
ocr	-6733
eline	-6734
▁advanced	-6735
▁SP	-6736
▁interested	-6737
▁esigenze	-6738
oren	-6739
eties	-6740
▁Franc	-6741
ded	-6742
▁implic	-6743
▁guar	-6744
▁transform	-6745
edizione	-6746
tery	-6747
▁classes	-6748
▁spent	-6749
▁ritrov	-6750
asti	-6751
▁Mer	-6752
▁Robert	-6753
▁5,	-6754
▁promote	-6755
▁raggiungere	-6756
▁esist	-6757
▁Ros	-6758
istan	-6759
uns	-6760
andosi	-6761
▁incred	-6762
▁bagno	-6763
▁sostitu	-6764
▁contribu	-6765
▁depending	-6766
ees	-6767
ception	-6768
▁piac	-6769
cio	-6770
▁commento	-6771
▁fondamentale	-6772
▁scopo	-6773
▁Guard	-6774
▁Cla	-6775
▁explore	-6776
▁win	-6777
▁supporto	-6778
▁recip	-6779
▁eggs	-6780
inta	-6781
▁famiglie	-6782
▁lasc	-6783
▁experts	-6784
▁Sat	-6785
▁Medicine	-6786
▁expert	-6787
▁ciasc	-6788
▁advantage	-6789
▁effectively	-6790
▁tante	-6791
▁conferm	-6792
eting	-6793
▁helping	-6794
▁pollution	-6795
▁charge	-6796
irsi	-6797
▁apparent	-6798
▁cerca	-6799
utilizzo	-6800
▁scene	-6801
▁selezion	-6802
▁thick	-6803
▁reaction	-6804
ologica	-6805
▁meant	-6806
avo	-6807
▁exposed	-6808
arr	-6809
▁vuoi	-6810
▁Phil	-6811
▁Ross	-6812
▁utile	-6813
▁vegetables	-6814
▁rang	-6815
▁classe	-6816
entemente	-6817
▁(5	-6818
▁race	-6819
▁ritor	-6820
lese	-6821
aker	-6822
▁articles	-6823
▁Dani	-6824
▁dogs	-6825
▁kept	-6826
▁manage	-6827
▁prepared	-6828
7)	-6829
▁coal	-6830
▁nota	-6831
▁decided	-6832
▁testo	-6833
▁proprie	-6834
tte	-6835
▁150	-6836
▁contratto	-6837
▁decide	-6838
▁elettron	-6839
▁west	-6840
▁Texas	-6841
▁hospital	-6842
▁seeds	-6843
▁Camb	-6844
▁Energy	-6845
▁saying	-6846
atically	-6847
▁né	-6848
▁Technology	-6849
48	-6850
ming	-6851
ancer	-6852
▁song	-6853
▁questione	-6854
▁Bus	-6855
▁modific	-6856
▁ton	-6857
ambiente	-6858
▁pubblica	-6859
MO	-6860
lements	-6861
▁efficient	-6862
▁institutions	-6863
▁compren	-6864
▁conosci	-6865
MP	-6866
▁club	-6867
▁click	-6868
ille	-6869
▁categoria	-6870
▁superiore	-6871
anal	-6872
▁conflict	-6873
▁Centro	-6874
▁Women	-6875
ework	-6876
▁processing	-6877
98	-6878
▁Arab	-6879
ggiare	-6880
▁motion	-6881
▁giusto	-6882
▁sort	-6883
▁Information	-6884
▁uso	-6885
▁attempt	-6886
▁abit	-6887
▁amounts	-6888
mas	-6889
▁definit	-6890
▁ufficiale	-6891
▁discrim	-6892
▁tecnica	-6893
▁Bon	-6894
▁emo	-6895
▁soc	-6896
alking	-6897
▁Space	-6898
▁southern	-6899
38	-6900
▁fab	-6901
ography	-6902
▁die	-6903
TS	-6904
▁pages	-6905
▁barri	-6906
▁signal	-6907
▁amministr	-6908
▁sabato	-6909
ographic	-6910
▁schi	-6911
▁davanti	-6912
reto	-6913
▁cup	-6914
▁regol	-6915
ologna	-6916
▁academic	-6917
▁parla	-6918
▁platform	-6919
▁Any	-6920
ilmente	-6921
▁ieri	-6922
▁novel	-6923
ears	-6924
▁Long	-6925
otics	-6926
▁perdere	-6927
▁enorm	-6928
▁emotional	-6929
▁proposed	-6930
▁du	-6931
▁Play	-6932
▁owners	-6933
umn	-6934
▁east	-6935
▁Mexico	-6936
enuto	-6937
▁Islam	-6938
ses	-6939
▁corn	-6940
win	-6941
oglio	-6942
eti	-6943
▁spend	-6944
▁pand	-6945
▁concerns	-6946
▁jour	-6947
BC	-6948
odes	-6949
▁scol	-6950
xid	-6951
▁Learning	-6952
▁seed	-6953
▁chemicals	-6954
▁phase	-6955
▁waters	-6956
enta	-6957
▁farmers	-6958
▁facendo	-6959
ols	-6960
▁aid	-6961
uttosto	-6962
▁pratica	-6963
imer	-6964
▁Dic	-6965
▁narr	-6966
▁Id	-6967
▁pieces	-6968
▁download	-6969
As	-6970
▁diventare	-6971
▁AC	-6972
poses	-6973
bility	-6974
racy	-6975
▁operation	-6976
adian	-6977
▁audi	-6978
▁Pap	-6979
▁seek	-6980
iber	-6981
▁select	-6982
▁visita	-6983
▁preoccup	-6984
▁?	-6985
ira	-6986
▁Person	-6987
su	-6988
▁continues	-6989
▁wonder	-6990
ny	-6991
▁sistemi	-6992
▁calcio	-6993
▁materiale	-6994
▁Sum	-6995
▁looks	-6996
htm	-6997
▁Jack	-6998
▁atto	-6999
▁migliorare	-7000
▁36	-7001
%.	-7002
▁ingredi	-7003
▁supported	-7004
▁Gener	-7005
▁bond	-7006
▁Wild	-7007
▁wealth	-7008
▁nessuno	-7009
▁arrivare	-7010
cons	-7011
▁bambino	-7012
vento	-7013
▁encourage	-7014
▁glob	-7015
enziali	-7016
▁autonom	-7017
▁figli	-7018
Is	-7019
▁identity	-7020
▁Hotel	-7021
▁necessari	-7022
▁mir	-7023
▁diagnosis	-7024
▁SC	-7025
▁essay	-7026
▁notice	-7027
▁Seg	-7028
iable	-7029
▁acquis	-7030
▁Management	-7031
▁Maggio	-7032
▁definition	-7033
wa	-7034
▁finally	-7035
▁correspond	-7036
▁forced	-7037
ionale	-7038
▁reached	-7039
▁spazi	-7040
▁Jews	-7041
▁2005	-7042
▁Twitter	-7043
▁mainly	-7044
▁Old	-7045
▁afferm	-7046
▁Vene	-7047
▁Smith	-7048
▁entram	-7049
▁atmosphere	-7050
▁math	-7051
▁Alber	-7052
▁decor	-7053
aggiori	-7054
craft	-7055
▁sustainable	-7056
acia	-7057
▁concepts	-7058
erai	-7059
zy	-7060
▁(18	-7061
acchi	-7062
▁horm	-7063
comes	-7064
▁perce	-7065
▁Britain	-7066
▁completed	-7067
ATO	-7068
▁prestito	-7069
▁privacy	-7070
▁Due	-7071
Amer	-7072
▁medico	-7073
▁protected	-7074
▁bomb	-7075
cel	-7076
ecutive	-7077
▁Ze	-7078
▁Novembre	-7079
▁@	-7080
▁Pop	-7081
▁rac	-7082
▁fiss	-7083
▁sottoline	-7084
▁opera	-7085
▁storm	-7086
rick	-7087
▁appunt	-7088
mm	-7089
▁Flor	-7090
▁electrical	-7091
▁Austral	-7092
▁station	-7093
▁articoli	-7094
▁remained	-7095
▁adjust	-7096
PP	-7097
aser	-7098
▁conoscenza	-7099
▁accom	-7100
▁Through	-7101
▁THE	-7102
izzi	-7103
▁manner	-7104
NO	-7105
▁insegn	-7106
▁nonostante	-7107
▁taught	-7108
▁usare	-7109
norm	-7110
▁traffic	-7111
▁morning	-7112
asione	-7113
▁Pubblicato	-7114
▁allowing	-7115
▁render	-7116
▁Cro	-7117
▁girls	-7118
▁ideal	-7119
▁trigg	-7120
▁config	-7121
▁piccola	-7122
ints	-7123
▁incontro	-7124
going	-7125
▁Nuov	-7126
▁novità	-7127
▁awareness	-7128
▁Sl	-7129
▁adapt	-7130
▁Natural	-7131
En	-7132
▁Addition	-7133
▁interventi	-7134
▁provved	-7135
▁Ban	-7136
▁Labor	-7137
▁combined	-7138
▁phenomen	-7139
▁ecco	-7140
▁Lab	-7141
▁lie	-7142
▁PM	-7143
▁engineering	-7144
ndrome	-7145
▁yellow	-7146
▁Bur	-7147
▁Leggi	-7148
▁fluid	-7149
▁piedi	-7150
arne	-7151
▁pensare	-7152
▁recorded	-7153
▁formation	-7154
▁snow	-7155
aneous	-7156
▁shared	-7157
▁hearing	-7158
▁rendere	-7159
▁cookies	-7160
road	-7161
ulo	-7162
▁Commission	-7163
▁qualcuno	-7164
▁satell	-7165
▁technical	-7166
illo	-7167
▁intended	-7168
▁thoughts	-7169
▁languages	-7170
▁Kore	-7171
▁soluzioni	-7172
▁accum	-7173
▁begins	-7174
▁bisogna	-7175
TION	-7176
▁flex	-7177
▁straordin	-7178
77	-7179
emble	-7180
▁enc	-7181
▁cioè	-7182
▁CH	-7183
▁NO	-7184
▁Charles	-7185
▁avvi	-7186
▁giornal	-7187
▁hop	-7188
▁drink	-7189
▁stup	-7190
iega	-7191
▁voice	-7192
▁improved	-7193
▁espos	-7194
▁III	-7195
▁Sud	-7196
▁consente	-7197
▁Neg	-7198
utamente	-7199
▁toxic	-7200
guard	-7201
▁gratis	-7202
uts	-7203
terà	-7204
▁Such	-7205
inati	-7206
issime	-7207
▁tue	-7208
▁Gard	-7209
▁niente	-7210
astern	-7211
▁reduction	-7212
▁Russian	-7213
▁strumento	-7214
▁frequency	-7215
itors	-7216
liance	-7217
▁trial	-7218
▁contatto	-7219
▁centuries	-7220
▁Chies	-7221
icon	-7222
▁collected	-7223
▁Foundation	-7224
▁posti	-7225
▁authority	-7226
band	-7227
▁drinking	-7228
▁Good	-7229
ualità	-7230
▁lesson	-7231
▁links	-7232
▁parall	-7233
▁Ra	-7234
ardino	-7235
VID	-7236
▁luoghi	-7237
▁centrale	-7238
ppure	-7239
▁psic	-7240
▁purposes	-7241
▁potere	-7242
▁consiglio	-7243
▁muscles	-7244
▁familiar	-7245
▁Instead	-7246
▁grade	-7247
cell	-7248
▁wire	-7249
▁400	-7250
▁attiv	-7251
▁vanno	-7252
▁prevede	-7253
▁confronti	-7254
▁Cin	-7255
▁specifically	-7256
▁piuttosto	-7257
▁diment	-7258
▁offered	-7259
▁curriculum	-7260
erebbe	-7261
▁renew	-7262
▁focused	-7263
▁Ora	-7264
▁scena	-7265
▁pace	-7266
BN	-7267
▁enem	-7268
▁habitat	-7269
36	-7270
▁pig	-7271
▁Policy	-7272
▁extreme	-7273
unk	-7274
alazzo	-7275
unced	-7276
ambito	-7277
▁basso	-7278
Or	-7279
ianto	-7280
▁kinds	-7281
▁vast	-7282
▁bic	-7283
▁economico	-7284
LO	-7285
▁Tutto	-7286
▁situations	-7287
▁giro	-7288
▁occurred	-7289
azine	-7290
▁rispett	-7291
▁realizzazione	-7292
▁Mov	-7293
▁1990	-7294
west	-7295
▁brief	-7296
▁raised	-7297
▁detect	-7298
isione	-7299
▁metri	-7300
▁reale	-7301
▁stem	-7302
▁seguire	-7303
▁dedicato	-7304
▁facts	-7305
▁trovato	-7306
▁Army	-7307
▁modelli	-7308
▁efficiency	-7309
▁appoint	-7310
▁cognitive	-7311
▁messo	-7312
▁Uniti	-7313
▁Andrea	-7314
▁Bible	-7315
▁flowers	-7316
▁Exp	-7317
icks	-7318
▁Eff	-7319
▁practical	-7320
▁differenti	-7321
▁Perché	-7322
▁samples	-7323
BS	-7324
▁devi	-7325
▁felt	-7326
▁Know	-7327
iego	-7328
▁jobs	-7329
infor	-7330
▁particles	-7331
▁ecosystem	-7332
▁army	-7333
anic	-7334
iced	-7335
▁despite	-7336
▁cliente	-7337
?”	-7338
soft	-7339
▁stro	-7340
▁contribute	-7341
▁fung	-7342
▁tecnologia	-7343
eters	-7344
ii	-7345
▁Global	-7346
App	-7347
cking	-7348
▁stars	-7349
▁garanti	-7350
▁tecnico	-7351
▁primarily	-7352
▁aspetti	-7353
then	-7354
▁materiali	-7355
▁treatments	-7356
'.	-7357
▁largely	-7358
ios	-7359
▁therm	-7360
▁audio	-7361
ashion	-7362
▁playing	-7363
▁coloro	-7364
▁contemporane	-7365
▁finanziamento	-7366
▁sindaco	-7367
▁Sea	-7368
▁aer	-7369
useppe	-7370
▁figlio	-7371
Non	-7372
▁certainly	-7373
▁consequences	-7374
▁Step	-7375
▁spot	-7376
imately	-7377
▁sé	-7378
▁straight	-7379
▁responsibility	-7380
▁Natale	-7381
▁IP	-7382
▁bright	-7383
▁vostra	-7384
▁diventa	-7385
▁approfond	-7386
▁aren	-7387
▁database	-7388
aticamente	-7389
▁dial	-7390
▁Expl	-7391
▁height	-7392
eremo	-7393
▁Dise	-7394
▁Fond	-7395
▁revolution	-7396
▁extent	-7397
▁accurate	-7398
▁speciale	-7399
▁Work	-7400
▁responsabilità	-7401
’.	-7402
▁explains	-7403
▁emergency	-7404
anna	-7405
df	-7406
▁Studies	-7407
▁mic	-7408
▁Latin	-7409
▁distanza	-7410
vement	-7411
olina	-7412
▁scuole	-7413
▁lavorare	-7414
▁Str	-7415
othing	-7416
▁rappresenta	-7417
tegra	-7418
▁poverty	-7419
▁excellent	-7420
▁send	-7421
▁sv	-7422
itage	-7423
▁poly	-7424
▁random	-7425
▁Tutta	-7426
▁soltanto	-7427
hips	-7428
▁Cod	-7429
ensus	-7430
▁stom	-7431
▁rural	-7432
▁adolesc	-7433
▁showing	-7434
.|	-7435
▁Michael	-7436
▁Common	-7437
▁Rights	-7438
▁Alessand	-7439
▁advice	-7440
orig	-7441
▁Mater	-7442
▁sector	-7443
▁fen	-7444
itness	-7445
▁liver	-7446
▁vaccine	-7447
▁ES	-7448
assion	-7449
net	-7450
▁dovuto	-7451
acters	-7452
▁Antonio	-7453
▁Nazionale	-7454
▁supplement	-7455
uting	-7456
▁frances	-7457
▁police	-7458
▁explan	-7459
▁metà	-7460
▁amore	-7461
▁stone	-7462
▁potrebbero	-7463
▁rain	-7464
▁Those	-7465
▁career	-7466
44	-7467
ville	-7468
79	-7469
▁cinema	-7470
▁impacts	-7471
▁abuse	-7472
▁leadership	-7473
kin	-7474
▁Rob	-7475
▁quantità	-7476
▁Wik	-7477
▁views	-7478
▁Conserv	-7479
▁genitori	-7480
▁libri	-7481
ittura	-7482
▁Lake	-7483
▁Nature	-7484
▁assemb	-7485
▁critic	-7486
▁differenza	-7487
▁partecipazione	-7488
▁codice	-7489
state	-7490
▁intens	-7491
▁Review	-7492
▁subjects	-7493
active	-7494
▁previsto	-7495
roll	-7496
▁Henry	-7497
▁AM	-7498
▁Yet	-7499
▁terzo	-7500
▁colour	-7501
aks	-7502
▁adm	-7503
▁attend	-7504
▁existence	-7505
▁yield	-7506
▁agricultural	-7507
▁faster	-7508
SI	-7509
▁Please	-7510
▁Covid	-7511
▁Before	-7512
▁sounds	-7513
▁32	-7514
▁bib	-7515
▁consap	-7516
▁paesi	-7517
▁comuni	-7518
▁od	-7519
▁9.	-7520
▁Sul	-7521
▁Stef	-7522
voli	-7523
▁keeping	-7524
▁persons	-7525
▁soggetti	-7526
▁otherwise	-7527
▁revis	-7528
▁Sel	-7529
▁aree	-7530
▁les	-7531
▁sco	-7532
▁refers	-7533
▁cib	-7534
▁detailed	-7535
▁Salv	-7536
izzazioni	-7537
▁domestic	-7538
▁Ga	-7539
▁returned	-7540
airs	-7541
▁onto	-7542
▁maximum	-7543
fit	-7544
astico	-7545
▁padre	-7546
▁mos	-7547
elled	-7548
▁Time	-7549
▁corris	-7550
▁Histor	-7551
DI	-7552
▁string	-7553
lines	-7554
▁verde	-7555
▁Feder	-7556
olars	-7557
▁miner	-7558
▁Term	-7559
▁suggested	-7560
ffe	-7561
hop	-7562
▁mente	-7563
lip	-7564
▁acquistare	-7565
▁utilizzato	-7566
▁sicuro	-7567
▁inher	-7568
New	-7569
▁fle	-7570
▁looked	-7571
▁dolore	-7572
▁fundamental	-7573
▁Peter	-7574
▁Sus	-7575
▁wife	-7576
igenous	-7577
▁component	-7578
▁materia	-7579
tegno	-7580
rono	-7581
▁biological	-7582
place	-7583
attia	-7584
▁helpful	-7585
▁letters	-7586
▁tali	-7587
▁nations	-7588
▁Oper	-7589
right	-7590
▁Fact	-7591
▁files	-7592
▁greatest	-7593
▁lunga	-7594
▁behavio	-7595
▁livelli	-7596
▁Disc	-7597
▁tasks	-7598
▁monitoring	-7599
▁deriv	-7600
rant	-7601
▁operating	-7602
▁semplicemente	-7603
attare	-7604
▁potentially	-7605
▁valu	-7606
▁rough	-7607
risto	-7608
▁adegu	-7609
▁governments	-7610
▁Where	-7611
▁Catholic	-7612
ettere	-7613
▁Festival	-7614
▁Li	-7615
▁Office	-7616
▁increasingly	-7617
uni	-7618
opera	-7619
▁Hall	-7620
▁Land	-7621
▁director	-7622
▁nutrients	-7623
▁protezione	-7624
▁surrounding	-7625
tein	-7626
▁chiar	-7627
▁neighbor	-7628
▁mit	-7629
▁interesse	-7630
▁claims	-7631
▁happened	-7632
▁title	-7633
▁prenot	-7634
▁Environmental	-7635
utente	-7636
obiettivo	-7637
etico	-7638
▁hyper	-7639
▁mista	-7640
ucc	-7641
▁affects	-7642
46	-7643
▁played	-7644
▁Federal	-7645
▁perspective	-7646
▁moist	-7647
▁approaches	-7648
▁hundreds	-7649
▁Pacific	-7650
enses	-7651
▁delic	-7652
▁controlled	-7653
/200	-7654
▁femmin	-7655
▁sezione	-7656
▁fif	-7657
ARE	-7658
rep	-7659
▁double	-7660
bar	-7661
ching	-7662
uovere	-7663
▁portato	-7664
▁33	-7665
▁satisf	-7666
▁Ott	-7667
▁tecniche	-7668
alli	-7669
▁Casa	-7670
▁invi	-7671
▁garantire	-7672
▁reti	-7673
▁slightly	-7674
▁rende	-7675
▁Bologna	-7676
▁bow	-7677
ettiva	-7678
▁neuro	-7679
asm	-7680
▁elabor	-7681
▁wet	-7682
▁Care	-7683
▁Though	-7684
▁proposta	-7685
▁prison	-7686
▁Despite	-7687
retta	-7688
resents	-7689
▁typical	-7690
▁cro	-7691
▁chann	-7692
▁interests	-7693
▁lavoratori	-7694
▁Bul	-7695
▁luc	-7696
▁lingua	-7697
▁instrument	-7698
▁raccolta	-7699
▁recognized	-7700
▁legno	-7701
▁ragione	-7702
▁riport	-7703
▁measured	-7704
zed	-7705
▁Rome	-7706
AB	-7707
▁crisis	-7708
▁musical	-7709
▁maggiori	-7710
▁dro	-7711
▁characters	-7712
▁diretta	-7713
▁Mill	-7714
▁meccan	-7715
▁minimum	-7716
▁flag	-7717
▁vehicle	-7718
▁external	-7719
▁divided	-7720
▁mili	-7721
▁equival	-7722
▁idee	-7723
▁antibi	-7724
ometimes	-7725
▁professionale	-7726
▁lose	-7727
▁Engine	-7728
▁Street	-7729
▁dimin	-7730
▁Columb	-7731
orough	-7732
▁Virginia	-7733
▁explained	-7734
▁prepare	-7735
▁spiritual	-7736
▁depth	-7737
▁smartphone	-7738
▁realizzato	-7739
nze	-7740
▁instruction	-7741
▁Giuseppe	-7742
76	-7743
unting	-7744
idio	-7745
▁fertil	-7746
osizione	-7747
▁consists	-7748
oster	-7749
▁western	-7750
▁digitale	-7751
▁oral	-7752
▁attacks	-7753
ja	-7754
ulare	-7755
tood	-7756
▁reform	-7757
▁wors	-7758
▁appeared	-7759
▁giur	-7760
▁piazza	-7761
▁coun	-7762
car	-7763
idere	-7764
▁Free	-7765
▁chief	-7766
▁durata	-7767
▁Company	-7768
ye	-7769
uola	-7770
estro	-7771
▁corpor	-7772
ZA	-7773
▁pray	-7774
name	-7775
▁Gall	-7776
▁knew	-7777
▁Middle	-7778
▁Last	-7779
1).	-7780
▁Scar	-7781
▁mamm	-7782
▁Only	-7783
▁Sing	-7784
venire	-7785
▁azioni	-7786
▁thin	-7787
▁illeg	-7788
▁Access	-7789
▁ages	-7790
▁Open	-7791
▁lett	-7792
▁fisc	-7793
viso	-7794
▁follows	-7795
▁marine	-7796
▁investment	-7797
▁188	-7798
▁Bab	-7799
▁tips	-7800
▁fornire	-7801
▁studied	-7802
unicip	-7803
▁preso	-7804
▁età	-7805
aste	-7806
▁paint	-7807
▁voglia	-7808
ishes	-7809
▁realizzare	-7810
▁Ogni	-7811
▁allen	-7812
▁Follow	-7813
▁Chiesa	-7814
-10	-7815
bum	-7816
udio	-7817
iterrane	-7818
▁Produ	-7819
▁libertà	-7820
▁facilities	-7821
49	-7822
▁mart	-7823
▁Media	-7824
.;	-7825
▁topics	-7826
tty	-7827
usti	-7828
▁189	-7829
▁represents	-7830
arono	-7831
▁Dom	-7832
▁depends	-7833
bbiamo	-7834
▁terror	-7835
▁tranqu	-7836
Per	-7837
▁bor	-7838
▁dose	-7839
▁deleg	-7840
▁Ec	-7841
orter	-7842
estyle	-7843
▁goods	-7844
▁moral	-7845
▁commit	-7846
lets	-7847
thlet	-7848
▁crucial	-7849
ettono	-7850
xts	-7851
▁restrict	-7852
box	-7853
▁6,	-7854
▁conness	-7855
▁crops	-7856
▁continuous	-7857
▁Ill	-7858
olate	-7859
▁Chic	-7860
▁Questi	-7861
▁explo	-7862
▁substance	-7863
▁tail	-7864
▁walls	-7865
▁Library	-7866
tes	-7867
▁Dev	-7868
▁formal	-7869
▁medium	-7870
useo	-7871
asure	-7872
▁parola	-7873
▁secolo	-7874
▁rapidly	-7875
lla	-7876
atever	-7877
▁officials	-7878
▁indu	-7879
▁protagonista	-7880
iov	-7881
ardia	-7882
▁digest	-7883
▁pazienti	-7884
▁periods	-7885
▁train	-7886
astanza	-7887
spec	-7888
ESS	-7889
▁browser	-7890
▁compagn	-7891
▁employees	-7892
▁Bal	-7893
▁madre	-7894
▁roots	-7895
▁fan	-7896
▁Vict	-7897
▁spia	-7898
▁posso	-7899
▁campagna	-7900
▁naturally	-7901
▁Sir	-7902
ilding	-7903
▁haz	-7904
▁arms	-7905
▁pieno	-7906
what	-7907
ffee	-7908
▁spese	-7909
▁Agric	-7910
▁recensioni	-7911
▁Angel	-7912
▁creative	-7913
▁Resp	-7914
▁tried	-7915
▁Professor	-7916
▁cott	-7917
action	-7918
▁convent	-7919
▁AI	-7920
chen	-7921
▁containing	-7922
agen	-7923
▁1:	-7924
▁recyc	-7925
▁utili	-7926
▁prices	-7927
▁animali	-7928
▁suffering	-7929
▁outcomes	-7930
If	-7931
▁38	-7932
icola	-7933
▁mondiale	-7934
▁mur	-7935
▁stored	-7936
▁stated	-7937
▁;	-7938
▁sugli	-7939
ilio	-7940
▁Quindi	-7941
▁Men	-7942
▁Siamo	-7943
▁commer	-7944
▁tested	-7945
▁closely	-7946
▁Who	-7947
▁portion	-7948
▁visible	-7949
▁feelings	-7950
▁Univers	-7951
▁selected	-7952
▁Coll	-7953
▁OF	-7954
zone	-7955
▁domande	-7956
▁documents	-7957
▁Abbiamo	-7958
▁movements	-7959
▁medications	-7960
▁concentration	-7961
menti	-7962
▁Keep	-7963
alto	-7964
eder	-7965
▁hit	-7966
istici	-7967
bits	-7968
▁chiaro	-7969
ellect	-7970
▁dirig	-7971
▁misure	-7972
▁ritorno	-7973
gu	-7974
esimo	-7975
▁discovery	-7976
▁budget	-7977
▁magari	-7978
ources	-7979
▁dovrà	-7980
inding	-7981
%)	-7982
▁respir	-7983
voc	-7984
which	-7985
ady	-7986
▁clic	-7987
▁nero	-7988
▁Florida	-7989
▁circumst	-7990
▁sostegno	-7991
Re	-7992
▁Conn	-7993
▁estate	-7994
ds	-7995
▁concerned	-7996
▁Pad	-7997
▁Cass	-7998
▁fatta	-7999
▁Van	-8000
▁eleg	-8001
▁harvest	-8002
▁absol	-8003
▁phone	-8004
▁subsequ	-8005
▁couple	-8006
eless	-8007
▁Oltre	-8008
▁Ham	-8009
▁memor	-8010
stall	-8011
▁wear	-8012
tr	-8013
▁redd	-8014
▁fum	-8015
resti	-8016
▁Vit	-8017
▁parad	-8018
▁merito	-8019
▁quota	-8020
2).	-8021
ettato	-8022
▁opinion	-8023
▁grown	-8024
stand	-8025
▁poet	-8026
▁dimensioni	-8027
▁paid	-8028
ascular	-8029
▁regole	-8030
▁parties	-8031
▁culturale	-8032
▁vede	-8033
usal	-8034
▁Circ	-8035
▁Louis	-8036
▁responsabile	-8037
▁Ast	-8038
▁Creat	-8039
▁Soviet	-8040
▁residents	-8041
!!!	-8042
▁191	-8043
amica	-8044
▁surf	-8045
▁libero	-8046
▁contenuto	-8047
▁Report	-8048
▁indipend	-8049
rine	-8050
▁rail	-8051
▁sides	-8052
▁gent	-8053
▁cord	-8054
▁concentr	-8055
import	-8056
▁exchange	-8057
idents	-8058
▁abbastanza	-8059
▁posit	-8060
chem	-8061
▁fenomen	-8062
▁optim	-8063
▁regime	-8064
▁Eli	-8065
▁Eth	-8066
▁bianco	-8067
edale	-8068
▁valori	-8069
▁Sand	-8070
▁leaving	-8071
▁Jer	-8072
▁advis	-8073
▁proteins	-8074
▁Bell	-8075
▁som	-8076
▁Tuttavia	-8077
▁concrete	-8078
▁cercare	-8079
isci	-8080
ented	-8081
▁trip	-8082
▁Brown	-8083
▁recovery	-8084
55	-8085
▁dentro	-8086
rupt	-8087
▁(20	-8088
▁adding	-8089
iry	-8090
anguage	-8091
▁Figure	-8092
4).	-8093
oral	-8094
▁forme	-8095
unds	-8096
▁Cosa	-8097
▁ISBN	-8098
▁Constitution	-8099
▁direttore	-8100
▁Cred	-8101
free	-8102
▁latest	-8103
iro	-8104
▁ju	-8105
iture	-8106
▁Club	-8107
▁discussed	-8108
▁justice	-8109
VI	-8110
▁gente	-8111
▁incent	-8112
▁notizie	-8113
▁veter	-8114
reso	-8115
with	-8116
▁comprom	-8117
-201	-8118
▁stare	-8119
▁Orig	-8120
▁dietro	-8121
▁Canadian	-8122
▁propriet	-8123
htt	-8124
▁capelli	-8125
uce	-8126
▁Tro	-8127
▁dream	-8128
▁sociali	-8129
▁passione	-8130
▁nutrition	-8131
▁diversity	-8132
med	-8133
▁talking	-8134
▁condivid	-8135
▁Pri	-8136
▁funding	-8137
▁intorno	-8138
uster	-8139
▁Martin	-8140
essore	-8141
▁farlo	-8142
▁lettura	-8143
▁procedures	-8144
▁weap	-8145
▁fruits	-8146
▁Down	-8147
▁industri	-8148
▁advoc	-8149
▁colors	-8150
graphy	-8151
%,	-8152
arn	-8153
ypt	-8154
▁Clin	-8155
▁particolarmente	-8156
▁sets	-8157
▁potranno	-8158
oxide	-8159
▁acceler	-8160
▁epid	-8161
▁argument	-8162
▁specie	-8163
▁tuttavia	-8164
▁pictures	-8165
▁Sym	-8166
▁ran	-8167
▁Special	-8168
.000	-8169
reland	-8170
▁interview	-8171
▁Poi	-8172
▁Miss	-8173
uter	-8174
▁accompl	-8175
inson	-8176
▁Take	-8177
struct	-8178
3).	-8179
gent	-8180
▁assicur	-8181
▁affrontare	-8182
▁Frank	-8183
▁formula	-8184
evento	-8185
▁dallo	-8186
▁intelligence	-8187
▁Color	-8188
▁Inform	-8189
▁movimento	-8190
▁pregnancy	-8191
▁Inde	-8192
enance	-8193
▁scoprire	-8194
▁regularly	-8195
fici	-8196
tificial	-8197
▁calend	-8198
▁sinistra	-8199
acche	-8200
▁compare	-8201
▁Grand	-8202
zen	-8203
▁Have	-8204
▁lessons	-8205
▁Video	-8206
▁businesses	-8207
▁prevention	-8208
ums	-8209
▁Je	-8210
▁aperto	-8211
▁regional	-8212
▁ricerc	-8213
▁Star	-8214
▁chol	-8215
▁Finally	-8216
▁millions	-8217
▁ucc	-8218
▁Scop	-8219
»,	-8220
▁Whe	-8221
▁Fi	-8222
▁Bib	-8223
▁Ult	-8224
▁48	-8225
▁af	-8226
▁plate	-8227
▁deaths	-8228
▁narrow	-8229
IF	-8230
’,	-8231
lers	-8232
uttore	-8233
ials	-8234
▁pull	-8235
▁Joseph	-8236
▁kit	-8237
▁myth	-8238
▁danno	-8239
▁recognize	-8240
▁Ta	-8241
har	-8242
avirus	-8243
▁Dicembre	-8244
▁individu	-8245
▁expensive	-8246
▁strutture	-8247
▁obtained	-8248
▁originale	-8249
▁Paris	-8250
▁floor	-8251
▁capable	-8252
▁brown	-8253
obil	-8254
▁impar	-8255
▁Den	-8256
▁Cult	-8257
▁absorb	-8258
stream	-8259
▁compens	-8260
▁village	-8261
▁mang	-8262
inform	-8263
▁rient	-8264
▁commenti	-8265
▁Apple	-8266
▁ordin	-8267
▁festa	-8268
▁Mot	-8269
▁apart	-8270
▁regione	-8271
▁Pu	-8272
▁sola	-8273
▁presto	-8274
▁dut	-8275
▁adesso	-8276
▁ancest	-8277
▁impossible	-8278
▁Acqu	-8279
orrere	-8280
irect	-8281
▁originally	-8282
▁infrastructure	-8283
athy	-8284
EA	-8285
▁closed	-8286
▁ultime	-8287
▁decrease	-8288
▁park	-8289
▁valuable	-8290
He	-8291
opp	-8292
gono	-8293
▁Academy	-8294
▁Giul	-8295
▁Firenze	-8296
▁algor	-8297
ENT	-8298
▁tow	-8299
▁Next	-8300
▁driving	-8301
▁facilmente	-8302
▁memoria	-8303
▁distinct	-8304
▁politiche	-8305
▁ovviamente	-8306
▁quei	-8307
▁window	-8308
▁Equ	-8309
estre	-8310
▁libr	-8311
▁raise	-8312
▁museum	-8313
erie	-8314
▁cort	-8315
▁ideale	-8316
▁contamin	-8317
inci	-8318
▁stock	-8319
▁vitam	-8320
▁Repubblica	-8321
▁secure	-8322
▁basta	-8323
enco	-8324
▁obiett	-8325
▁ost	-8326
▁assume	-8327
▁pagine	-8328
adi	-8329
▁generate	-8330
▁Real	-8331
▁spiega	-8332
akers	-8333
▁paura	-8334
▁civile	-8335
▁pump	-8336
occa	-8337
▁domain	-8338
▁aqu	-8339
uncia	-8340
▁180	-8341
▁fill	-8342
▁format	-8343
▁introduction	-8344
▁feedback	-8345
enna	-8346
▁extract	-8347
▁intake	-8348
▁speriment	-8349
ifico	-8350
▁sudden	-8351
▁trop	-8352
▁ble	-8353
▁rap	-8354
▁phr	-8355
etics	-8356
▁Spir	-8357
▁moon	-8358
▁houses	-8359
▁7,	-8360
▁solito	-8361
▁giocare	-8362
edy	-8363
▁oc	-8364
▁credo	-8365
▁conform	-8366
Europa	-8367
▁agriculture	-8368
▁Ireland	-8369
▁seguenti	-8370
▁describes	-8371
▁anz	-8372
▁bones	-8373
▁script	-8374
▁macchina	-8375
ulf	-8376
▁shel	-8377
▁van	-8378
▁rivel	-8379
erdì	-8380
ucia	-8381
▁gel	-8382
▁normally	-8383
----	-8384
agues	-8385
▁Norm	-8386
▁persist	-8387
▁Luca	-8388
▁espr	-8389
▁lato	-8390
▁velocità	-8391
▁Ges	-8392
idden	-8393
▁Word	-8394
ertura	-8395
▁pubblici	-8396
▁computers	-8397
▁tun	-8398
▁Yo	-8399
▁Nord	-8400
▁medi	-8401
▁inflammation	-8402
▁mette	-8403
▁immediate	-8404
▁biod	-8405
▁lista	-8406
▁framework	-8407
CI	-8408
▁velo	-8409
▁calls	-8410
ogliere	-8411
▁principle	-8412
ANO	-8413
▁cere	-8414
▁nonché	-8415
▁imb	-8416
ordine	-8417
▁Egypt	-8418
▁inches	-8419
▁flight	-8420
▁passare	-8421
dy	-8422
itta	-8423
vedì	-8424
▁appearance	-8425
**	-8426
CS	-8427
▁Anal	-8428
▁cerv	-8429
▁exec	-8430
▁piattaforma	-8431
▁185	-8432
▁soli	-8433
▁passe	-8434
▁substanti	-8435
▁Così	-8436
▁roll	-8437
▁tant	-8438
▁equilib	-8439
Ad	-8440
apeut	-8441
▁tagli	-8442
ogliamo	-8443
▁dedicata	-8444
coni	-8445
▁bat	-8446
ortable	-8447
▁label	-8448
▁medie	-8449
▁chiave	-8450
omy	-8451
▁chapter	-8452
▁sick	-8453
▁Mem	-8454
▁Pag	-8455
▁valutazione	-8456
▁cron	-8457
On	-8458
osen	-8459
▁Gran	-8460
Sp	-8461
▁sky	-8462
▁splend	-8463
▁accepted	-8464
▁superfic	-8465
▁sell	-8466
▁spettacolo	-8467
▁vs	-8468
▁vib	-8469
▁ospiti	-8470
▁comprehensive	-8471
▁vice	-8472
▁probabilmente	-8473
ipedia	-8474
ctic	-8475
▁(1)	-8476
▁relax	-8477
▁Italian	-8478
▁infected	-8479
▁veramente	-8480
▁flat	-8481
▁momenti	-8482
omic	-8483
▁sugger	-8484
▁messaggio	-8485
▁administration	-8486
ismi	-8487
flow	-8488
▁metabol	-8489
▁networks	-8490
▁soldiers	-8491
▁guidelines	-8492
fica	-8493
▁Det	-8494
vironments	-8495
iapp	-8496
▁proveni	-8497
▁dubb	-8498
Università	-8499
iao	-8500
▁appare	-8501
▁gluc	-8502
war	-8503
▁merav	-8504
▁doctors	-8505
▁Australian	-8506
OD	-8507
▁Jud	-8508
▁Alc	-8509
▁possibility	-8510
▁Big	-8511
▁kn	-8512
ossa	-8513
thes	-8514
▁Nations	-8515
▁suc	-8516
▁Richard	-8517
▁sharing	-8518
▁opened	-8519
itario	-8520
▁Early	-8521
▁pretty	-8522
▁tenere	-8523
ugs	-8524
▁carico	-8525
▁34	-8526
▁pup	-8527
hem	-8528
▁comfort	-8529
▁Fort	-8530
▁venerdì	-8531
▁false	-8532
▁funzioni	-8533
cle	-8534
rei	-8535
▁IV	-8536
▁library	-8537
▁Fa	-8538
▁numerosi	-8539
▁possibly	-8540
??	-8541
▁costruzione	-8542
itati	-8543
▁Bene	-8544
▁Penn	-8545
istered	-8546
▁subs	-8547
EF	-8548
venzione	-8549
▁Gior	-8550
▁direzione	-8551
GI	-8552
▁Ext	-8553
▁medication	-8554
▁PR	-8555
▁viaggi	-8556
esterol	-8557
EP	-8558
▁1/	-8559
▁manufactur	-8560
▁comunale	-8561
▁producing	-8562
▁sensitive	-8563
▁Tim	-8564
▁accord	-8565
▁understood	-8566
▁interpre	-8567
exp	-8568
bour	-8569
▁speaking	-8570
▁poster	-8571
▁wildlife	-8572
▁SU	-8573
▁recente	-8574
struction	-8575
▁Android	-8576
▁risulta	-8577
▁soggiorno	-8578
esity	-8579
▁dust	-8580
▁Rock	-8581
▁marg	-8582
point	-8583
▁Buddh	-8584
▁horse	-8585
▁Cancer	-8586
ificato	-8587
▁completa	-8588
▁spin	-8589
▁Viet	-8590
▁carc	-8591
▁pron	-8592
▁inglese	-8593
▁Learn	-8594
onde	-8595
▁serata	-8596
▁azienda	-8597
▁secondary	-8598
▁1980	-8599
▁worldwide	-8600
▁entirely	-8601
▁adopted	-8602
▁slowly	-8603
ettazione	-8604
orous	-8605
▁copy	-8606
bell	-8607
ruppo	-8608
▁ottim	-8609
▁revealed	-8610
rav	-8611
▁Mis	-8612
ORE	-8613
▁cambiare	-8614
rence	-8615
▁scholars	-8616
▁EU	-8617
▁Trib	-8618
▁troops	-8619
▁oggetto	-8620
▁richieste	-8621
▁client	-8622
▁vehicles	-8623
izer	-8624
▁worse	-8625
▁benefici	-8626
eper	-8627
▁camere	-8628
acquisto	-8629
▁colt	-8630
▁guad	-8631
fferta	-8632
▁metodo	-8633
▁Times	-8634
▁trover	-8635
▁accounts	-8636
▁tiny	-8637
▁mattina	-8638
▁warming	-8639
▁Est	-8640
▁agree	-8641
raq	-8642
▁decade	-8643
▁enfor	-8644
▁scelto	-8645
-7	-8646
ST	-8647
▁10,	-8648
▁tradizione	-8649
itti	-8650
▁Music	-8651
olt	-8652
ger	-8653
rus	-8654
Con	-8655
▁figures	-8656
▁listed	-8657
▁landscape	-8658
▁propone	-8659
▁syndrome	-8660
▁index	-8661
▁forests	-8662
▁composto	-8663
▁Back	-8664
▁appreci	-8665
▁manip	-8666
▁massive	-8667
▁improving	-8668
▁presentazione	-8669
▁nurs	-8670
iors	-8671
onavirus	-8672
▁universe	-8673
▁marriage	-8674
▁massima	-8675
▁survival	-8676
aug	-8677
long	-8678
▁perdita	-8679
Qu	-8680
olid	-8681
▁recover	-8682
▁37	-8683
occo	-8684
occasione	-8685
onna	-8686
▁controvers	-8687
▁sang	-8688
▁Sup	-8689
being	-8690
▁adequ	-8691
▁wound	-8692
▁(4	-8693
▁grave	-8694
▁photos	-8695
▁twice	-8696
▁diverso	-8697
ket	-8698
There	-8699
liament	-8700
▁Business	-8701
olio	-8702
▁aug	-8703
▁unless	-8704
▁Study	-8705
▁latter	-8706
wing	-8707
▁Pet	-8708
▁agencies	-8709
▁Privacy	-8710
▁trading	-8711
urse	-8712
oggi	-8713
▁managed	-8714
▁feste	-8715
▁extensive	-8716
▁miliardi	-8717
▁manufacturing	-8718
▁Fac	-8719
▁catch	-8720
▁Corte	-8721
▁Oh	-8722
▁Haw	-8723
▁info	-8724
▁dipl	-8725
▁fossil	-8726
▁condizione	-8727
ICA	-8728
▁indeed	-8729
ivery	-8730
effici	-8731
pes	-8732
▁achieved	-8733
▁sig	-8734
▁avrà	-8735
▁riti	-8736
▁Georg	-8737
▁gruppi	-8738
▁disag	-8739
▁decline	-8740
▁assistance	-8741
▁sufficient	-8742
96	-8743
▁mg	-8744
▁creates	-8745
▁repeated	-8746
▁assolutamente	-8747
▁rosso	-8748
▁consenso	-8749
▁injuries	-8750
▁happy	-8751
▁experiments	-8752
▁transmission	-8753
ifying	-8754
▁starts	-8755
▁vittoria	-8756
▁riun	-8757
▁resol	-8758
▁stages	-8759
▁confronto	-8760
▁Consider	-8761
gh	-8762
utti	-8763
▁Scott	-8764
▁pomer	-8765
▁answers	-8766
▁apprezz	-8767
▁roof	-8768
ession	-8769
▁mantenere	-8770
uito	-8771
▁impl	-8772
▁agency	-8773
▁comments	-8774
alities	-8775
▁dental	-8776
▁agreement	-8777
▁insurance	-8778
▁acts	-8779
bec	-8780
▁Tom	-8781
volta	-8782
▁Ox	-8783
▁readers	-8784
▁audience	-8785
▁athlet	-8786
▁Chem	-8787
ads	-8788
icide	-8789
onian	-8790
▁filled	-8791
▁personaggi	-8792
▁Among	-8793
▁chat	-8794
▁danni	-8795
▁shell	-8796
▁Get	-8797
▁wish	-8798
▁sweet	-8799
ypes	-8800
▁120	-8801
▁accesso	-8802
▁espl	-8803
▁failed	-8804
▁coppia	-8805
▁Check	-8806
bles	-8807
esia	-8808
▁avevano	-8809
▁intellect	-8810
▁Microsoft	-8811
teen	-8812
▁corrispond	-8813
▁Qui	-8814
ianco	-8815
▁bear	-8816
▁manager	-8817
▁decisione	-8818
▁afford	-8819
▁prestazioni	-8820
urea	-8821
▁circumstances	-8822
alm	-8823
idenza	-8824
▁waves	-8825
▁completo	-8826
▁noto	-8827
▁presentato	-8828
how	-8829
▁toler	-8830
▁intest	-8831
▁survive	-8832
▁healthcare	-8833
▁affin	-8834
MI	-8835
arvi	-8836
mila	-8837
▁Desc	-8838
▁Nell	-8839
▁fell	-8840
▁sentence	-8841
▁capo	-8842
▁economica	-8843
asia	-8844
▁reject	-8845
▁struggle	-8846
▁bellezza	-8847
▁suitable	-8848
▁sud	-8849
▁obvious	-8850
▁expressed	-8851
▁edge	-8852
▁harmful	-8853
▁environments	-8854
▁volunte	-8855
▁malattia	-8856
▁analisi	-8857
▁Sometimes	-8858
▁plays	-8859
▁Monte	-8860
▁interno	-8861
▁aircraft	-8862
34	-8863
▁Ba	-8864
▁retain	-8865
▁accident	-8866
.00	-8867
▁mediante	-8868
▁wave	-8869
▁manifest	-8870
▁switch	-8871
▁piccole	-8872
▁Far	-8873
▁error	-8874
▁inject	-8875
▁quanti	-8876
▁Click	-8877
▁BC	-8878
▁Nut	-8879
▁mini	-8880
▁produces	-8881
▁effettuare	-8882
▁implementation	-8883
fin	-8884
▁Sever	-8885
▁selection	-8886
orte	-8887
▁cercando	-8888
rot	-8889
▁Beh	-8890
▁Chicago	-8891
▁contesto	-8892
jo	-8893
▁sports	-8894
▁unknown	-8895
lev	-8896
▁tedes	-8897
▁Security	-8898
▁electronic	-8899
usura	-8900
▁campionato	-8901
ermi	-8902
antly	-8903
▁amaz	-8904
▁insects	-8905
▁generated	-8906
▁semi	-8907
▁abund	-8908
▁disapp	-8909
▁fly	-8910
▁List	-8911
▁imped	-8912
▁chart	-8913
▁poiché	-8914
▁newsp	-8915
▁frat	-8916
▁cultiv	-8917
▁sì	-8918
▁Cav	-8919
issioni	-8920
▁Valley	-8921
▁remaining	-8922
▁intervento	-8923
tified	-8924
▁calcium	-8925
▁Du	-8926
sa	-8927
accesso	-8928
▁ali	-8929
▁1970	-8930
▁Ferr	-8931
▁foundation	-8932
Sc	-8933
▁energia	-8934
▁raggiung	-8935
▁ordine	-8936
▁laboratory	-8937
pet	-8938
▁AP	-8939
▁Kar	-8940
▁cars	-8941
▁Party	-8942
▁contributo	-8943
▁passaggio	-8944
▁Royal	-8945
▁ulteriori	-8946
▁Alt	-8947
▁argom	-8948
medi	-8949
rants	-8950
▁socio	-8951
86	-8952
ortare	-8953
▁truly	-8954
▁choices	-8955
▁courses	-8956
▁constitution	-8957
tle	-8958
thma	-8959
:30	-8960
▁Doc	-8961
▁Climate	-8962
reno	-8963
oledì	-8964
▁enable	-8965
ansion	-8966
▁Southern	-8967
▁district	-8968
ribed	-8969
ediamo	-8970
▁Psych	-8971
▁broken	-8972
▁marked	-8973
▁tornare	-8974
HO	-8975
pic	-8976
▁Pas	-8977
▁eventuali	-8978
▁Saf	-8979
▁Wood	-8980
▁telefono	-8981
▁visione	-8982
▁ero	-8983
▁vino	-8984
▁bigli	-8985
▁doubt	-8986
▁maint	-8987
▁aspect	-8988
▁raccont	-8989
▁risparm	-8990
▁Start	-8991
▁skill	-8992
unica	-8993
▁cure	-8994
itative	-8995
▁gratuito	-8996
7).	-8997
ius	-8998
▁COVID	-8999
▁lì	-9000
▁gamb	-9001
▁politico	-9002
▁gamma	-9003
▁beneficial	-9004
▁gol	-9005
aming	-9006
▁inner	-9007
itazioni	-9008
▁avete	-9009
ading	-9010
▁extended	-9011
▁infin	-9012
▁seeing	-9013
▁Ten	-9014
▁italiane	-9015
▁Pen	-9016
▁fixed	-9017
▁appar	-9018
zil	-9019
▁strani	-9020
▁decreto	-9021
ssa	-9022
▁mail	-9023
ergia	-9024
ezioni	-9025
▁ships	-9026
▁fred	-9027
loc	-9028
esis	-9029
▁cres	-9030
▁curren	-9031
▁Northern	-9032
▁standing	-9033
anced	-9034
▁End	-9035
▁surve	-9036
▁Prom	-9037
▁sight	-9038
ega	-9039
▁destra	-9040
▁figura	-9041
.’	-9042
itary	-9043
▁conscious	-9044
▁panor	-9045
DO	-9046
▁wants	-9047
▁occasion	-9048
▁rum	-9049
▁Bank	-9050
▁journey	-9051
▁Committee	-9052
▁consistent	-9053
enni	-9054
▁organizz	-9055
▁locations	-9056
▁dioxide	-9057
yth	-9058
imens	-9059
luding	-9060
▁giocatori	-9061
▁opening	-9062
▁professionals	-9063
▁lots	-9064
▁radical	-9065
▁Hill	-9066
32	-9067
▁tells	-9068
▁negozi	-9069
liare	-9070
obili	-9071
▁vale	-9072
▁utilizzo	-9073
▁engage	-9074
▁younger	-9075
▁greatly	-9076
rore	-9077
▁transition	-9078
▁rinnov	-9079
arle	-9080
ulty	-9081
▁indag	-9082
▁Leon	-9083
▁motivi	-9084
▁Euro	-9085
▁mete	-9086
▁steel	-9087
immagine	-9088
▁consumers	-9089
quito	-9090
▁Network	-9091
alls	-9092
▁2004	-9093
▁Farm	-9094
▁Serie	-9095
▁profilo	-9096
▁permanent	-9097
▁Vers	-9098
bur	-9099
▁Board	-9100
tail	-9101
▁Teatro	-9102
▁Ottobre	-9103
▁nasce	-9104
▁Bill	-9105
▁stelle	-9106
▁disturb	-9107
▁Irish	-9108
▁obiettivi	-9109
▁maintenance	-9110
?"	-9111
▁entry	-9112
stituto	-9113
icl	-9114
▁vote	-9115
▁degra	-9116
▁signals	-9117
avor	-9118
▁Uno	-9119
▁leaf	-9120
▁stomach	-9121
▁verità	-9122
▁QU	-9123
▁simb	-9124
▁Article	-9125
▁mechanism	-9126
▁convert	-9127
▁criminal	-9128
▁comma	-9129
▁digit	-9130
▁evento	-9131
licazione	-9132
▁organized	-9133
▁Carlo	-9134
▁pic	-9135
▁authorities	-9136
ij	-9137
html	-9138
▁derived	-9139
sm	-9140
▁8,	-9141
▁Will	-9142
▁compris	-9143
▁europea	-9144
▁dispositivo	-9145
▁gap	-9146
▁Disease	-9147
▁difficulty	-9148
▁interessante	-9149
▁acquist	-9150
▁utilizzati	-9151
▁daughter	-9152
rams	-9153
▁privile	-9154
▁trovano	-9155
▁responses	-9156
▁description	-9157
hetic	-9158
▁Spain	-9159
last	-9160
▁nessun	-9161
tero	-9162
▁lifestyle	-9163
add	-9164
▁DA	-9165
▁hus	-9166
▁esiste	-9167
▁esperti	-9168
vera	-9169
▁Indust	-9170
▁launch	-9171
▁studying	-9172
▁Vill	-9173
▁represented	-9174
▁acids	-9175
▁coffee	-9176
▁desire	-9177
▁offrire	-9178
mod	-9179
▁fewer	-9180
apor	-9181
odio	-9182
▁blo	-9183
▁dura	-9184
▁scat	-9185
▁stick	-9186
▁institution	-9187
bili	-9188
▁Age	-9189
▁battery	-9190
▁conferma	-9191
▁nan	-9192
▁esperi	-9193
▁pensiero	-9194
▁indicates	-9195
▁professionisti	-9196
▁exclus	-9197
▁unable	-9198
level	-9199
8)	-9200
▁cul	-9201
▁solve	-9202
apy	-9203
▁funds	-9204
▁walking	-9205
▁colleagues	-9206
itura	-9207
irittura	-9208
▁supplies	-9209
▁composition	-9210
▁ringra	-9211
▁consapevole	-9212
auto	-9213
ociazioni	-9214
arsa	-9215
▁shift	-9216
▁pra	-9217
-9	-9218
iggio	-9219
▁precedenti	-9220
▁Mediterrane	-9221
fish	-9222
▁successfully	-9223
▁piu	-9224
▁pec	-9225
▁cosm	-9226
icians	-9227
▁Milan	-9228
▁medio	-9229
▁reader	-9230
▁density	-9231
ancia	-9232
▁Digital	-9233
▁carefully	-9234
▁Sicilia	-9235
▁Ide	-9236
▁SS	-9237
lication	-9238
▁notizia	-9239
▁strengthen	-9240
▁quarti	-9241
▁supports	-9242
▁rischi	-9243
▁popolazione	-9244
▁Anti	-9245
▁Matt	-9246
▁bello	-9247
▁riesce	-9248
▁circuit	-9249
▁iniziato	-9250
DP	-9251
kins	-9252
▁100%	-9253
▁Berg	-9254
▁Francia	-9255
▁75	-9256
▁Four	-9257
▁emotions	-9258
▁Articolo	-9259
▁iniziative	-9260
▁purchase	-9261
utch	-9262
incontro	-9263
ALI	-9264
▁AT	-9265
▁fro	-9266
▁Bern	-9267
estate	-9268
▁limits	-9269
▁street	-9270
▁forg	-9271
cience	-9272
▁Venezia	-9273
▁smo	-9274
▁closer	-9275
▁vivo	-9276
▁electron	-9277
▁opportunità	-9278
▁LE	-9279
rezz	-9280
▁segno	-9281
▁destroyed	-9282
▁Lomb	-9283
▁avanz	-9284
▁linee	-9285
▁Family	-9286
▁Mountain	-9287
▁Administr	-9288
▁effetto	-9289
▁singolo	-9290
▁65	-9291
▁Fu	-9292
igo	-9293
olto	-9294
66	-9295
▁DO	-9296
isters	-9297
▁infine	-9298
▁fiducia	-9299
▁Carolina	-9300
▁ambiente	-9301
▁childhood	-9302
You	-9303
▁Photo	-9304
guardo	-9305
▁Master	-9306
heast	-9307
▁veng	-9308
▁inhab	-9309
▁pin	-9310
▁founded	-9311
▁corsi	-9312
▁Redazione	-9313
pir	-9314
anne	-9315
ppio	-9316
rin	-9317
▁39	-9318
▁ourselves	-9319
▁interaction	-9320
rance	-9321
accordo	-9322
37	-9323
/10	-9324
▁fiber	-9325
▁giardino	-9326
acca	-9327
Inter	-9328
▁outdo	-9329
▁opposite	-9330
vas	-9331
fortunately	-9332
85	-9333
▁forze	-9334
▁fuoco	-9335
▁innovative	-9336
cycl	-9337
▁gone	-9338
▁irrit	-9339
▁defici	-9340
▁handle	-9341
▁Palermo	-9342
▁domani	-9343
▁multip	-9344
aped	-9345
▁Aprile	-9346
▁aspett	-9347
▁piacere	-9348
.1	-9349
▁pus	-9350
▁efficace	-9351
indu	-9352
▁vessels	-9353
▁neck	-9354
▁compi	-9355
▁regul	-9356
▁Pract	-9357
▁ratio	-9358
▁Current	-9359
▁tea	-9360
throp	-9361
▁Guide	-9362
▁Vietnam	-9363
▁funzionalità	-9364
▁ottimo	-9365
▁voluto	-9366
▁replaced	-9367
▁thousand	-9368
veg	-9369
▁masch	-9370
▁specifico	-9371
▁Does	-9372
▁numeri	-9373
▁stands	-9374
▁analog	-9375
▁Line	-9376
▁Senza	-9377
▁riman	-9378
▁faccia	-9379
issi	-9380
▁Author	-9381
▁utilizzando	-9382
▁intervention	-9383
itano	-9384
istrutt	-9385
▁Mu	-9386
etal	-9387
▁valor	-9388
▁difesa	-9389
▁powers	-9390
▁cultures	-9391
▁250	-9392
▁Iraq	-9393
▁sala	-9394
▁tocc	-9395
▁entrare	-9396
▁lettera	-9397
▁lamp	-9398
athers	-9399
▁admin	-9400
▁molecules	-9401
▁Find	-9402
▁ethnic	-9403
▁rivers	-9404
▁algorith	-9405
▁arrived	-9406
agno	-9407
▁biggest	-9408
ymph	-9409
▁teen	-9410
▁dieci	-9411
▁mezzi	-9412
▁ultimately	-9413
born	-9414
scop	-9415
▁adap	-9416
▁knows	-9417
▁veloce	-9418
▁shr	-9419
▁Marc	-9420
▁Ident	-9421
▁advance	-9422
▁ridurre	-9423
letter	-9424
How	-9425
ifici	-9426
▁regulations	-9427
unched	-9428
▁routine	-9429
oting	-9430
▁Scopri	-9431
▁supporting	-9432
aland	-9433
▁inizia	-9434
▁proposte	-9435
▁Cell	-9436
▁boost	-9437
alc	-9438
iranno	-9439
▁join	-9440
▁sconf	-9441
▁mode	-9442
vv	-9443
▁asc	-9444
▁provare	-9445
▁classifica	-9446
▁border	-9447
lli	-9448
ampa	-9449
▁devo	-9450
▁chosen	-9451
ggere	-9452
▁raw	-9453
▁mild	-9454
▁nine	-9455
eb	-9456
▁Radio	-9457
▁ripet	-9458
▁uniform	-9459
▁dedicated	-9460
▁avvic	-9461
▁pav	-9462
▁ecce	-9463
▁cholesterol	-9464
▁rifless	-9465
▁Sciences	-9466
▁diag	-9467
▁Lazio	-9468
▁operatori	-9469
▁09	-9470
ifer	-9471
▁sharp	-9472
▁remark	-9473
▁housing	-9474
ults	-9475
▁Light	-9476
▁Bet	-9477
▁behaviors	-9478
ologici	-9479
▁coinvolg	-9480
▁successivo	-9481
▁door	-9482
▁Young	-9483
oked	-9484
▁Poss	-9485
▁unus	-9486
ishment	-9487
▁9,	-9488
▁Pos	-9489
▁Gesù	-9490
▁minimo	-9491
▁request	-9492
▁communicate	-9493
TR	-9494
▁architecture	-9495
OG	-9496
orrei	-9497
▁introd	-9498
▁willing	-9499
89	-9500
▁chim	-9501
▁Ness	-9502
▁cats	-9503
▁mixed	-9504
▁fighting	-9505
▁racconta	-9506
▁conventional	-9507
▁attesa	-9508
called	-9509
▁arrest	-9510
▁fashion	-9511
bus	-9512
izion	-9513
▁Categ	-9514
▁internazionali	-9515
▁Empire	-9516
▁Squ	-9517
itari	-9518
▁Card	-9519
▁chiesto	-9520
▁tecnici	-9521
▁Native	-9522
▁stroke	-9523
▁Matte	-9524
▁taste	-9525
▁vulnerable	-9526
hand	-9527
▁ded	-9528
▁tipi	-9529
amber	-9530
▁spac	-9531
▁tall	-9532
ko	-9533
icità	-9534
rison	-9535
▁plus	-9536
▁customers	-9537
EE	-9538
▁MS	-9539
rific	-9540
▁lunedì	-9541
coin	-9542
▁cif	-9543
▁rhy	-9544
abul	-9545
▁Ocean	-9546
▁francese	-9547
No	-9548
▁ends	-9549
▁var	-9550
▁Princip	-9551
▁married	-9552
rowing	-9553
▁Terra	-9554
▁compat	-9555
▁sequence	-9556
▁plain	-9557
▁Three	-9558
▁gestire	-9559
▁attached	-9560
▁delivery	-9561
inizi	-9562
▁breathing	-9563
▁compagnia	-9564
▁formato	-9565
stra	-9566
▁turns	-9567
▁drawing	-9568
▁comparison	-9569
▁cutting	-9570
▁purs	-9571
▁perfetto	-9572
▁tecnologie	-9573
▁tv	-9574
▁Occ	-9575
▁dott	-9576
▁poche	-9577
▁requis	-9578
▁hydrogen	-9579
▁Revolution	-9580
pat	-9581
ratto	-9582
attenzione	-9583
produ	-9584
▁category	-9585
empo	-9586
▁2003	-9587
▁cibo	-9588
▁terza	-9589
raining	-9590
▁pronto	-9591
▁capture	-9592
▁chiud	-9593
lection	-9594
▁Fore	-9595
▁cards	-9596
▁abnorm	-9597
▁cab	-9598
▁voltage	-9599
▁esperienze	-9600
▁MA	-9601
▁addirittura	-9602
▁aspetto	-9603
▁involve	-9604
ITA	-9605
▁Copyright	-9606
▁parallel	-9607
▁riguardo	-9608
▁Services	-9609
inations	-9610
▁encounter	-9611
▁blind	-9612
▁prompt	-9613
▁hem	-9614
idera	-9615
egn	-9616
arre	-9617
▁filter	-9618
opedia	-9619
▁enemy	-9620
orale	-9621
▁Furthermore	-9622
▁2:	-9623
pass	-9624
▁sit	-9625
▁usage	-9626
▁university	-9627
▁ID	-9628
▁necessarily	-9629
▁nord	-9630
▁transportation	-9631
▁55	-9632
orato	-9633
▁leggi	-9634
ensions	-9635
▁writer	-9636
▁accad	-9637
▁exists	-9638
▁Similar	-9639
▁feeding	-9640
▁Main	-9641
▁grew	-9642
▁tutela	-9643
▁dobbiamo	-9644
▁inizio	-9645
▁highlight	-9646
▁Additionally	-9647
asy	-9648
bul	-9649
▁debate	-9650
▁Roberto	-9651
▁machines	-9652
▁pomeriggio	-9653
uria	-9654
▁paragra	-9655
▁Unfortunately	-9656
▁sangue	-9657
▁scal	-9658
▁eastern	-9659
isher	-9660
▁Ok	-9661
At	-9662
▁1000	-9663
▁blocks	-9664
ituzione	-9665
▁finalmente	-9666
▁cru	-9667
ectors	-9668
▁centre	-9669
▁particolari	-9670
▁issued	-9671
▁accedere	-9672
igan	-9673
▁soul	-9674
▁uffic	-9675
▁kidney	-9676
▁promin	-9677
ediatric	-9678
▁supposed	-9679
▁Commissione	-9680
onica	-9681
▁Grande	-9682
▁ricevere	-9683
▁Los	-9684
▁inev	-9685
▁Forest	-9686
▁rising	-9687
▁aggiung	-9688
▁players	-9689
▁compounds	-9690
▁Year	-9691
▁pret	-9692
▁entrambi	-9693
▁acknow	-9694
▁evaluation	-9695
onym	-9696
▁hero	-9697
▁remote	-9698
▁enhance	-9699
Ex	-9700
stract	-9701
▁scont	-9702
▁torna	-9703
▁dubbio	-9704
▁illumin	-9705
▁Lin	-9706
ibly	-9707
▁Tour	-9708
▁shot	-9709
ictionary	-9710
CD	-9711
onal	-9712
Phone	-9713
aso	-9714
▁underlying	-9715
inated	-9716
iler	-9717
▁senti	-9718
▁1)	-9719
▁prezi	-9720
▁potuto	-9721
▁territory	-9722
cts	-9723
▁employment	-9724
evi	-9725
abini	-9726
▁sensi	-9727
▁confront	-9728
▁magnetic	-9729
▁resolution	-9730
▁stable	-9731
▁philosophy	-9732
▁Set	-9733
▁Semp	-9734
▁habits	-9735
▁witness	-9736
▁esclusivamente	-9737
▁vive	-9738
▁mechanisms	-9739
▁dà	-9740
▁denaro	-9741
▁impianti	-9742
▁reactions	-9743
▁COM	-9744
▁eccell	-9745
▁joined	-9746
▁reinfor	-9747
▁Cookie	-9748
▁nemmeno	-9749
heimer	-9750
▁earthqu	-9751
▁thy	-9752
▁temi	-9753
▁rapporti	-9754
▁whatever	-9755
▁benessere	-9756
▁Um	-9757
▁Moreover	-9758
31	-9759
▁resulted	-9760
▁moth	-9761
▁Language	-9762
▁transc	-9763
uals	-9764
▁dipendenti	-9765
▁participate	-9766
▁(199	-9767
▁Wall	-9768
▁Differ	-9769
▁dichiarato	-9770
▁contained	-9771
hal	-9772
cover	-9773
▁lies	-9774
▁noise	-9775
▁League	-9776
▁consumer	-9777
▁nearby	-9778
▁08	-9779
andi	-9780
▁breath	-9781
▁complesso	-9782
▁moda	-9783
▁horiz	-9784
▁aiutare	-9785
asa	-9786
▁brother	-9787
UM	-9788
list	-9789
mary	-9790
▁defe	-9791
▁carattere	-9792
▁instruments	-9793
ENTI	-9794
▁morb	-9795
▁utilizza	-9796
▁Cho	-9797
▁Solo	-9798
stone	-9799
▁bonus	-9800
▁kg	-9801
▁Mos	-9802
▁Giugno	-9803
▁commerciale	-9804
▁cardi	-9805
▁0,	-9806
▁DE	-9807
▁variable	-9808
▁verb	-9809
▁Key	-9810
▁psychological	-9811
▁Sav	-9812
▁vag	-9813
47	-9814
dine	-9815
▁Lim	-9816
▁Holy	-9817
▁fondi	-9818
▁fabric	-9819
▁whereas	-9820
▁ipot	-9821
▁conseguenza	-9822
▁dover	-9823
▁Dar	-9824
tagna	-9825
▁connections	-9826
▁lasciare	-9827
▁Marzo	-9828
play	-9829
ccess	-9830
▁percentage	-9831
Cl	-9832
▁Germania	-9833
5)	-9834
▁neur	-9835
▁partenza	-9836
▁Settembre	-9837
loyment	-9838
▁diagnost	-9839
Associazione	-9840
For	-9841
▁Type	-9842
▁mila	-9843
idity	-9844
▁mice	-9845
▁Cina	-9846
▁nerve	-9847
▁oggetti	-9848
▁behaviour	-9849
▁documento	-9850
IE	-9851
gov	-9852
▁butter	-9853
▁00	-9854
▁guarante	-9855
▁hung	-9856
▁messa	-9857
▁ricevuto	-9858
▁nom	-9859
▁trained	-9860
▁ahead	-9861
associazione	-9862
▁NE	-9863
asma	-9864
▁Low	-9865
elfare	-9866
▁Change	-9867
▁Stefano	-9868
▁Os	-9869
▁1960	-9870
osce	-9871
liono	-9872
▁funziona	-9873
isions	-9874
▁ax	-9875
yer	-9876
▁spar	-9877
▁wasn	-9878
▁smoke	-9879
▁Fondazione	-9880
▁bin	-9881
▁provoc	-9882
urage	-9883
▁spesa	-9884
▁equivalent	-9885
▁lascia	-9886
▁stiamo	-9887
▁verranno	-9888
▁trasporto	-9889
▁(2)	-9890
▁frame	-9891
▁iniziare	-9892
ribe	-9893
ucch	-9894
atoria	-9895
▁Brazil	-9896
▁Palazzo	-9897
writ	-9898
▁Gab	-9899
▁Aggi	-9900
▁mens	-9901
▁delay	-9902
▁scrivere	-9903
▁potete	-9904
▁organisms	-9905
ypti	-9906
fl	-9907
ighter	-9908
abled	-9909
erman	-9910
▁sfida	-9911
▁sistem	-9912
")	-9913
▁Vo	-9914
▁Kingdom	-9915
▁election	-9916
ask	-9917
▁chiedere	-9918
▁demonstrate	-9919
▁partecipare	-9920
▁giusta	-9921
▁Christmas	-9922
▁layers	-9923
▁naturali	-9924
▁observations	-9925
▁atti	-9926
itudes	-9927
▁inhib	-9928
uration	-9929
pto	-9930
▁bridge	-9931
▁matters	-9932
▁Iran	-9933
▁laser	-9934
▁Chapter	-9935
▁demonstrated	-9936
▁Tar	-9937
▁trials	-9938
▁lontano	-9939
▁recognition	-9940
chang	-9941
▁explanation	-9942
rd	-9943
▁scenario	-9944
▁vantaggi	-9945
▁legs	-9946
▁dispositivi	-9947
▁instructions	-9948
▁collo	-9949
▁passage	-9950
comm	-9951
ropolit	-9952
Se	-9953
iri	-9954
▁twenty	-9955
here	-9956
▁aumento	-9957
▁corren	-9958
▁miglia	-9959
▁politics	-9960
▁(6	-9961
▁Vinc	-9962
▁replace	-9963
▁improvement	-9964
▁TO	-9965
▁sup	-9966
pread	-9967
▁Community	-9968
adio	-9969
▁rimane	-9970
▁12,	-9971
▁spok	-9972
▁holid	-9973
▁competenze	-9974
▁Ent	-9975
▁simile	-9976
▁participation	-9977
▁prend	-9978
rut	-9979
▁ug	-9980
▁riconosci	-9981
▁virtual	-9982
▁artificial	-9983
▁mood	-9984
▁confidence	-9985
▁forth	-9986
rene	-9987
▁Dan	-9988
▁county	-9989
▁Columbia	-9990
▁greenhouse	-9991
▁Tosc	-9992
▁Never	-9993
▁spons	-9994
▁rev	-9995
▁negozio	-9996
▁CR	-9997
yles	-9998
attie	-9999
▁filoso	-10000
▁beliefs	-10001
▁competition	-10002
▁manifestazione	-10003
sec	-10004
▁Blog	-10005
▁Alf	-10006
unzione	-10007
▁smoking	-10008
▁2)	-10009
▁MD	-10010
▁nato	-10011
▁orbit	-10012
▁estrem	-10013
▁propag	-10014
":	-10015
olini	-10016
▁fever	-10017
▁obesity	-10018
▁diagnosed	-10019
ares	-10020
▁riform	-10021
esh	-10022
▁Prim	-10023
▁biom	-10024
▁vole	-10025
GB	-10026
unale	-10027
▁everyday	-10028
▁Jeff	-10029
▁terap	-10030
▁Director	-10031
▁presentation	-10032
▁holds	-10033
▁holding	-10034
▁sentire	-10035
▁anch	-10036
▁EN	-10037
▁festival	-10038
upp	-10039
▁View	-10040
▁province	-10041
▁generations	-10042
▁rose	-10043
▁artisti	-10044
▁partito	-10045
evol	-10046
autore	-10047
osion	-10048
▁Centre	-10049
▁AND	-10050
▁chrom	-10051
▁examine	-10052
▁relation	-10053
▁Spe	-10054
▁Corn	-10055
▁impegno	-10056
▁tissues	-10057
▁beauty	-10058
▁coastal	-10059
▁documenti	-10060
▁earn	-10061
▁passi	-10062
▁cambio	-10063
▁programmi	-10064
▁600	-10065
orses	-10066
▁Paesi	-10067
▁pericol	-10068
itudine	-10069
idespread	-10070
occhi	-10071
▁Scot	-10072
▁conclude	-10073
▁Barb	-10074
▁tank	-10075
▁conce	-10076
▁painting	-10077
▁award	-10078
▁aperta	-10079
▁insulin	-10080
iniziativa	-10081
▁hur	-10082
▁Fri	-10083
▁Agency	-10084
▁Durante	-10085
▁calories	-10086
ERE	-10087
▁advert	-10088
▁settings	-10089
▁spending	-10090
▁Dip	-10091
▁crime	-10092
▁prossima	-10093
▁pla	-10094
▁consegna	-10095
VE	-10096
incol	-10097
▁Marg	-10098
ften	-10099
unico	-10100
▁accessible	-10101
CR	-10102
▁obiettivo	-10103
liot	-10104
▁hypothes	-10105
▁doi	-10106
▁define	-10107
▁vogliono	-10108
▁ster	-10109
▁operate	-10110
asty	-10111
▁Pur	-10112
▁Atlantic	-10113
▁integrated	-10114
▁interactions	-10115
nee	-10116
▁maps	-10117
▁geomet	-10118
umes	-10119
scale	-10120
aked	-10121
▁2001	-10122
▁Cross	-10123
▁ongoing	-10124
▁Less	-10125
▁Ment	-10126
▁dialog	-10127
ulties	-10128
▁Mario	-10129
▁creato	-10130
▁negoti	-10131
▁objective	-10132
▁situazioni	-10133
peror	-10134
▁bread	-10135
▁fai	-10136
▁carbo	-10137
▁Ref	-10138
ritis	-10139
▁Max	-10140
▁scelte	-10141
▁Fr	-10142
▁pall	-10143
▁sore	-10144
gement	-10145
tagram	-10146
▁pregnant	-10147
-12	-10148
▁attualmente	-10149
uct	-10150
▁player	-10151
▁Coast	-10152
▁convin	-10153
▁Anna	-10154
▁privato	-10155
▁sections	-10156
▁committed	-10157
▁covers	-10158
▁creazione	-10159
▁programming	-10160
III	-10161
ologo	-10162
▁recept	-10163
while	-10164
▁Scuola	-10165
▁Oxford	-10166
▁danger	-10167
▁storie	-10168
▁positions	-10169
oga	-10170
▁cub	-10171
▁Lead	-10172
▁visitors	-10173
],	-10174
▁runs	-10175
▁spaces	-10176
▁hardware	-10177
applicazione	-10178
▁Bor	-10179
ettivo	-10180
▁screening	-10181
▁cann	-10182
▁route	-10183
▁agreed	-10184
▁Researchers	-10185
▁aiuto	-10186
▁Ari	-10187
▁Ret	-10188
weight	-10189
▁Infatti	-10190
▁estimate	-10191
uv	-10192
aglia	-10193
▁viss	-10194
▁usato	-10195
▁relativi	-10196
▁challenging	-10197
olino	-10198
▁%	-10199
▁giusti	-10200
▁Cit	-10201
▁nomin	-10202
▁department	-10203
▁maintaining	-10204
osco	-10205
▁11,	-10206
▁Alessandro	-10207
▁beni	-10208
▁Secret	-10209
reti	-10210
▁Table	-10211
▁ampio	-10212
▁corte	-10213
▁involving	-10214
isdom	-10215
earing	-10216
such	-10217
▁processi	-10218
BI	-10219
▁Page	-10220
▁volc	-10221
▁estimates	-10222
▁panel	-10223
▁navigazione	-10224
▁187	-10225
▁Plant	-10226
▁piena	-10227
▁satellite	-10228
▁crow	-10229
▁association	-10230
▁strade	-10231
▁reven	-10232
▁repair	-10233
▁burning	-10234
▁destruction	-10235
icing	-10236
▁scad	-10237
▁asthma	-10238
▁exercises	-10239
tiamo	-10240
▁stesse	-10241
▁Luglio	-10242
▁Method	-10243
▁Bol	-10244
▁Sky	-10245
icata	-10246
icoli	-10247
▁blow	-10248
▁legislation	-10249
lan	-10250
▁indirizzo	-10251
▁15,	-10252
▁loved	-10253
▁cancell	-10254
▁employed	-10255
▁possibili	-10256
▁Eastern	-10257
ativamente	-10258
▁dollars	-10259
Go	-10260
▁limiti	-10261
▁ingresso	-10262
▁launched	-10263
▁vantaggio	-10264
▁DC	-10265
▁infant	-10266
▁operazioni	-10267
bel	-10268
▁blu	-10269
▁Source	-10270
▁promozione	-10271
agni	-10272
itar	-10273
▁dorm	-10274
▁incomp	-10275
▁grid	-10276
▁tons	-10277
hr	-10278
▁scan	-10279
▁fract	-10280
offerta	-10281
▁industries	-10282
lific	-10283
▁supervis	-10284
▁substances	-10285
rof	-10286
▁mq	-10287
▁Alz	-10288
▁incar	-10289
▁motore	-10290
▁conclusion	-10291
▁realize	-10292
▁succeed	-10293
▁CA	-10294
▁Fund	-10295
▁chick	-10296
▁simili	-10297
ettamente	-10298
▁selezione	-10299
▁constructed	-10300
oted	-10301
▁ended	-10302
▁Piazza	-10303
▁brings	-10304
▁videos	-10305
▁PDF	-10306
▁Rim	-10307
atile	-10308
▁quell	-10309
▁papers	-10310
▁rifiuti	-10311
▁debt	-10312
▁meters	-10313
▁capitale	-10314
▁2002	-10315
▁avevo	-10316
▁Mean	-10317
▁alleg	-10318
▁functional	-10319
razioni	-10320
▁minute	-10321
▁organs	-10322
▁Moon	-10323
itivity	-10324
isse	-10325
▁wel	-10326
▁esso	-10327
▁relief	-10328
▁contrario	-10329
endosi	-10330
taglio	-10331
When	-10332
zzur	-10333
▁Blue	-10334
▁insect	-10335
.).	-10336
▁aw	-10337
▁umano	-10338
iven	-10339
print	-10340
▁parlato	-10341
▁("	-10342
neum	-10343
emon	-10344
▁fisica	-10345
▁minerals	-10346
And	-10347
dule	-10348
▁subm	-10349
▁circle	-10350
▁editor	-10351
ipp	-10352
▁mining	-10353
▁smooth	-10354
.:	-10355
▁glucose	-10356
▁profond	-10357
▁molecular	-10358
▁continuare	-10359
▁depart	-10360
▁listen	-10361
▁entered	-10362
idal	-10363
▁50%	-10364
▁Ciò	-10365
▁opzioni	-10366
Co	-10367
aglio	-10368
▁libera	-10369
▁discrimination	-10370
igned	-10371
analisi	-10372
▁semplici	-10373
oples	-10374
▁cash	-10375
▁lanci	-10376
▁Gennaio	-10377
▁Ep	-10378
▁reliable	-10379
FF	-10380
irds	-10381
▁expansion	-10382
▁commerciali	-10383
▁spo	-10384
itaria	-10385
▁cento	-10386
▁Camera	-10387
▁Febbraio	-10388
▁damaged	-10389
▁Smart	-10390
▁drawn	-10391
olazioni	-10392
▁Introdu	-10393
erlo	-10394
licit	-10395
▁1999	-10396
▁Resources	-10397
inanza	-10398
▁carriera	-10399
▁password	-10400
uracy	-10401
▁texts	-10402
▁physics	-10403
▁guidance	-10404
▁pref	-10405
▁outbre	-10406
▁thanks	-10407
ffico	-10408
▁independence	-10409
troppo	-10410
▁Indians	-10411
▁neither	-10412
ustria	-10413
abinieri	-10414
▁putting	-10415
▁componenti	-10416
rina	-10417
▁Sund	-10418
▁markets	-10419
▁aumentare	-10420
LC	-10421
aga	-10422
mes	-10423
▁violenza	-10424
zer	-10425
type	-10426
posizione	-10427
▁receiving	-10428
▁PS	-10429
▁vor	-10430
▁somewhat	-10431
uing	-10432
▁800	-10433
▁vest	-10434
rition	-10435
▁riduzione	-10436
▁constantly	-10437
▁appuntamento	-10438
umps	-10439
amine	-10440
▁azione	-10441
rec	-10442
uffici	-10443
▁dieta	-10444
▁chiusura	-10445
/11	-10446
▁islands	-10447
lav	-10448
▁spost	-10449
uris	-10450
▁controls	-10451
▁assistenza	-10452
▁widespread	-10453
▁possano	-10454
▁Log	-10455
▁Stra	-10456
43	-10457
▁rabb	-10458
▁wait	-10459
▁neutral	-10460
▁Film	-10461
▁shif	-10462
▁interessi	-10463
▁distributed	-10464
▁moisture	-10465
▁categories	-10466
ospher	-10467
▁abbandon	-10468
▁Cr	-10469
▁paes	-10470
cement	-10471
▁sheet	-10472
▁column	-10473
economia	-10474
▁Foto	-10475
making	-10476
▁Link	-10477
▁posta	-10478
▁ricost	-10479
▁victims	-10480
▁acquisto	-10481
▁flash	-10482
▁rocks	-10483
▁strongly	-10484
urolog	-10485
▁windows	-10486
osf	-10487
roph	-10488
▁autore	-10489
▁kilomet	-10490
▁Zealand	-10491
▁teatro	-10492
▁costante	-10493
▁territori	-10494
▁publication	-10495
▁honor	-10496
▁nervous	-10497
▁Gh	-10498
http	-10499
▁piet	-10500
▁Heart	-10501
▁pagare	-10502
ige	-10503
▁Ly	-10504
▁Invest	-10505
▁thorough	-10506
isola	-10507
▁essa	-10508
▁Ger	-10509
▁rely	-10510
▁chest	-10511
taining	-10512
ENTO	-10513
▁Area	-10514
▁declared	-10515
▁Donna	-10516
▁mineral	-10517
▁prosegu	-10518
▁trouble	-10519
▁Works	-10520
▁tight	-10521
▁worry	-10522
▁designs	-10523
▁verific	-10524
▁voglio	-10525
▁missing	-10526
.30	-10527
▁Fut	-10528
▁bord	-10529
▁furn	-10530
▁commission	-10531
ivio	-10532
▁europeo	-10533
▁fir	-10534
▁sullo	-10535
▁historic	-10536
▁messages	-10537
▁procedura	-10538
▁jus	-10539
▁vert	-10540
▁testi	-10541
▁approved	-10542
▁costruire	-10543
▁deter	-10544
▁premio	-10545
▁Governo	-10546
late	-10547
reme	-10548
▁osc	-10549
▁indo	-10550
▁femminile	-10551
kh	-10552
▁Dia	-10553
oston	-10554
arietà	-10555
health	-10556
tegrazione	-10557
derstand	-10558
▁provider	-10559
▁ON	-10560
▁turning	-10561
▁pill	-10562
▁Jac	-10563
enger	-10564
▁astronom	-10565
rivo	-10566
▁Loren	-10567
▁Ministero	-10568
▁TR	-10569
▁Calab	-10570
▁banks	-10571
▁certa	-10572
▁unica	-10573
ettendo	-10574
▁prohib	-10575
▁bilancio	-10576
▁norme	-10577
▁volontà	-10578
uga	-10579
▁Mur	-10580
▁Road	-10581
▁ria	-10582
▁boys	-10583
▁centers	-10584
▁ristrutt	-10585
▁ogn	-10586
▁Valent	-10587
orz	-10588
▁hen	-10589
▁reso	-10590
▁Johnson	-10591
▁soggetto	-10592
▁Several	-10593
▁females	-10594
▁marchio	-10595
▁ambientale	-10596
irt	-10597
sen	-10598
that	-10599
udo	-10600
▁hole	-10601
▁intense	-10602
▁consolid	-10603
▁indicated	-10604
emerg	-10605
▁Reading	-10606
▁polizia	-10607
osità	-10608
▁Pier	-10609
▁normale	-10610
▁favorite	-10611
▁asking	-10612
▁babies	-10613
▁pensato	-10614
iger	-10615
▁42	-10616
power	-10617
▁recupero	-10618
▁Ps	-10619
▁lad	-10620
▁driver	-10621
▁Present	-10622
ologiche	-10623
▁matrimonio	-10624
aska	-10625
▁Saint	-10626
▁Villa	-10627
▁District	-10628
▁conversation	-10629
alaxy	-10630
▁Bit	-10631
▁none	-10632
▁spos	-10633
▁merely	-10634
▁pounds	-10635
▁Hand	-10636
▁cass	-10637
▁provin	-10638
▁installed	-10639
eller	-10640
▁superficie	-10641
▁essendo	-10642
▁germ	-10643
▁Exper	-10644
▁oblig	-10645
▁ragazza	-10646
▁evaluate	-10647
▁temple	-10648
American	-10649
▁statistics	-10650
attiv	-10651
etts	-10652
▁ragazze	-10653
▁lumin	-10654
▁fulf	-10655
▁FA	-10656
▁Dam	-10657
▁modi	-10658
▁comod	-10659
▁grant	-10660
otherapy	-10661
▁arte	-10662
▁Asian	-10663
▁schermo	-10664
▁Lee	-10665
▁disaster	-10666
▁carne	-10667
▁engaged	-10668
▁pressione	-10669
▁contag	-10670
▁Continua	-10671
▁protagonisti	-10672
eserc	-10673
▁dating	-10674
▁meal	-10675
▁withd	-10676
.0	-10677
▁curios	-10678
▁musicale	-10679
ucci	-10680
osamente	-10681
▁dollari	-10682
acts	-10683
abulary	-10684
▁senior	-10685
bes	-10686
▁Pietro	-10687
▁nitrogen	-10688
▁nest	-10689
▁nazionali	-10690
▁archae	-10691
▁impieg	-10692
▁facility	-10693
▁roles	-10694
▁evident	-10695
▁composed	-10696
▁contemporary	-10697
▁outcome	-10698
▁dettaglio	-10699
▁tren	-10700
▁ministro	-10701
▁prossimi	-10702
otten	-10703
▁fourth	-10704
▁viruses	-10705
IDS	-10706
bert	-10707
even	-10708
▁theme	-10709
▁alcuna	-10710
but	-10711
▁Più	-10712
▁agents	-10713
▁Ken	-10714
▁Wal	-10715
▁lunghe	-10716
▁announced	-10717
▁session	-10718
hentic	-10719
▁moves	-10720
▁offering	-10721
▁significance	-10722
▁Force	-10723
inizione	-10724
vista	-10725
▁imprend	-10726
PU	-10727
▁2012,	-10728
▁bringing	-10729
▁males	-10730
▁beings	-10731
▁ingredients	-10732
▁claimed	-10733
▁recommendations	-10734
AND	-10735
Ind	-10736
▁serving	-10737
▁funzionamento	-10738
iration	-10739
▁uscita	-10740
▁carrying	-10741
▁relazioni	-10742
gl	-10743
cers	-10744
▁husband	-10745
arsh	-10746
ivia	-10747
▁Rai	-10748
▁officers	-10749
xture	-10750
law	-10751
rimoni	-10752
▁custo	-10753
▁defense	-10754
ZZ	-10755
▁Città	-10756
▁mouse	-10757
▁Abb	-10758
▁pia	-10759
▁Week	-10760
▁municip	-10761
▁maintained	-10762
▁interpretation	-10763
▁caff	-10764
▁adequate	-10765
▁phenomenon	-10766
fico	-10767
▁Try	-10768
▁Alzheimer	-10769
▁associazioni	-10770
▁moglie	-10771
▁sought	-10772
▁lotta	-10773
▁attuale	-10774
▁Puoi	-10775
▁heating	-10776
Cont	-10777
abeth	-10778
istere	-10779
▁emozioni	-10780
▁bath	-10781
▁strict	-10782
▁reduces	-10783
▁targets	-10784
▁Communic	-10785
Unione	-10786
▁Matteo	-10787
▁terreno	-10788
▁puls	-10789
▁elettronica	-10790
▁Organization	-10791
▁192	-10792
mond	-10793
▁interf	-10794
lie	-10795
▁Om	-10796
egna	-10797
▁perso	-10798
▁television	-10799
uits	-10800
▁ricordo	-10801
▁visitare	-10802
▁Wikipedia	-10803
▁proportion	-10804
▁measurements	-10805
evano	-10806
▁Sind	-10807
▁pair	-10808
genzia	-10809
retario	-10810
▁mathematics	-10811
viously	-10812
▁proven	-10813
idential	-10814
rie	-10815
intera	-10816
▁towns	-10817
▁facing	-10818
41	-10819
▁Ka	-10820
▁apre	-10821
▁scomm	-10822
tamente	-10823
▁Egypti	-10824
▁theories	-10825
▁purtroppo	-10826
▁extin	-10827
▁edition	-10828
▁Dol	-10829
▁cessione	-10830
▁medici	-10831
▁division	-10832
▁permesso	-10833
▁push	-10834
▁punta	-10835
pero	-10836
▁Mas	-10837
▁Tecn	-10838
▁seemed	-10839
▁richiede	-10840
▁Wil	-10841
▁pharm	-10842
▁facci	-10843
▁introduce	-10844
▁renewable	-10845
▁Franco	-10846
▁Queste	-10847
▁Champ	-10848
▁scaricare	-10849
tiere	-10850
▁amico	-10851
▁seeking	-10852
▁vogliamo	-10853
▁Cub	-10854
▁preparation	-10855
void	-10856
▁LED	-10857
▁collaboration	-10858
▁proof	-10859
▁adulti	-10860
▁immediatamente	-10861
▁1950	-10862
▁fate	-10863
▁rarely	-10864
▁disponibilità	-10865
▁complement	-10866
imb	-10867
▁Iss	-10868
▁dar	-10869
▁clar	-10870
▁ciclo	-10871
▁passa	-10872
▁capace	-10873
▁artists	-10874
▁romanzo	-10875
▁pell	-10876
▁sinc	-10877
thritis	-10878
▁chiesa	-10879
▁18,	-10880
▁superior	-10881
lici	-10882
▁dolce	-10883
▁precise	-10884
▁clothing	-10885
▁concorren	-10886
▁partecipanti	-10887
▁fix	-10888
▁Util	-10889
▁scrive	-10890
▁lasciato	-10891
▁confirmed	-10892
6).	-10893
▁blocc	-10894
▁Wi	-10895
▁aims	-10896
ollo	-10897
▁Frid	-10898
▁lake	-10899
▁copyright	-10900
inity	-10901
ecuzione	-10902
▁dependent	-10903
usalem	-10904
▁plane	-10905
orph	-10906
itarian	-10907
▁planned	-10908
▁telefon	-10909
ocks	-10910
▁Ing	-10911
▁ultimo	-10912
▁examination	-10913
▁slot	-10914
▁numerose	-10915
▁partnership	-10916
ommod	-10917
▁zucch	-10918
▁modifica	-10919
SO	-10920
▁Prem	-10921
▁Sara	-10922
▁aere	-10923
▁Edward	-10924
▁escape	-10925
intervento	-10926
ipped	-10927
night	-10928
HD	-10929
▁sogno	-10930
▁implications	-10931
▁FOR	-10932
▁grad	-10933
▁prende	-10934
etime	-10935
▁chiede	-10936
▁Protection	-10937
▁complicated	-10938
erno	-10939
▁Which	-10940
▁corsa	-10941
▁membri	-10942
▁pestic	-10943
▁giovedì	-10944
range	-10945
▁Help	-10946
▁Offic	-10947
▁campi	-10948
▁shock	-10949
▁legale	-10950
hew	-10951
▁Gruppo	-10952
▁intent	-10953
▁cambiamento	-10954
nia	-10955
▁biology	-10956
▁writers	-10957
▁RE	-10958
comf	-10959
▁Kenn	-10960
▁careful	-10961
▁consumo	-10962
▁potenza	-10963
vania	-10964
▁precip	-10965
▁weapons	-10966
▁rispondere	-10967
riche	-10968
▁tube	-10969
real	-10970
▁score	-10971
▁plenty	-10972
ambio	-10973
▁meravigli	-10974
▁Head	-10975
▁Obama	-10976
lete	-10977
▁roughly	-10978
▁lock	-10979
occhio	-10980
▁distur	-10981
▁diversa	-10982
▁accuracy	-10983
▁robot	-10984
▁surfaces	-10985
▁trem	-10986
▁album	-10987
▁seconds	-10988
▁pm	-10989
▁Sard	-10990
▁Did	-10991
▁Rip	-10992
▁Ov	-10993
▁Assess	-10994
▁Palest	-10995
▁Without	-10996
irurg	-10997
▁Francisco	-10998
▁principio	-10999
▁effectiveness	-11000
▁GI	-11001
etary	-11002
taglia	-11003
▁devast	-11004
elihood	-11005
▁poteva	-11006
▁implemented	-11007
▁Ai	-11008
▁||	-11009
artamento	-11010
▁manut	-11011
▁appunto	-11012
▁delivered	-11013
plant	-11014
▁item	-11015
▁Trump	-11016
▁defend	-11017
▁quadro	-11018
▁offerta	-11019
▁traffico	-11020
▁encouraged	-11021
lina	-11022
class	-11023
▁preg	-11024
▁profit	-11025
▁maggioranza	-11026
9)	-11027
lik	-11028
ospheric	-11029
▁desired	-11030
▁volontari	-11031
xide	-11032
ontare	-11033
▁Pug	-11034
▁Sac	-11035
icted	-11036
▁siete	-11037
▁chiamato	-11038
▁Perhaps	-11039
▁passing	-11040
▁vacanza	-11041
trans	-11042
▁bron	-11043
▁jump	-11044
▁ragazzo	-11045
▁generazione	-11046
▁tradizionale	-11047
▁teams	-11048
▁Core	-11049
ruption	-11050
ji	-11051
▁MP	-11052
umber	-11053
▁evil	-11054
▁assegn	-11055
▁perfetta	-11056
Fi	-11057
ifies	-11058
uncio	-11059
▁coper	-11060
▁arrivato	-11061
▁46	-11062
inge	-11063
▁positivo	-11064
lay	-11065
▁3:	-11066
▁PA	-11067
unce	-11068
▁eliminate	-11069
▁cryst	-11070
▁Strateg	-11071
▁nascita	-11072
▁Minister	-11073
ivano	-11074
▁telec	-11075
▁signed	-11076
▁captured	-11077
weet	-11078
▁dism	-11079
▁pasta	-11080
▁traditions	-11081
organizzazione	-11082
alty	-11083
▁Soft	-11084
▁Teach	-11085
▁pertanto	-11086
cho	-11087
▁appos	-11088
▁dici	-11089
▁Liter	-11090
▁knowing	-11091
▁specifiche	-11092
▁Partic	-11093
▁aprire	-11094
▁aggiungere	-11095
▁boy	-11096
▁owner	-11097
▁vostri	-11098
▁05	-11099
▁Mach	-11100
▁Giorn	-11101
▁opposed	-11102
▁stronger	-11103
orare	-11104
▁14,	-11105
ttore	-11106
▁Stan	-11107
▁Museo	-11108
▁criteria	-11109
incoln	-11110
▁inaug	-11111
▁Modern	-11112
▁nessuna	-11113
▁risposte	-11114
▁considering	-11115
▁Administration	-11116
▁aiuta	-11117
▁forti	-11118
▁measurement	-11119
sis	-11120
▁nose	-11121
▁origine	-11122
IB	-11123
▁dys	-11124
▁reper	-11125
▁sette	-11126
▁Toscana	-11127
▁organizzato	-11128
ador	-11129
epoca	-11130
press	-11131
▁sacrif	-11132
▁removal	-11133
▁ricorda	-11134
ruit	-11135
▁lip	-11136
▁inferiore	-11137
rooms	-11138
▁theore	-11139
▁imagine	-11140
yo	-11141
▁Sab	-11142
▁arts	-11143
▁elected	-11144
▁Dub	-11145
rates	-11146
▁artist	-11147
▁istituzioni	-11148
bro	-11149
▁informed	-11150
▁reput	-11151
▁deeper	-11152
▁fairly	-11153
▁shapes	-11154
▁equally	-11155
▁patrimonio	-11156
▁neighborhood	-11157
▁hang	-11158
▁paziente	-11159
▁structural	-11160
▁Ori	-11161
▁banc	-11162
▁regalo	-11163
▁threats	-11164
▁considerazione	-11165
GE	-11166
nat	-11167
adow	-11168
izzando	-11169
▁dealing	-11170
▁gradually	-11171
▁subsequent	-11172
aya	-11173
▁Cron	-11174
▁fede	-11175
▁maybe	-11176
inating	-11177
▁sindac	-11178
▁nu	-11179
Hotel	-11180
▁artig	-11181
▁iPhone	-11182
▁Christians	-11183
▁essi	-11184
▁poem	-11185
▁uncer	-11186
▁trauma	-11187
▁Whether	-11188
▁espress	-11189
ATA	-11190
▁16,	-11191
esides	-11192
▁presa	-11193
▁20,	-11194
▁drain	-11195
▁cooking	-11196
▁attempts	-11197
▁preventing	-11198
▁condividere	-11199
▁Lavoro	-11200
▁speranza	-11201
retti	-11202
▁Math	-11203
▁penet	-11204
▁horses	-11205
▁ordered	-11206
▁concorso	-11207
lec	-11208
▁Diab	-11209
▁remind	-11210
▁finished	-11211
▁mount	-11212
▁ambito	-11213
▁tavolo	-11214
▁breeding	-11215
▁architect	-11216
▁respectively	-11217
AA	-11218
chain	-11219
▁sales	-11220
▁murder	-11221
▁tratti	-11222
▁Instagram	-11223
▁physician	-11224
▁essentially	-11225
▁variables	-11226
▁ader	-11227
▁paio	-11228
▁genera	-11229
▁cardiov	-11230
▁assigned	-11231
▁comprens	-11232
▁concerning	-11233
▁mechanical	-11234
▁anzi	-11235
▁44	-11236
▁abandon	-11237
▁Prevention	-11238
▁insert	-11239
▁refuge	-11240
syl	-11241
▁dates	-11242
▁Boston	-11243
▁unusual	-11244
▁applicazioni	-11245
inqu	-11246
▁13,	-11247
▁globale	-11248
▁principal	-11249
▁17,	-11250
▁ras	-11251
▁é	-11252
orms	-11253
inali	-11254
▁culturali	-11255
ails	-11256
including	-11257
igue	-11258
▁scoperta	-11259
▁Cambridge	-11260
/12	-11261
▁pond	-11262
▁Noi	-11263
vard	-11264
▁Queen	-11265
▁HD	-11266
ranti	-11267
▁Korea	-11268
▁observe	-11269
outs	-11270
▁interven	-11271
▁Scientists	-11272
▁Fun	-11273
▁Rub	-11274
▁gradi	-11275
▁unità	-11276
▁excessive	-11277
▁marks	-11278
▁preparazione	-11279
iod	-11280
ventions	-11281
▁mancanza	-11282
▁Dog	-11283
▁Posted	-11284
▁phosph	-11285
▁fenomeno	-11286
▁considerable	-11287
▁intellectual	-11288
▁Era	-11289
▁Studio	-11290
▁influenced	-11291
vin	-11292
ventus	-11293
Sh	-11294
▁Crit	-11295
▁Parl	-11296
▁centri	-11297
▁proved	-11298
iability	-11299
▁umani	-11300
▁malattie	-11301
▁container	-11302
Bo	-11303
pdf	-11304
▁2012.	-11305
▁Emer	-11306
▁streaming	-11307
▁Understand	-11308
▁didatt	-11309
▁modified	-11310
▁combat	-11311
cm	-11312
▁Case	-11313
▁202	-11314
▁Blu	-11315
ioxid	-11316
........	-11317
▁Giorgio	-11318
▁mercoledì	-11319
arenza	-11320
▁Integ	-11321
▁Treatment	-11322
▁contest	-11323
▁statements	-11324
lined	-11325
▁forget	-11326
▁contiene	-11327
control	-11328
▁presentare	-11329
HA	-11330
theless	-11331
▁aggreg	-11332
▁occupa	-11333
▁tick	-11334
▁confl	-11335
conn	-11336
▁Way	-11337
▁bees	-11338
impegno	-11339
▁Provincia	-11340
▁regulation	-11341
▁advantages	-11342
▁considerato	-11343
segue	-11344
▁Safety	-11345
▁sitting	-11346
fri	-11347
▁guardare	-11348
▁appassion	-11349
▁Carl	-11350
▁finger	-11351
▁farming	-11352
▁speciali	-11353
fast	-11354
▁porte	-11355
▁drag	-11356
▁scul	-11357
▁Books	-11358
▁innovation	-11359
thm	-11360
▁costa	-11361
▁titoli	-11362
▁slavery	-11363
▁empt	-11364
▁oste	-11365
ispens	-11366
▁cristi	-11367
▁religi	-11368
Aut	-11369
bbene	-11370
▁disch	-11371
▁paras	-11372
istical	-11373
▁artif	-11374
▁Visual	-11375
resp	-11376
estero	-11377
▁falls	-11378
▁errors	-11379
▁stores	-11380
▁conference	-11381
-18	-11382
▁caldo	-11383
▁flower	-11384
▁Georgia	-11385
▁investimenti	-11386
▁cane	-11387
ificio	-11388
attuale	-11389
▁Muslim	-11390
▁raccom	-11391
▁sintomi	-11392
enzia	-11393
▁farsi	-11394
▁Little	-11395
▁demands	-11396
▁bigger	-11397
urata	-11398
▁rank	-11399
▁warning	-11400
▁Call	-11401
▁registrazione	-11402
▁Later	-11403
amination	-11404
apse	-11405
▁mille	-11406
▁Italiana	-11407
▁Conservation	-11408
eling	-11409
▁analys	-11410
▁amazing	-11411
TU	-11412
▁acute	-11413
▁varieties	-11414
▁Ciao	-11415
rizioni	-11416
▁quarter	-11417
▁vincere	-11418
▁difficulties	-11419
QU	-11420
ocy	-11421
▁Chris	-11422
▁Democr	-11423
▁concetto	-11424
▁tropical	-11425
uca	-11426
othe	-11427
▁fattori	-11428
▁presents	-11429
▁happening	-11430
▁trag	-11431
▁rainf	-11432
▁examined	-11433
ogene	-11434
▁indoss	-11435
▁popolo	-11436
▁Vitt	-11437
SE	-11438
sts	-11439
▁esprim	-11440
iah	-11441
emper	-11442
▁Bang	-11443
inario	-11444
▁Cooper	-11445
▁garanzia	-11446
▁translation	-11447
ishop	-11448
▁sostenere	-11449
lar	-11450
▁olio	-11451
▁Genova	-11452
▁universal	-11453
▁Fig	-11454
▁Ram	-11455
▁Again	-11456
▁seguente	-11457
▁peak	-11458
ulus	-11459
▁2010.	-11460
▁richiesto	-11461
Acc	-11462
▁sfor	-11463
▁fratt	-11464
▁turno	-11465
▁accessori	-11466
dia	-11467
▁flows	-11468
▁mamma	-11469
▁imposta	-11470
▁Jul	-11471
▁urb	-11472
▁fishing	-11473
▁televis	-11474
▁discipline	-11475
▁pool	-11476
▁overw	-11477
▁simult	-11478
▁21,	-11479
▁cel	-11480
amics	-11481
▁reward	-11482
▁consume	-11483
▁fortuna	-11484
▁migliaia	-11485
can	-11486
posta	-11487
▁Luigi	-11488
▁Bru	-11489
▁1998	-11490
▁Solar	-11491
▁planets	-11492
▁Ist	-11493
ilipp	-11494
▁Watch	-11495
▁domest	-11496
▁healing	-11497
▁Yes	-11498
▁piani	-11499
▁roads	-11500
▁flour	-11501
▁latte	-11502
▁Notizie	-11503
▁suffered	-11504
▁Piano	-11505
▁spray	-11506
▁Friday	-11507
▁ricetta	-11508
▁strategia	-11509
▁USB	-11510
▁serves	-11511
▁focuses	-11512
▁experimental	-11513
thesis	-11514
▁newly	-11515
▁proposito	-11516
resi	-11517
▁dign	-11518
▁2020,	-11519
▁gained	-11520
▁ottenuto	-11521
▁43	-11522
▁Son	-11523
cepti	-11524
42	-11525
▁laid	-11526
▁Mount	-11527
EST	-11528
wan	-11529
▁Ask	-11530
▁manten	-11531
▁discussione	-11532
▁Hard	-11533
kers	-11534
orazioni	-11535
▁privati	-11536
▁branches	-11537
▁parco	-11538
▁Pak	-11539
▁Multi	-11540
▁stuff	-11541
▁scientist	-11542
itory	-11543
To	-11544
arto	-11545
▁potrai	-11546
▁interior	-11547
▁detection	-11548
▁inspired	-11549
▁collezione	-11550
▁Incre	-11551
▁Nei	-11552
▁carte	-11553
def	-11554
▁polar	-11555
example	-11556
▁propon	-11557
▁Lincoln	-11558
▁OS	-11559
5).	-11560
ATE	-11561
sychi	-11562
▁accommod	-11563
▁embry	-11564
▁Codice	-11565
▁hazard	-11566
DS	-11567
bic	-11568
▁cosidd	-11569
▁giovan	-11570
ratic	-11571
ubbi	-11572
▁Fel	-11573
!"	-11574
ricts	-11575
▁sorta	-11576
▁limite	-11577
▁vertical	-11578
ansas	-11579
atial	-11580
▁outer	-11581
▁Ces	-11582
berry	-11583
▁Best	-11584
▁usual	-11585
rimenti	-11586
▁Agosto	-11587
▁personaggio	-11588
▁dovrebbero	-11589
UC	-11590
aph	-11591
ublic	-11592
▁thir	-11593
▁esser	-11594
▁assets	-11595
▁investigation	-11596
ffa	-11597
inch	-11598
▁portata	-11599
▁Remember	-11600
▁raggiunto	-11601
▁là	-11602
zabeth	-11603
▁earliest	-11604
▁Proble	-11605
rays	-11606
▁Prod	-11607
▁sconto	-11608
igation	-11609
▁Angeles	-11610
▁Lev	-11611
▁prevenzione	-11612
▁Vic	-11613
arents	-11614
▁2017,	-11615
▁arche	-11616
cam	-11617
▁panels	-11618
▁parche	-11619
▁posizion	-11620
▁identification	-11621
ovo	-11622
▁Hum	-11623
▁altra	-11624
▁Forum	-11625
▁driven	-11626
▁aggiunto	-11627
▁respiratory	-11628
▁printed	-11629
▁Standard	-11630
▁comfortable	-11631
▁Maur	-11632
▁Team	-11633
▁Battle	-11634
▁branch	-11635
▁rimb	-11636
▁retro	-11637
▁arrivo	-11638
▁diplom	-11639
▁necessaria	-11640
agog	-11641
lymp	-11642
▁reveal	-11643
▁absence	-11644
▁risolvere	-11645
▁ye	-11646
ituto	-11647
remmo	-11648
intero	-11649
▁Indeed	-11650
▁Engineering	-11651
BA	-11652
▁2010,	-11653
▁lymph	-11654
▁mortality	-11655
orted	-11656
▁arres	-11657
▁gusto	-11658
▁isolated	-11659
▁temperatura	-11660
▁adds	-11661
▁voto	-11662
▁angle	-11663
▁bordo	-11664
▁dietary	-11665
ogna	-11666
▁farà	-11667
▁2015,	-11668
▁imaging	-11669
▁Pd	-11670
▁girl	-11671
▁piatto	-11672
▁potenz	-11673
sylvania	-11674
icate	-11675
▁uscire	-11676
brid	-11677
▁Having	-11678
▁caught	-11679
▁copper	-11680
▁stanza	-11681
▁literacy	-11682
▁Dir	-11683
▁gun	-11684
▁inserire	-11685
agne	-11686
utely	-11687
▁inequ	-11688
▁regal	-11689
▁attrezz	-11690
▁spirito	-11691
▁vecchio	-11692
▁Cristo	-11693
▁avvent	-11694
elect	-11695
ocolate	-11696
▁accogli	-11697
educ	-11698
▁sunlight	-11699
from	-11700
▁tasso	-11701
▁publish	-11702
▁accompan	-11703
1%	-11704
▁Hospital	-11705
▁Vitamin	-11706
▁philosoph	-11707
▁estremamente	-11708
adel	-11709
rill	-11710
▁settori	-11711
impresa	-11712
my	-11713
▁Vend	-11714
▁learners	-11715
ialità	-11716
▁legitt	-11717
rint	-11718
▁norma	-11719
▁mosquito	-11720
▁aged	-11721
▁fisico	-11722
▁applicazione	-11723
▁nin	-11724
▁doppio	-11725
ups	-11726
acks	-11727
▁rosa	-11728
▁Parco	-11729
▁Sin	-11730
▁fini	-11731
▁faced	-11732
.),	-11733
▁tif	-11734
achus	-11735
▁Supreme	-11736
▁printing	-11737
▁Alexander	-11738
▁dance	-11739
▁Michigan	-11740
utato	-11741
▁menu	-11742
▁fest	-11743
▁fatty	-11744
itional	-11745
▁trends	-11746
▁giudizio	-11747
fts	-11748
cono	-11749
▁finds	-11750
▁anywhere	-11751
1/	-11752
xual	-11753
▁judg	-11754
▁quiet	-11755
▁CN	-11756
▁Field	-11757
▁fascia	-11758
▁gratuita	-11759
▁emerge	-11760
▁interessanti	-11761
page	-11762
▁Trad	-11763
IST	-11764
ossi	-11765
▁tratto	-11766
▁progett	-11767
oly	-11768
▁vin	-11769
▁physi	-11770
▁array	-11771
laim	-11772
▁(10	-11773
▁enti	-11774
mann	-11775
▁chap	-11776
▁Spring	-11777
▁peoples	-11778
▁cleaning	-11779
▁comprendere	-11780
istema	-11781
▁stake	-11782
▁ristorante	-11783
▁characterized	-11784
▁Tri	-11785
▁2016,	-11786
▁sentenza	-11787
VD	-11788
▁Sito	-11789
▁Being	-11790
▁granted	-11791
▁martedì	-11792
▁visited	-11793
▁Gir	-11794
▁turb	-11795
▁mirac	-11796
▁viewed	-11797
ecessary	-11798
▁dimensione	-11799
Gen	-11800
▁piante	-11801
▁initially	-11802
▁heads	-11803
▁complications	-11804
fa	-11805
▁honey	-11806
▁autism	-11807
▁concluded	-11808
▁settlement	-11809
aded	-11810
merce	-11811
▁conj	-11812
endment	-11813
aneously	-11814
▁Elizabeth	-11815
ividi	-11816
▁plug	-11817
▁adott	-11818
▁diver	-11819
▁counsel	-11820
▁requisiti	-11821
▁permission	-11822
gia	-11823
ingresso	-11824
▁experiencing	-11825
▁exception	-11826
▁bare	-11827
▁evolved	-11828
▁carbohyd	-11829
▁nomi	-11830
▁Enter	-11831
▁smell	-11832
▁decreased	-11833
▁prominent	-11834
Istituto	-11835
▁Building	-11836
▁mountains	-11837
56	-11838
otal	-11839
aceut	-11840
grafia	-11841
▁Massimo	-11842
▁Following	-11843
▁Aqu	-11844
uscita	-11845
▁irrig	-11846
▁quote	-11847
inamento	-11848
▁treating	-11849
▁holes	-11850
▁partite	-11851
▁classico	-11852
▁variation	-11853
iop	-11854
▁victim	-11855
▁emphasis	-11856
▁attu	-11857
▁wine	-11858
▁processed	-11859
orità	-11860
▁Spirit	-11861
▁accordo	-11862
▁channel	-11863
▁tessuto	-11864
▁Rod	-11865
▁Infine	-11866
▁Sche	-11867
▁deliber	-11868
▁tort	-11869
▁intend	-11870
▁sarebbero	-11871
eman	-11872
erto	-11873
▁Pay	-11874
allow	-11875
riamo	-11876
▁phrase	-11877
▁verifica	-11878
rey	-11879
▁Mand	-11880
▁coinc	-11881
▁12.	-11882
ongono	-11883
▁indigenous	-11884
aced	-11885
orest	-11886
▁07	-11887
vamo	-11888
▁suff	-11889
▁ispir	-11890
▁measuring	-11891
asant	-11892
▁capp	-11893
coming	-11894
▁triang	-11895
▁Sv	-11896
enzo	-11897
atoes	-11898
▁beat	-11899
atrici	-11900
istant	-11901
▁avvers	-11902
▁ricordare	-11903
▁tari	-11904
▁welfare	-11905
▁spiaggia	-11906
▁affront	-11907
▁union	-11908
▁Thanks	-11909
▁infect	-11910
▁Cy	-11911
▁scio	-11912
▁19,	-11913
▁supplements	-11914
▁curve	-11915
▁drought	-11916
▁intensity	-11917
HS	-11918
tics	-11919
▁2011,	-11920
▁pezzi	-11921
igliamento	-11922
Com	-11923
▁49	-11924
ecraft	-11925
iliano	-11926
▁determin	-11927
▁distribuzione	-11928
▁06	-11929
▁Ah	-11930
▁fiori	-11931
▁recon	-11932
▁fortun	-11933
▁racial	-11934
▁substantial	-11935
ilation	-11936
▁Division	-11937
▁gut	-11938
▁directed	-11939
▁enormous	-11940
▁giornali	-11941
▁correctly	-11942
▁objectives	-11943
▁Az	-11944
orrect	-11945
:10.	-11946
iede	-11947
▁Obs	-11948
▁Fair	-11949
▁Dutch	-11950
▁corner	-11951
▁sbagli	-11952
▁certamente	-11953
▁appartamento	-11954
▁Lew	-11955
▁2018,	-11956
▁conti	-11957
▁giant	-11958
▁indispens	-11959
▁antibiotics	-11960
▁consideration	-11961
▁Magn	-11962
▁decay	-11963
▁RO	-11964
rante	-11965
▁celeb	-11966
▁labour	-11967
unno	-11968
▁Connect	-11969
▁schedule	-11970
▁regioni	-11971
▁oldest	-11972
icati	-11973
Tube	-11974
▁grows	-11975
▁mothers	-11976
▁stazione	-11977
▁AG	-11978
▁10%	-11979
73	-11980
gs	-11981
▁Tutte	-11982
▁incident	-11983
▁qualunque	-11984
▁Pennsylvania	-11985
▁lar	-11986
apore	-11987
▁Migli	-11988
▁cittadino	-11989
▁programme	-11990
▁observation	-11991
▁disabilities	-11992
▁caffè	-11993
▁Proc	-11994
▁adatto	-11995
▁moderate	-11996
▁democracy	-11997
mal	-11998
▁overcome	-11999
▁contribution	-12000
artic	-12001
▁dirett	-12002
▁1930	-12003
▁Success	-12004
▁listening	-12005
▁automatically	-12006
▁finanziamenti	-12007
▁fonti	-12008
▁sesso	-12009
▁Portug	-12010
▁pandemia	-12011
▁representation	-12012
▁mister	-12013
▁Conference	-12014
▁provenienti	-12015
▁farmaci	-12016
antemente	-12017
▁Calabria	-12018
▁Lombardia	-12019
Bl	-12020
attere	-12021
cyclopedia	-12022
▁providers	-12023
▁Auto	-12024
century	-12025
▁silver	-12026
▁vocabulary	-12027
▁manutenzione	-12028
▁sguardo	-12029
▁perfettamente	-12030
▁Cli	-12031
▁resili	-12032
▁cluster	-12033
Ag	-12034
▁Ak	-12035
asis	-12036
uten	-12037
▁Look	-12038
▁varian	-12039
▁Convention	-12040
▁detected	-12041
▁aziendale	-12042
▁gig	-12043
ained	-12044
▁Tech	-12045
▁Inv	-12046
▁2011.	-12047
▁worst	-12048
▁reaching	-12049
razia	-12050
▁Lega	-12051
▁pena	-12052
!)	-12053
assic	-12054
▁stere	-12055
▁Section	-12056
▁Put	-12057
▁2013,	-12058
▁irreg	-12059
bia	-12060
▁insight	-12061
▁stability	-12062
neys	-12063
▁alph	-12064
▁Small	-12065
▁elder	-12066
▁occurring	-12067
▁cielo	-12068
▁diameter	-12069
▁writes	-12070
▁analyze	-12071
:1	-12072
▁abilities	-12073
▁perception	-12074
▁Anc	-12075
▁Tags	-12076
▁argue	-12077
▁recenti	-12078
▁squadre	-12079
▁spectrum	-12080
!”	-12081
ensi	-12082
▁bol	-12083
riere	-12084
TC	-12085
aka	-12086
tire	-12087
zoni	-12088
▁camer	-12089
▁chilomet	-12090
▁protecting	-12091
▁64	-12092
world	-12093
▁Unlike	-12094
▁attacc	-12095
▁stations	-12096
▁Mentre	-12097
▁figlia	-12098
tainment	-12099
▁hormone	-12100
▁weakness	-12101
ju	-12102
▁vicenda	-12103
▁ga	-12104
▁PAR	-12105
▁clima	-12106
▁hence	-12107
▁Archit	-12108
▁calling	-12109
▁regista	-12110
she	-12111
▁porto	-12112
▁Respons	-12113
▁giocatore	-12114
▁Olymp	-12115
▁coltiv	-12116
ipe	-12117
eries	-12118
▁dynamic	-12119
▁Analysis	-12120
▁popolare	-12121
▁principi	-12122
uoto	-12123
▁Based	-12124
▁Import	-12125
▁wisdom	-12126
achusetts	-12127
oltura	-12128
▁inhabit	-12129
INE	-12130
▁IC	-12131
ruzioni	-12132
▁regardless	-12133
▁thro	-12134
▁wheel	-12135
arco	-12136
▁cosci	-12137
▁identifying	-12138
sol	-12139
batt	-12140
▁Appro	-12141
▁tumor	-12142
▁gay	-12143
▁unw	-12144
▁acres	-12145
▁extend	-12146
riptions	-12147
▁heavily	-12148
▁condizion	-12149
igare	-12150
▁Sarà	-12151
▁compito	-12152
▁definizione	-12153
▁communications	-12154
▁attach	-12155
▁forming	-12156
▁addressed	-12157
erche	-12158
▁Process	-12159
▁nutrient	-12160
▁riuscire	-12161
▁commitment	-12162
▁weekend	-12163
▁interface	-12164
▁otten	-12165
▁advent	-12166
▁cattle	-12167
▁contributed	-12168
▁antioxid	-12169
arks	-12170
▁transp	-12171
vegli	-12172
▁Hebre	-12173
▁alive	-12174
▁hydro	-12175
Med	-12176
▁lens	-12177
▁flying	-12178
olamento	-12179
▁ragioni	-12180
town	-12181
▁Swed	-12182
holders	-12183
▁customer	-12184
verage	-12185
▁mercati	-12186
UD	-12187
limin	-12188
▁Bian	-12189
▁scon	-12190
▁taglio	-12191
▁comportamento	-12192
.-	-12193
74	-12194
aily	-12195
▁overs	-12196
▁dissol	-12197
▁concentrations	-12198
▁bot	-12199
▁arter	-12200
▁interactive	-12201
▁rimanere	-12202
▁intr	-12203
▁richi	-12204
▁diffusione	-12205
inv	-12206
▁Ri	-12207
bean	-12208
/2019	-12209
▁arom	-12210
▁spont	-12211
▁associate	-12212
pher	-12213
▁attivo	-12214
▁coverage	-12215
rix	-12216
▁updated	-12217
roduzione	-12218
▁educators	-12219
▁Dall	-12220
▁denomin	-12221
ster	-12222
▁illegal	-12223
▁Cu	-12224
▁fili	-12225
▁ordinary	-12226
▁authentic	-12227
VO	-12228
WS	-12229
▁Michele	-12230
▁pubblicità	-12231
▁Sei	-12232
▁Major	-12233
▁bless	-12234
▁riscont	-12235
▁reporting	-12236
▁Rif	-12237
enzio	-12238
haust	-12239
▁domic	-12240
▁tablet	-12241
Si	-12242
▁grain	-12243
▁autori	-12244
nut	-12245
▁Emilia	-12246
▁Justice	-12247
▁Systems	-12248
▁worship	-12249
attamente	-12250
▁trovi	-12251
▁rilasci	-12252
▁Cel	-12253
ennis	-12254
▁distr	-12255
▁covering	-12256
▁Ele	-12257
▁agent	-12258
▁dispers	-12259
▁ethical	-12260
▁narrative	-12261
▁Rav	-12262
ailable	-12263
▁shopping	-12264
▁odd	-12265
▁chiama	-12266
▁immers	-12267
ceptable	-12268
▁avviene	-12269
▁economici	-12270
▁protective	-12271
▁umana	-12272
▁mobili	-12273
▁ecological	-12274
▁RA	-12275
letta	-12276
▁2019,	-12277
▁capol	-12278
function	-12279
▁cooling	-12280
▁dovranno	-12281
▁percorsi	-12282
redo	-12283
ermat	-12284
▁Chang	-12285
▁spalle	-12286
▁manufacturers	-12287
▁meals	-12288
▁charged	-12289
arrivo	-12290
▁electro	-12291
▁researcher	-12292
▁Christianity	-12293
All	-12294
ilit	-12295
standing	-12296
▁pH	-12297
▁trasmissione	-12298
68	-12299
▁riten	-12300
▁slaves	-12301
▁afferma	-12302
▁discorso	-12303
▁mine	-12304
▁troviamo	-12305
▁valutare	-12306
TP	-12307
ORI	-12308
asts	-12309
▁Mah	-12310
▁prono	-12311
▁Arctic	-12312
▁lights	-12313
▁sottosc	-12314
▁dies	-12315
▁mont	-12316
▁rica	-12317
▁absor	-12318
▁Colorado	-12319
▁managing	-12320
gram	-12321
books	-12322
▁molt	-12323
ulates	-12324
▁Right	-12325
▁chlor	-12326
▁cominci	-12327
▁provato	-12328
▁Et	-12329
quis	-12330
▁thereby	-12331
▁tang	-12332
▁arric	-12333
▁crown	-12334
-15	-12335
▁MAR	-12336
▁seat	-12337
▁pointed	-12338
▁overwhel	-12339
▁quotidiano	-12340
▁functioning	-12341
▁Hit	-12342
▁1920	-12343
▁svolta	-12344
▁fold	-12345
▁Gabri	-12346
▁Porto	-12347
▁fonte	-12348
▁forum	-12349
▁logic	-12350
▁mature	-12351
▁consegn	-12352
Be	-12353
▁11.	-12354
▁default	-12355
▁mixture	-12356
▁messaggi	-12357
▁button	-12358
▁households	-12359
▁TH	-12360
▁vittime	-12361
▁initiative	-12362
▁pubblicazione	-12363
gge	-12364
▁Ohio	-12365
▁attitude	-12366
▁concerto	-12367
▁avendo	-12368
▁expanded	-12369
PI	-12370
▁1,000	-12371
▁ricorso	-12372
▁STE	-12373
▁enz	-12374
▁adatt	-12375
▁telesc	-12376
▁2009.	-12377
working	-12378
▁courts	-12379
▁hidden	-12380
▁stai	-12381
▁finestra	-12382
▁chemistry	-12383
▁viso	-12384
▁impos	-12385
▁engineers	-12386
▁01	-12387
▁tong	-12388
▁ognuno	-12389
▁Economic	-12390
ugi	-12391
green	-12392
▁pod	-12393
▁regarded	-12394
▁Gulf	-12395
▁shut	-12396
▁chiuso	-12397
inazioni	-12398
▁promuovere	-12399
▁recensione	-12400
▁Turk	-12401
▁poison	-12402
▁versions	-12403
▁caps	-12404
▁stipend	-12405
▁elsewhere	-12406
7%	-12407
▁Mid	-12408
umo	-12409
▁alber	-12410
▁pneum	-12411
erapeut	-12412
▁tract	-12413
▁elezioni	-12414
▁Imper	-12415
▁affecting	-12416
▁bassa	-12417
▁slave	-12418
angered	-12419
▁opposition	-12420
-200	-12421
zona	-12422
itals	-12423
▁scheda	-12424
▁minister	-12425
arter	-12426
oker	-12427
▁taxes	-12428
▁indicazioni	-12429
▁corrente	-12430
▁Batt	-12431
▁Drag	-12432
▁Kids	-12433
▁YouTube	-12434
▁Massachusetts	-12435
oporto	-12436
▁resistenza	-12437
rl	-12438
▁sad	-12439
▁volo	-12440
▁carica	-12441
▁enables	-12442
▁arbit	-12443
▁falling	-12444
▁commercio	-12445
▁alimentare	-12446
PO	-12447
▁faces	-12448
▁titolare	-12449
▁threatened	-12450
▁fires	-12451
▁elemento	-12452
▁mathematical	-12453
▁alarm	-12454
▁banche	-12455
▁resc	-12456
▁Juventus	-12457
▁migration	-12458
Ed	-12459
avia	-12460
▁racconto	-12461
agon	-12462
date	-12463
ureau	-12464
▁boat	-12465
olata	-12466
▁Town	-12467
▁antib	-12468
▁faccio	-12469
▁frutto	-12470
▁Cultura	-12471
▁occorre	-12472
▁violent	-12473
UE	-12474
▁Servizio	-12475
▁Pati	-12476
imming	-12477
▁stopped	-12478
▁executive	-12479
▁disability	-12480
▁significato	-12481
▁fondamentali	-12482
.'	-12483
don	-12484
olet	-12485
▁sizes	-12486
▁perpet	-12487
▁acquire	-12488
▁WW	-12489
ptom	-12490
▁irre	-12491
▁losses	-12492
ulazione	-12493
▁ricco	-12494
▁Tale	-12495
▁sapp	-12496
▁scor	-12497
▁Hot	-12498
▁suscepti	-12499
▁2014,	-12500
▁exciting	-12501
rob	-12502
▁orders	-12503
▁thermal	-12504
▁composta	-12505
rendo	-12506
▁wonderful	-12507
▁controllare	-12508
▁Hai	-12509
▁visitatori	-12510
▁Download	-12511
ipher	-12512
▁technological	-12513
RL	-12514
▁tap	-12515
▁traged	-12516
▁behavioral	-12517
ENTE	-12518
▁vet	-12519
▁pisc	-12520
▁Father	-12521
▁sopravv	-12522
▁politici	-12523
teggi	-12524
▁inch	-12525
▁2015.	-12526
▁gases	-12527
▁Action	-12528
▁corretto	-12529
operazione	-12530
▁biodiversity	-12531
▁Va	-12532
▁finalità	-12533
lude	-12534
▁dens	-12535
▁tribes	-12536
dis	-12537
▁wheat	-12538
▁Scotland	-12539
olis	-12540
▁argued	-12541
▁terapia	-12542
▁autorità	-12543
▁explicit	-12544
inty	-12545
anese	-12546
gener	-12547
▁Daniel	-12548
▁Survey	-12549
▁harder	-12550
▁Lun	-12551
▁felice	-12552
VER	-12553
▁Harvard	-12554
teenth	-12555
▁Hawai	-12556
▁vaccines	-12557
▁gif	-12558
ontal	-12559
▁spoken	-12560
emergenza	-12561
Lo	-12562
▁crew	-12563
▁beach	-12564
▁farms	-12565
▁gravi	-12566
▁buried	-12567
▁superare	-12568
▁colpo	-12569
▁laboratorio	-12570
▁Opt	-12571
▁duty	-12572
angelo	-12573
izzera	-12574
▁surge	-12575
▁wireless	-12576
▁sensitivity	-12577
fr	-12578
osfera	-12579
▁Avoid	-12580
▁believes	-12581
▁humanity	-12582
▁separated	-12583
rò	-12584
▁cicl	-12585
antine	-12586
ziale	-12587
ettive	-12588
▁Computer	-12589
▁Kh	-12590
ston	-12591
▁shop	-12592
▁socc	-12593
▁Prest	-12594
▁Andrew	-12595
▁evening	-12596
▁heritage	-12597
oven	-12598
▁Prime	-12599
▁Sunday	-12600
▁crescere	-12601
▁Banca	-12602
▁cifra	-12603
▁scarpe	-12604
▁affinché	-12605
▁NON	-12606
▁folk	-12607
▁massa	-12608
▁flexible	-12609
▁characteristic	-12610
▁ross	-12611
▁urine	-12612
▁strain	-12613
QL	-12614
fil	-12615
unct	-12616
archy	-12617
▁Trov	-12618
▁grains	-12619
▁sculpt	-12620
▁tables	-12621
▁indicato	-12622
▁prevista	-12623
lino	-12624
▁Riv	-12625
▁Jacob	-12626
▁empty	-12627
▁penso	-12628
edali	-12629
lings	-12630
▁tenuto	-12631
▁improvements	-12632
enter	-12633
▁desk	-12634
urches	-12635
▁colloc	-12636
▁fellow	-12637
▁progettazione	-12638
▁..	-12639
▁CL	-12640
▁Often	-12641
▁Still	-12642
▁Società	-12643
▁hunting	-12644
▁paragraph	-12645
▁Win	-12646
▁nata	-12647
▁legati	-12648
▁profile	-12649
Im	-12650
▁gem	-12651
▁Navy	-12652
emblea	-12653
▁emotion	-12654
▁vitamins	-12655
69	-12656
▁europei	-12657
▁Italiano	-12658
▁giustizia	-12659
▁Tib	-12660
illion	-12661
erti	-12662
pres	-12663
▁breed	-12664
▁Servizi	-12665
▁waiting	-12666
▁annunciato	-12667
▁Dim	-12668
unders	-12669
GO	-12670
erb	-12671
▁preserve	-12672
▁scenari	-12673
▁acquired	-12674
▁consumed	-12675
▁relativa	-12676
▁sviluppare	-12677
ulous	-12678
▁pratiche	-12679
▁desiderio	-12680
▁bim	-12681
▁banca	-12682
▁draft	-12683
▁contrad	-12684
▁creatures	-12685
▁impression	-12686
▁professionali	-12687
▁Advan	-12688
▁strike	-12689
00,	-12690
▁Ord	-12691
▁ripresa	-12692
▁informazione	-12693
▁Sem	-12694
▁embra	-12695
▁ambienti	-12696
▁normativa	-12697
▁owned	-12698
▁replic	-12699
▁VI	-12700
▁tox	-12701
artimento	-12702
▁workshop	-12703
▁aimed	-12704
hotel	-12705
iscip	-12706
▁thread	-12707
▁probability	-12708
▁sna	-12709
▁ciascun	-12710
ruck	-12711
2),	-12712
▁Ball	-12713
▁otto	-12714
▁2013.	-12715
▁segue	-12716
▁Commons	-12717
▁exhaust	-12718
▁restaur	-12719
rite	-12720
▁togli	-12721
▁grounds	-12722
▁proceed	-12723
▁indir	-12724
▁streets	-12725
▁erup	-12726
▁fats	-12727
▁previsti	-12728
▁literary	-12729
ilson	-12730
rical	-12731
▁craft	-12732
▁spiegato	-12733
▁Alb	-12734
▁Marine	-12735
▁cominc	-12736
▁emerging	-12737
onimo	-12738
▁camm	-12739
▁buono	-12740
▁movie	-12741
▁ber	-12742
▁pann	-12743
ogenic	-12744
▁killing	-12745
▁!	-12746
▁desert	-12747
▁availability	-12748
▁mold	-12749
▁trigger	-12750
▁Symptoms	-12751
▁conseguenze	-12752
▁chances	-12753
▁temporary	-12754
▁Parliament	-12755
eterm	-12756
▁cancers	-12757
▁dramatic	-12758
▁categorie	-12759
raham	-12760
▁Anim	-12761
▁esterno	-12762
▁perceived	-12763
▁parameters	-12764
PER	-12765
▁pio	-12766
▁Live	-12767
▁hall	-12768
▁inevit	-12769
▁desideri	-12770
▁Laboratory	-12771
words	-12772
TH	-12773
del	-12774
atia	-12775
ostra	-12776
▁Greg	-12777
▁lungs	-12778
Do	-12779
thetic	-12780
▁riconoscimento	-12781
▁PD	-12782
viene	-12783
▁minds	-12784
▁richiedere	-12785
borne	-12786
▁assumed	-12787
▁verificare	-12788
▁41	-12789
▁978	-12790
▁abol	-12791
▁adatta	-12792
▁passion	-12793
▁engaging	-12794
▁establishment	-12795
essero	-12796
▁officer	-12797
▁Wed	-12798
▁modulo	-12799
▁arguments	-12800
▁ic	-12801
▁Full	-12802
▁decisamente	-12803
▁expectations	-12804
neg	-12805
▁3)	-12806
endi	-12807
▁2016.	-12808
▁split	-12809
▁terzi	-12810
▁Parigi	-12811
▁errori	-12812
▁pel	-12813
▁ignor	-12814
agi	-12815
asses	-12816
▁superi	-12817
▁Physical	-12818
▁friendly	-12819
▁vegetation	-12820
▁interventions	-12821
▁sensor	-12822
▁aggiornamento	-12823
3%	-12824
▁CC	-12825
▁bir	-12826
ifiche	-12827
▁substit	-12828
▁02	-12829
▁keeps	-12830
▁lists	-12831
▁apparten	-12832
ME	-12833
▁Chief	-12834
▁dress	-12835
▁intermedi	-12836
uan	-12837
▁Individ	-12838
▁(8	-12839
▁prosper	-12840
usta	-12841
▁Direct	-12842
▁appointed	-12843
▁°	-12844
▁puntata	-12845
▁annivers	-12846
▁committee	-12847
ennale	-12848
▁Costa	-12849
▁engagement	-12850
▁CS	-12851
▁Dove	-12852
▁beans	-12853
▁convinc	-12854
▁storica	-12855
▁eg	-12856
▁testimonian	-12857
render	-12858
▁comprare	-12859
▁sostanze	-12860
amministrazione	-12861
lation	-12862
▁newspaper	-12863
▁boundaries	-12864
▁connessione	-12865
oe	-12866
ogan	-12867
▁posts	-12868
rali	-12869
▁Jun	-12870
▁corp	-12871
▁vetro	-12872
▁heaven	-12873
▁physically	-12874
aints	-12875
▁pensa	-12876
▁ripar	-12877
▁giudizi	-12878
▁planting	-12879
tur	-12880
ghan	-12881
▁defic	-12882
▁Londra	-12883
▁sentences	-12884
▁entit	-12885
▁divide	-12886
▁equation	-12887
▁industriale	-12888
▁XX	-12889
ggiata	-12890
ipping	-12891
▁Search	-12892
▁riscald	-12893
▁conclusione	-12894
▁EPA	-12895
▁sustainability	-12896
2%	-12897
ricted	-12898
▁verte	-12899
▁AB	-12900
▁Point	-12901
▁reasonable	-12902
bone	-12903
idità	-12904
▁Nonostante	-12905
▁collective	-12906
)|	-12907
itata	-12908
roppo	-12909
▁Clean	-12910
▁Email	-12911
Ma	-12912
lical	-12913
▁Code	-12914
ellino	-12915
▁canale	-12916
▁myself	-12917
▁computing	-12918
▁influenza	-12919
▁ingredienti	-12920
▁personality	-12921
▁photographs	-12922
▁Interna	-12923
▁performing	-12924
▁Local	-12925
▁ultra	-12926
▁marito	-12927
▁abbiano	-12928
▁Wildlife	-12929
▁promoting	-12930
▁2008,	-12931
▁Agriculture	-12932
▁ED	-12933
kind	-12934
▁Adam	-12935
▁pilot	-12936
▁assert	-12937
▁deeply	-12938
▁variations	-12939
▁coat	-12940
▁fisher	-12941
▁sensors	-12942
indirizzo	-12943
▁prestiti	-12944
hea	-12945
ains	-12946
unning	-12947
▁finish	-12948
▁fitness	-12949
▁raising	-12950
▁addiction	-12951
▁cardiovascular	-12952
▁2009,	-12953
olarità	-12954
▁Altern	-12955
▁contatt	-12956
inesi	-12957
▁Buddha	-12958
▁frustr	-12959
▁Support	-12960
▁scoperto	-12961
▁Arts	-12962
▁recre	-12963
just	-12964
▁lowest	-12965
NI	-12966
INA	-12967
zzle	-12968
italia	-12969
▁Model	-12970
▁Moses	-12971
▁cambiamenti	-12972
las	-12973
▁PI	-12974
▁160	-12975
▁lap	-12976
ografia	-12977
▁capito	-12978
▁sfrutt	-12979
▁Given	-12980
▁entering	-12981
▁focusing	-12982
▁societies	-12983
▁Bamb	-12984
▁Show	-12985
etiche	-12986
▁chair	-12987
▁Within	-12988
▁Jackson	-12989
▁trav	-12990
▁atlet	-12991
▁fuels	-12992
▁cambia	-12993
▁losing	-12994
▁exploration	-12995
▁fatigue	-12996
▁habitats	-12997
▁magazine	-12998
▁priority	-12999
▁battaglia	-13000
97	-13001
▁Syn	-13002
ensed	-13003
▁Veneto	-13004
▁lifetime	-13005
UO	-13006
▁Pra	-13007
▁meta	-13008
▁dinam	-13009
▁judge	-13010
▁pregi	-13011
▁minimal	-13012
▁Jerusalem	-13013
▁achievement	-13014
dep	-13015
fulness	-13016
▁quantity	-13017
▁Him	-13018
▁DELLA	-13019
lock	-13020
▁Nob	-13021
▁bac	-13022
▁teat	-13023
▁Event	-13024
▁scomp	-13025
▁powder	-13026
▁Nuovo	-13027
▁56	-13028
evoli	-13029
obblig	-13030
▁Spagna	-13031
▁classified	-13032
▁shore	-13033
▁centina	-13034
urated	-13035
▁pratic	-13036
importanza	-13037
▁Behav	-13038
▁Diego	-13039
▁websites	-13040
▁consapevolezza	-13041
advan	-13042
▁saved	-13043
▁Java	-13044
▁UV	-13045
mentation	-13046
▁Corpor	-13047
▁settled	-13048
300	-13049
▁guess	-13050
▁fought	-13051
▁reddito	-13052
▁neurolog	-13053
▁Bil	-13054
▁stones	-13055
▁controlli	-13056
▁psychology	-13057
By	-13058
PC	-13059
roni	-13060
▁Lorenzo	-13061
▁ensuring	-13062
▁imparare	-13063
▁permettono	-13064
▁mu	-13065
▁22,	-13066
▁gift	-13067
uscript	-13068
▁singoli	-13069
▁SE	-13070
▁entusi	-13071
▁earthquake	-13072
ician	-13073
▁wider	-13074
▁quarto	-13075
▁diventato	-13076
▁ram	-13077
▁tutt	-13078
▁strad	-13079
▁esistono	-13080
▁membrane	-13081
▁districts	-13082
▁universities	-13083
▁reverse	-13084
made	-13085
▁Ash	-13086
▁Hyd	-13087
▁Islands	-13088
▁Writing	-13089
▁21.	-13090
ought	-13091
▁aging	-13092
▁neanche	-13093
ctu	-13094
▁2007,	-13095
▁Salute	-13096
▁esattamente	-13097
▁24,	-13098
▁Bad	-13099
prise	-13100
▁asci	-13101
ibilmente	-13102
▁corresponding	-13103
▁Ford	-13104
▁piatti	-13105
▁competenza	-13106
adelph	-13107
install	-13108
▁Independ	-13109
▁Hor	-13110
ython	-13111
▁haven	-13112
▁pezzo	-13113
▁abstract	-13114
▁deficiency	-13115
▁maggiormente	-13116
icot	-13117
▁LEG	-13118
ocket	-13119
▁extension	-13120
▁necessarie	-13121
ezione	-13122
fare	-13123
▁Gas	-13124
▁pert	-13125
effetto	-13126
▁Sempre	-13127
▁liberal	-13128
▁dimostrato	-13129
edu	-13130
nea	-13131
▁47	-13132
umer	-13133
▁Nuova	-13134
▁saper	-13135
▁metals	-13136
▁styles	-13137
▁Islamic	-13138
▁Pakistan	-13139
▁Williams	-13140
ospel	-13141
terra	-13142
▁cran	-13143
▁venne	-13144
▁Territ	-13145
▁attiva	-13146
▁sufficiente	-13147
pin	-13148
igen	-13149
▁Rag	-13150
▁Testament	-13151
▁directions	-13152
.5	-13153
cchio	-13154
▁fasi	-13155
▁wouldn	-13156
INI	-13157
elve	-13158
▁evidente	-13159
▁acknowled	-13160
▁arc	-13161
ceans	-13162
▁Forse	-13163
▁morti	-13164
▁Garden	-13165
▁regist	-13166
opportun	-13167
▁painful	-13168
▁04	-13169
arma	-13170
raph	-13171
▁RNA	-13172
lights	-13173
▁investigate	-13174
▁q	-13175
▁cow	-13176
▁2018.	-13177
▁Analy	-13178
▁pranzo	-13179
▁Finanzi	-13180
▁kingdom	-13181
▁actively	-13182
▁tutorial	-13183
▁OR	-13184
▁(3)	-13185
▁Uomo	-13186
▁misc	-13187
▁embed	-13188
psy	-13189
▁SO	-13190
unciare	-13191
▁spinal	-13192
industria	-13193
oggio	-13194
▁Blood	-13195
▁Senate	-13196
▁calm	-13197
▁Between	-13198
▁Jon	-13199
▁Liv	-13200
▁ced	-13201
▁Tren	-13202
▁classic	-13203
▁indietro	-13204
adder	-13205
esima	-13206
▁determinato	-13207
anea	-13208
▁20%	-13209
▁furono	-13210
▁equality	-13211
▁zo	-13212
▁vom	-13213
ologi	-13214
▁Self	-13215
venuto	-13216
artista	-13217
▁medicines	-13218
▁notion	-13219
▁summary	-13220
▁colonial	-13221
▁linguaggio	-13222
▁finanziaria	-13223
64	-13224
...)	-13225
▁Relig	-13226
▁versus	-13227
▁Ko	-13228
reens	-13229
▁shaped	-13230
▁rafforz	-13231
elly	-13232
▁dop	-13233
▁dibatt	-13234
▁Sardegna	-13235
▁1°	-13236
olta	-13237
▁Level	-13238
▁requirement	-13239
▁Pil	-13240
▁tes	-13241
▁Bari	-13242
▁Games	-13243
▁promise	-13244
▁contributions	-13245
▁Ry	-13246
▁anter	-13247
▁Europea	-13248
▁conosce	-13249
▁holiday	-13250
▁Heritage	-13251
▁quartiere	-13252
▁Colon	-13253
▁acting	-13254
▁consciousness	-13255
rescia	-13256
▁Marketing	-13257
▁preferred	-13258
▁resistant	-13259
look	-13260
▁Wars	-13261
▁scheme	-13262
▁telling	-13263
▁impossibile	-13264
cce	-13265
ZIONI	-13266
▁cyber	-13267
▁volto	-13268
▁Egyptian	-13269
▁aggressive	-13270
friend	-13271
▁Story	-13272
▁feels	-13273
▁vinto	-13274
▁drivers	-13275
▁symbols	-13276
▁reserved	-13277
▁strategic	-13278
ICO	-13279
acu	-13280
They	-13281
ruire	-13282
▁hers	-13283
▁agenti	-13284
adelphia	-13285
uda	-13286
▁Cold	-13287
▁pale	-13288
▁Proto	-13289
▁Puglia	-13290
▁Insomma	-13291
▁gravity	-13292
cond	-13293
imità	-13294
▁gross	-13295
▁utente	-13296
▁acquisti	-13297
ORD	-13298
bby	-13299
▁Pic	-13300
ementia	-13301
▁Signore	-13302
▁ranging	-13303
▁plastica	-13304
▁scores	-13305
▁adapted	-13306
▁exhibit	-13307
▁simbolo	-13308
▁lac	-13309
▁eseguire	-13310
tificazione	-13311
▁Tu	-13312
▁vas	-13313
angel	-13314
▁Nelle	-13315
▁conveni	-13316
eping	-13317
▁enth	-13318
▁Jones	-13319
▁begun	-13320
▁facilit	-13321
▁chiamata	-13322
▁targeted	-13323
▁25,	-13324
▁toll	-13325
▁trap	-13326
▁clicc	-13327
▁batteria	-13328
Pro	-13329
▁ulteriore	-13330
▁determining	-13331
▁Donne	-13332
▁entra	-13333
▁guadagn	-13334
▁conosciuto	-13335
▁ecosystems	-13336
▁transmitted	-13337
▁joy	-13338
ercato	-13339
▁accus	-13340
▁anger	-13341
▁vorrei	-13342
▁existed	-13343
▁duration	-13344
▁(“	-13345
▁calda	-13346
▁inviare	-13347
▁removing	-13348
ciò	-13349
unit	-13350
agers	-13351
▁Calc	-13352
▁Rest	-13353
▁buoni	-13354
▁termin	-13355
▁aspetta	-13356
▁celebrated	-13357
▁nutritional	-13358
▁ion	-13359
▁peer	-13360
▁2017.	-13361
▁Sep	-13362
▁Love	-13363
▁samp	-13364
▁fiscale	-13365
interesse	-13366
▁Domenica	-13367
▁withdraw	-13368
/19	-13369
oles	-13370
orah	-13371
▁110	-13372
▁Fra	-13373
▁Map	-13374
▁Sap	-13375
▁tone	-13376
▁vacanze	-13377
ture	-13378
▁Mind	-13379
specific	-13380
▁intende	-13381
▁watching	-13382
▁capabilities	-13383
ennio	-13384
▁nice	-13385
▁plot	-13386
▁Third	-13387
actions	-13388
▁linear	-13389
▁decidere	-13390
▁virtually	-13391
▁$1	-13392
onese	-13393
▁cottura	-13394
erò	-13395
▁GR	-13396
▁ft	-13397
▁€.	-13398
▁Tab	-13399
▁venga	-13400
▁fiction	-13401
▁returns	-13402
▁continent	-13403
8%	-13404
inari	-13405
uther	-13406
▁Bush	-13407
▁oxid	-13408
▁rilass	-13409
▁Abraham	-13410
De	-13411
atus	-13412
▁gioia	-13413
▁Biology	-13414
▁pulizia	-13415
cap	-13416
oggia	-13417
▁definitely	-13418
emato	-13419
ushing	-13420
▁sodium	-13421
▁conferenza	-13422
ipot	-13423
▁1.5	-13424
▁aus	-13425
▁adul	-13426
▁2020.	-13427
▁inver	-13428
▁teens	-13429
▁privata	-13430
▁quantum	-13431
▁expertise	-13432
▁McC	-13433
▁alloc	-13434
▁clock	-13435
▁ufficio	-13436
▁bacterial	-13437
PD	-13438
acch	-13439
▁scope	-13440
▁Catania	-13441
lims	-13442
inois	-13443
likely	-13444
▁Linux	-13445
camp	-13446
▁Tok	-13447
icale	-13448
▁Nero	-13449
▁obst	-13450
ensore	-13451
▁Rispond	-13452
▁pubbliche	-13453
▁consentire	-13454
ocal	-13455
▁Premi	-13456
assessore	-13457
ymes	-13458
▁bru	-13459
▁Much	-13460
▁Inn	-13461
▁recording	-13462
▁calculated	-13463
▁py	-13464
bury	-13465
▁cena	-13466
energia	-13467
▁victory	-13468
▁continuo	-13469
▁accompanied	-13470
.2	-13471
zyme	-13472
▁Plus	-13473
▁astron	-13474
▁scatter	-13475
▁applying	-13476
▁militari	-13477
▁positivi	-13478
irlo	-13479
▁Lec	-13480
▁tack	-13481
▁wage	-13482
▁wars	-13483
▁pronti	-13484
▁constra	-13485
ibilities	-13486
▁corretta	-13487
▁productivity	-13488
amsung	-13489
▁chocolate	-13490
▁permetter	-13491
▁remarkable	-13492
▁integration	-13493
▁Virt	-13494
▁regola	-13495
▁arricch	-13496
▁contents	-13497
Don	-13498
▁Pin	-13499
▁usa	-13500
estri	-13501
▁Hence	-13502
▁batteries	-13503
▁fianco	-13504
▁Ministry	-13505
▁insuffici	-13506
▁sanitaria	-13507
▁Peace	-13508
▁Stampa	-13509
▁circost	-13510
▁contras	-13511
▁outdoor	-13512
▁secondi	-13513
▁personnel	-13514
▁prescribed	-13515
best	-13516
▁ghi	-13517
▁simpl	-13518
▁mangiare	-13519
▁fotografia	-13520
cies	-13521
lesi	-13522
olica	-13523
▁Papa	-13524
▁continuing	-13525
▁Od	-13526
▁Pul	-13527
▁Rap	-13528
▁safely	-13529
▁assieme	-13530
apers	-13531
▁Risk	-13532
▁possesso	-13533
▁differently	-13534
▁varietà	-13535
▁gathered	-13536
OLO	-13537
acent	-13538
lusion	-13539
▁Magazine	-13540
▁gratuiti	-13541
▁rational	-13542
▁Mediterranean	-13543
▁Jean	-13544
▁venire	-13545
▁effettuato	-13546
uire	-13547
▁Picc	-13548
▁minuto	-13549
▁altrimenti	-13550
tip	-13551
▁Esp	-13552
▁climb	-13553
ONE	-13554
▁colonies	-13555
lah	-13556
▁acque	-13557
▁riemp	-13558
▁interni	-13559
▁sessions	-13560
itches	-13561
▁Const	-13562
▁Innov	-13563
▁magistr	-13564
!!!!	-13565
▁Fili	-13566
▁rect	-13567
▁Place	-13568
▁pione	-13569
▁metodi	-13570
grade	-13571
▁mono	-13572
▁Padova	-13573
▁fing	-13574
urrent	-13575
▁trick	-13576
▁Bureau	-13577
▁drinks	-13578
▁3-	-13579
▁Ve	-13580
▁700	-13581
▁ears	-13582
▁turismo	-13583
ours	-13584
▁cellulare	-13585
▁stood	-13586
▁intrap	-13587
▁soffer	-13588
▁bast	-13589
▁Store	-13590
▁dairy	-13591
lamm	-13592
▁spoke	-13593
▁Should	-13594
▁svolto	-13595
▁restitu	-13596
▁seriously	-13597
▁restoration	-13598
issance	-13599
▁poetry	-13600
▁elettrica	-13601
▁references	-13602
67	-13603
rapp	-13604
▁disk	-13605
▁hosp	-13606
▁fless	-13607
▁classical	-13608
▁scolastico	-13609
raine	-13610
▁Turn	-13611
▁gare	-13612
▁suon	-13613
estion	-13614
▁buone	-13615
▁currency	-13616
▁relativo	-13617
▁giornalista	-13618
bial	-13619
▁Paper	-13620
▁stava	-13621
▁predis	-13622
▁sembrano	-13623
▁celebrate	-13624
▁30,	-13625
▁Similarly	-13626
2-	-13627
▁vie	-13628
acing	-13629
ASS	-13630
▁Tay	-13631
utare	-13632
▁pane	-13633
isting	-13634
▁Corso	-13635
▁Studi	-13636
▁vessel	-13637
imentazione	-13638
posto	-13639
▁combatt	-13640
bacco	-13641
otted	-13642
▁Turkey	-13643
▁posted	-13644
▁intention	-13645
qual	-13646
regon	-13647
▁appet	-13648
▁Storia	-13649
▁deploy	-13650
▁discussions	-13651
▁Ali	-13652
▁scr	-13653
▁Tool	-13654
▁dominant	-13655
▁opinions	-13656
▁frutta	-13657
▁Sustain	-13658
▁Tal	-13659
▁Cloud	-13660
▁Dalla	-13661
▁develops	-13662
▁joints	-13663
▁percep	-13664
▁spor	-13665
▁exped	-13666
▁debito	-13667
▁accanto	-13668
giene	-13669
▁Kent	-13670
▁Verona	-13671
▁breaking	-13672
▁facilitate	-13673
8).	-13674
▁Beg	-13675
▁cot	-13676
▁Share	-13677
▁Monday	-13678
▁chirurg	-13679
▁involvement	-13680
▁Bis	-13681
▁lago	-13682
▁tact	-13683
arda	-13684
child	-13685
▁altrett	-13686
▁barrier	-13687
-11	-13688
▁clay	-13689
▁films	-13690
▁persu	-13691
inò	-13692
▁Opp	-13693
▁compil	-13694
▁compost	-13695
▁indipendente	-13696
PL	-13697
▁literally	-13698
▁2014.	-13699
▁songs	-13700
atezza	-13701
▁weigh	-13702
▁planted	-13703
▁absolutely	-13704
▁praticamente	-13705
occi	-13706
iesta	-13707
idanza	-13708
▁spots	-13709
▁invasion	-13710
▁Historical	-13711
RNA	-13712
ensa	-13713
▁gast	-13714
identi	-13715
▁Laura	-13716
▁lavora	-13717
▁sacred	-13718
▁fossero	-13719
▁Secretary	-13720
RC	-13721
▁soph	-13722
urning	-13723
▁giurid	-13724
ecting	-13725
▁Ricc	-13726
▁icon	-13727
▁adopt	-13728
▁trace	-13729
▁attorno	-13730
▁apertura	-13731
Ne	-13732
lle	-13733
foot	-13734
▁certi	-13735
▁Working	-13736
▁portale	-13737
▁converted	-13738
▁Assemb	-13739
▁Comment	-13740
▁ml	-13741
▁Quali	-13742
▁somma	-13743
▁retail	-13744
▁tension	-13745
▁familiare	-13746
▁redazione	-13747
▁Alcuni	-13748
▁module	-13749
▁Bitcoin	-13750
▁Contact	-13751
▁reaches	-13752
▁Rog	-13753
▁Gest	-13754
▁chose	-13755
▁invasive	-13756
▁Argent	-13757
▁cerchi	-13758
▁traits	-13759
▁visits	-13760
▁gardens	-13761
93	-13762
:||	-13763
onico	-13764
▁Century	-13765
▁consumatori	-13766
▁catal	-13767
▁innoc	-13768
▁Hebrew	-13769
etici	-13770
▁dict	-13771
▁Software	-13772
▁competitive	-13773
▁interessati	-13774
thur	-13775
▁Ren	-13776
▁dropped	-13777
▁infants	-13778
▁noticed	-13779
lioteca	-13780
▁Wilson	-13781
▁absolute	-13782
▁nuovamente	-13783
▁sees	-13784
▁danne	-13785
formance	-13786
▁strategie	-13787
ontan	-13788
▁Rail	-13789
▁vegetable	-13790
▁hypothesis	-13791
ulg	-13792
Ques	-13793
rust	-13794
▁1940	-13795
▁suit	-13796
▁terrà	-13797
▁chilometri	-13798
CHE	-13799
▁ride	-13800
▁Premio	-13801
▁comunicato	-13802
/1	-13803
iorent	-13804
aspetto	-13805
▁recycling	-13806
▁ib	-13807
igio	-13808
▁gods	-13809
▁faculty	-13810
▁definire	-13811
▁occupied	-13812
▁representative	-13813
▁risal	-13814
▁naturalmente	-13815
ethe	-13816
▁chromos	-13817
▁Campania	-13818
▁digitali	-13819
uova	-13820
▁orange	-13821
Ac	-13822
▁atoms	-13823
▁underground	-13824
▁03	-13825
▁Trade	-13826
▁andata	-13827
▁Examples	-13828
▁fornisce	-13829
otes	-13830
▁clients	-13831
00.	-13832
▁genu	-13833
▁loud	-13834
▁cotton	-13835
▁catalog	-13836
▁bleeding	-13837
▁campione	-13838
UB	-13839
▁Isa	-13840
▁gly	-13841
zzare	-13842
▁anat	-13843
▁canali	-13844
▁colony	-13845
▁handling	-13846
egli	-13847
▁23,	-13848
▁gesto	-13849
▁Comitato	-13850
hard	-13851
▁ash	-13852
▁Pope	-13853
▁armed	-13854
▁Station	-13855
▁forno	-13856
position	-13857
▁indirect	-13858
tier	-13859
ugli	-13860
▁esa	-13861
▁Pain	-13862
▁scand	-13863
▁immobili	-13864
hot	-13865
▁cheap	-13866
▁località	-13867
▁sleeping	-13868
cal	-13869
▁rod	-13870
▁choosing	-13871
▁particle	-13872
▁happiness	-13873
▁raccomand	-13874
orni	-13875
▁Indones	-13876
▁wearing	-13877
▁metropolit	-13878
▁limitations	-13879
="	-13880
1),	-13881
eton	-13882
hanced	-13883
▁bocca	-13884
▁utility	-13885
▁colazione	-13886
▁spedizione	-13887
▁transferred	-13888
▁Encyclopedia	-13889
▁rappresentano	-13890
▁ciocc	-13891
▁Rather	-13892
▁saving	-13893
▁lezioni	-13894
▁balanced	-13895
▁qualities	-13896
INO	-13897
▁360	-13898
force	-13899
▁neon	-13900
▁Polizia	-13901
▁enthusi	-13902
▁shorter	-13903
acle	-13904
▁Fem	-13905
▁1997	-13906
▁subt	-13907
▁Mondo	-13908
▁herself	-13909
▁montagna	-13910
▁realized	-13911
▁ricerche	-13912
▁modifiche	-13913
▁Game	-13914
igno	-13915
▁unp	-13916
▁hack	-13917
▁voti	-13918
▁percentuale	-13919
▁EC	-13920
▁prey	-13921
▁Comuni	-13922
▁funded	-13923
▁enjoyed	-13924
DE	-13925
▁unlike	-13926
▁Alberto	-13927
▁specifica	-13928
▁apparently	-13929
▁FDA	-13930
▁Fish	-13931
▁aggiunge	-13932
▁elettorale	-13933
ycle	-13934
▁Cand	-13935
▁ease	-13936
▁Chall	-13937
▁Image	-13938
▁solving	-13939
▁suicide	-13940
▁tobacco	-13941
▁abitanti	-13942
▁riuscito	-13943
▁Philadelphia	-13944
▁principalmente	-13945
▁Jr	-13946
tersi	-13947
▁Fall	-13948
▁filt	-13949
▁Think	-13950
▁Future	-13951
▁developments	-13952
▁miglioramento	-13953
qua	-13954
innov	-13955
rando	-13956
estock	-13957
▁Lewis	-13958
▁Valle	-13959
▁royal	-13960
▁logical	-13961
▁designer	-13962
▁primavera	-13963
▁tradizionali	-13964
MC	-13965
▁Veg	-13966
▁voci	-13967
▁zones	-13968
▁corporate	-13969
▁amino	-13970
▁specified	-13971
▁consulenza	-13972
▁silenzio	-13973
avel	-13974
aven	-13975
▁predomin	-13976
▁displayed	-13977
▁”	-13978
inton	-13979
▁ownership	-13980
gae	-13981
acles	-13982
▁prayer	-13983
▁origins	-13984
▁protest	-13985
▁sensazione	-13986
▁controlling	-13987
";	-13988
▁85	-13989
icts	-13990
raul	-13991
▁tradu	-13992
▁engines	-13993
▁Intellig	-13994
▁Sor	-13995
▁sug	-13996
izziamo	-13997
▁minori	-13998
▁Catt	-13999
ologically	-14000
▁regionali	-14001
▁successivamente	-14002
dal	-14003
▁Gro	-14004
teria	-14005
▁parlando	-14006
▁posizioni	-14007
▁Dictionary	-14008
▁complexity	-14009
▁volunteers	-14010
▁cooperation	-14011
ianc	-14012
▁tough	-14013
▁Hitler	-14014
▁Volume	-14015
▁2019.	-14016
▁giornate	-14017
9).	-14018
bow	-14019
iser	-14020
/2020	-14021
▁sappiamo	-14022
▁Understanding	-14023
▁dichiarazione	-14024
ersey	-14025
▁gover	-14026
▁ricca	-14027
▁Temple	-14028
▁lettori	-14029
87	-14030
▁Sole	-14031
▁iniziale	-14032
▁immigrants	-14033
▁Mir	-14034
arica	-14035
▁replacement	-14036
▁Near	-14037
▁Disney	-14038
itoriale	-14039
▁contatti	-14040
▁matrimoni	-14041
ubs	-14042
omal	-14043
ugia	-14044
▁Isc	-14045
▁clothes	-14046
▁disegno	-14047
▁comprende	-14048
4%	-14049
FA	-14050
Ho	-14051
aired	-14052
▁identical	-14053
▁Lig	-14054
▁Greece	-14055
▁varies	-14056
▁exploring	-14057
▁specialist	-14058
▁chiunque	-14059
▁mito	-14060
▁pose	-14061
▁previste	-14062
▁unlikely	-14063
▁Ray	-14064
▁gum	-14065
▁pets	-14066
▁mobil	-14067
▁pleasure	-14068
▁disciplina	-14069
▁Philipp	-14070
▁approccio	-14071
oric	-14072
osity	-14073
▁divor	-14074
▁restore	-14075
▁occasioni	-14076
▁juris	-14077
▁prese	-14078
▁pacche	-14079
▁annually	-14080
▁familiari	-14081
▁Kit	-14082
▁Lic	-14083
▁Ambi	-14084
▁descend	-14085
▁scrittura	-14086
But	-14087
▁everywhere	-14088
▁cable	-14089
▁canal	-14090
▁avrebbero	-14091
▁totalmente	-14092
Ab	-14093
inent	-14094
▁cream	-14095
▁eleph	-14096
▁assembly	-14097
▁prelimin	-14098
▁Tip	-14099
▁buying	-14100
▁streams	-14101
▁outbreak	-14102
ulator	-14103
▁juice	-14104
▁restrictions	-14105
ether	-14106
▁1995	-14107
▁Golden	-14108
▁plasma	-14109
▁surprise	-14110
▁reflected	-14111
▁sostenibile	-14112
izzano	-14113
▁cough	-14114
▁winds	-14115
▁tongue	-14116
▁canzone	-14117
▁impatto	-14118
▁immagine	-14119
yes	-14120
▁Ni	-14121
arten	-14122
▁Sabato	-14123
▁revers	-14124
▁elections	-14125
Hz	-14126
▁2008.	-14127
▁Parlamento	-14128
▁rapidamente	-14129
iaio	-14130
▁mad	-14131
aiuto	-14132
▁debb	-14133
through	-14134
uled	-14135
▁Cher	-14136
▁bias	-14137
▁2021,	-14138
▁Cronaca	-14139
▁Reserve	-14140
▁mammals	-14141
▁readily	-14142
▁Ped	-14143
▁nap	-14144
anima	-14145
endum	-14146
▁Nicola	-14147
▁famoso	-14148
▁paying	-14149
▁specifici	-14150
▁documented	-14151
▁personalità	-14152
0,	-14153
▁Sens	-14154
▁dinosa	-14155
▁edifici	-14156
▁empower	-14157
▁vecchia	-14158
▁Santo	-14159
▁rooms	-14160
▁Origin	-14161
▁reveals	-14162
▁graduate	-14163
▁lighting	-14164
opes	-14165
worth	-14166
▁armi	-14167
▁filo	-14168
▁Creek	-14169
▁burden	-14170
▁circulation	-14171
▁Democ	-14172
▁merch	-14173
chester	-14174
▁purchased	-14175
10,	-14176
thod	-14177
▁28,	-14178
▁gate	-14179
▁mutuo	-14180
▁Training	-14181
▁meaningful	-14182
▁shed	-14183
▁Kennedy	-14184
▁spatial	-14185
▁Confeder	-14186
▁ultimate	-14187
▁flav	-14188
▁stip	-14189
▁offrono	-14190
1:	-14191
izers	-14192
▁toss	-14193
▁calore	-14194
▁Proprio	-14195
▁dialogo	-14196
Come	-14197
▁Hay	-14198
▁cani	-14199
▁morto	-14200
▁legato	-14201
▁sentito	-14202
▁Illinois	-14203
ILE	-14204
▁erog	-14205
▁arred	-14206
▁pensieri	-14207
▁considerare	-14208
________________	-14209
atal	-14210
▁chiare	-14211
▁savings	-14212
▁CAR	-14213
▁row	-14214
ardini	-14215
▁affasc	-14216
▁worker	-14217
▁minority	-14218
OLI	-14219
iff	-14220
▁grades	-14221
▁neurons	-14222
▁speaker	-14223
▁advances	-14224
▁NA	-14225
ilst	-14226
▁Arg	-14227
▁couldn	-14228
▁emerged	-14229
▁spacecraft	-14230
▁straordinaria	-14231
9%	-14232
inea	-14233
▁Alle	-14234
▁eigh	-14235
shaped	-14236
▁crema	-14237
esium	-14238
▁Dott	-14239
▁pent	-14240
▁breaks	-14241
▁foster	-14242
▁esterni	-14243
▁barriers	-14244
▁partecipato	-14245
Pub	-14246
▁spr	-14247
verso	-14248
▁Date	-14249
▁Clinical	-14250
▁sciences	-14251
FC	-14252
itando	-14253
▁surgical	-14254
▁superiori	-14255
▁registered	-14256
▁SA	-14257
▁Deb	-14258
▁sediment	-14259
▁suddenly	-14260
athan	-14261
asters	-14262
▁Trust	-14263
▁crack	-14264
▁rhythm	-14265
▁scritta	-14266
▁churches	-14267
▁sostanza	-14268
igma	-14269
▁dup	-14270
▁Bened	-14271
▁varied	-14272
▁analyzed	-14273
▁realizzata	-14274
MD	-14275
▁attori	-14276
▁ricche	-14277
▁arrivano	-14278
▁insights	-14279
▁medicina	-14280
▁Bh	-14281
ppie	-14282
ubble	-14283
▁caut	-14284
▁Mexican	-14285
▁svolgere	-14286
▁hormones	-14287
▁provision	-14288
astici	-14289
rivere	-14290
▁bears	-14291
▁Victor	-14292
▁throat	-14293
outheast	-14294
▁scienza	-14295
▁contratti	-14296
ibil	-14297
▁Conte	-14298
▁ampia	-14299
▁conte	-14300
▁Culture	-14301
▁underta	-14302
▁alimenti	-14303
▁raccontare	-14304
▁Iron	-14305
▁align	-14306
▁therapeut	-14307
▁CT	-14308
▁Carm	-14309
▁Sher	-14310
▁doors	-14311
▁criteri	-14312
orters	-14313
enziato	-14314
erta	-14315
▁nera	-14316
▁vostre	-14317
▁diagram	-14318
▁realizzati	-14319
▁representing	-14320
▁Dyn	-14321
▁Gene	-14322
▁scom	-14323
▁ossia	-14324
▁originali	-14325
▁paintings	-14326
▁conversion	-14327
engo	-14328
▁gal	-14329
itutto	-14330
ificati	-14331
esthetic	-14332
▁Muslims	-14333
▁aggiunt	-14334
▁vissuto	-14335
▁Diabetes	-14336
▁allergic	-14337
▁basically	-14338
▁electrons	-14339
▁produttori	-14340
▁responsabili	-14341
bio	-14342
lier	-14343
rons	-14344
▁Beach	-14345
▁Hindu	-14346
▁pupils	-14347
▁reproductive	-14348
▁Student	-14349
▁package	-14350
400	-14351
▁Lind	-14352
▁Allen	-14353
▁Calcio	-14354
eve	-14355
news	-14356
▁Short	-14357
▁ruled	-14358
▁aria	-14359
▁appeal	-14360
ENZA	-14361
▁solidarietà	-14362
▁je	-14363
▁cens	-14364
▁Parma	-14365
▁cinese	-14366
▁microbi	-14367
▁shelter	-14368
▁overview	-14369
alta	-14370
oter	-14371
▁vuol	-14372
▁Afghan	-14373
▁applies	-14374
▁practition	-14375
▁Uk	-14376
▁sister	-14377
▁managers	-14378
▁pandemic	-14379
▁produrre	-14380
▁Tribunale	-14381
▁PhD	-14382
ppers	-14383
▁ancor	-14384
▁Incont	-14385
▁Austria	-14386
▁soddisfare	-14387
▁Ont	-14388
ouses	-14389
ephone	-14390
▁Neuro	-14391
▁Berlin	-14392
▁inhabitants	-14393
▁dri	-14394
▁confusion	-14395
▁184	-14396
▁cited	-14397
▁globe	-14398
▁frattempo	-14399
urtroppo	-14400
▁swelling	-14401
ugn	-14402
▁span	-14403
▁fifth	-14404
▁Quello	-14405
▁Stephen	-14406
▁coscienza	-14407
ogens	-14408
▁Hung	-14409
assium	-14410
▁aspir	-14411
▁andato	-14412
▁Teachers	-14413
▁occident	-14414
One	-14415
▁Others	-14416
▁peggio	-14417
iormente	-14418
▁Commerc	-14419
▁villages	-14420
▁requiring	-14421
opy	-14422
▁Hong	-14423
▁wash	-14424
▁reign	-14425
▁commem	-14426
▁riflet	-14427
▁Edition	-14428
▁Leonardo	-14429
▁macchine	-14430
▁tendenza	-14431
▁preserved	-14432
▁convey	-14433
▁beneath	-14434
▁docenti	-14435
▁athletes	-14436
fall	-14437
▁sulf	-14438
▁Mobile	-14439
▁ba	-14440
▁legit	-14441
▁steam	-14442
▁invention	-14443
63	-14444
▁iP	-14445
▁Cra	-14446
▁Past	-14447
▁sons	-14448
▁Brook	-14449
▁enzyme	-14450
NS	-14451
▁lon	-14452
▁Antar	-14453
▁meteor	-14454
▁forecast	-14455
▁workplace	-14456
▁coronavirus	-14457
ovi	-14458
▁gh	-14459
inar	-14460
▁Bag	-14461
▁Text	-14462
▁edit	-14463
ogging	-14464
▁Daily	-14465
See	-14466
zes	-14467
▁ham	-14468
▁Guid	-14469
▁persino	-14470
▁workshe	-14471
ordination	-14472
▁candidate	-14473
▁copertura	-14474
▁risparmio	-14475
▁prevalence	-14476
Col	-14477
▁nuts	-14478
▁svel	-14479
▁divine	-14480
▁Ancient	-14481
▁perfectly	-14482
▁gravidanza	-14483
▁specialized	-14484
dam	-14485
ussi	-14486
▁prol	-14487
▁abbra	-14488
▁visite	-14489
▁Mississi	-14490
▁attractive	-14491
▁possibilities	-14492
ateral	-14493
▁2006,	-14494
western	-14495
▁sending	-14496
▁attempted	-14497
▁consiglia	-14498
▁operativo	-14499
▁Assessment	-14500
▁Ara	-14501
▁Mig	-14502
▁bee	-14503
▁Prob	-14504
▁deer	-14505
mented	-14506
▁viral	-14507
▁entitled	-14508
/2	-14509
Es	-14510
▁tends	-14511
▁incons	-14512
▁landing	-14513
▁potente	-14514
▁missione	-14515
▁tir	-14516
▁till	-14517
▁Negli	-14518
▁ending	-14519
▁rendono	-14520
▁accurately	-14521
▁enforcement	-14522
▁feder	-14523
▁Ancora	-14524
▁legger	-14525
▁meetings	-14526
▁profound	-14527
▁accomplish	-14528
/03	-14529
▁revol	-14530
▁favorire	-14531
▁essenziale	-14532
lob	-14533
▁4:	-14534
▁dos	-14535
▁Bart	-14536
▁oils	-14537
▁Eventi	-14538
chemical	-14539
▁Schools	-14540
▁mul	-14541
event	-14542
▁Kong	-14543
▁brill	-14544
▁invis	-14545
▁subsc	-14546
▁metter	-14547
apertura	-14548
▁ancestors	-14549
▁jaw	-14550
▁importanza	-14551
Our	-14552
▁Fle	-14553
▁Fabio	-14554
▁uncle	-14555
▁refused	-14556
▁economiche	-14557
▁CB	-14558
▁Basil	-14559
▁fiume	-14560
istance	-14561
▁Improv	-14562
▁compreso	-14563
▁reflection	-14564
▁von	-14565
▁totally	-14566
▁channels	-14567
▁aggiornato	-14568
cra	-14569
isca	-14570
▁Vent	-14571
ettori	-14572
▁pairs	-14573
▁algorithm	-14574
▁candidates	-14575
▁manuscript	-14576
etty	-14577
▁sino	-14578
▁mappa	-14579
▁giudice	-14580
▁Personal	-14581
ighi	-14582
serv	-14583
▁orn	-14584
▁Cerca	-14585
interest	-14586
ribution	-14587
▁Scientific	-14588
▁Alaska	-14589
▁svolge	-14590
▁Teaching	-14591
▁calendario	-14592
ng	-14593
▁riforma	-14594
▁contributing	-14595
▁herb	-14596
ereign	-14597
▁scala	-14598
▁dicono	-14599
▁peculi	-14600
▁chicken	-14601
▁illnesses	-14602
▁magnitude	-14603
ML	-14604
▁MO	-14605
▁Carib	-14606
▁establishing	-14607
mir	-14608
fits	-14609
▁bought	-14610
▁conced	-14611
avi	-14612
osti	-14613
under	-14614
▁anten	-14615
▁treno	-14616
▁essenziali	-14617
abet	-14618
▁Rispondi	-14619
▁ciascuno	-14620
▁sportivo	-14621
▁calculate	-14622
poss	-14623
▁Rosa	-14624
▁width	-14625
▁Oregon	-14626
▁Ale	-14627
▁Fram	-14628
▁Rossi	-14629
▁lakes	-14630
▁Marina	-14631
▁movimenti	-14632
▁procedere	-14633
▁metabolism	-14634
▁Six	-14635
▁insc	-14636
▁Proper	-14637
▁compress	-14638
▁deposits	-14639
burn	-14640
▁Raff	-14641
▁seal	-14642
▁Altri	-14643
▁precisely	-14644
pot	-14645
▁somm	-14646
▁morph	-14647
▁productive	-14648
▁Reggio	-14649
▁degrad	-14650
▁humidity	-14651
▁risoluzione	-14652
apes	-14653
after	-14654
otion	-14655
▁lawn	-14656
inante	-14657
▁errore	-14658
▁genome	-14659
▁eliminare	-14660
▁designated	-14661
arium	-14662
ilton	-14663
profit	-14664
▁dubbi	-14665
▁venti	-14666
▁Script	-14667
▁preparare	-14668
▁preparing	-14669
▁Anne	-14670
▁ultima	-14671
▁moderna	-14672
▁microscop	-14673
▁encl	-14674
▁anziani	-14675
▁imagination	-14676
▁Bos	-14677
▁Observ	-14678
▁wooden	-14679
▁critica	-14680
▁Champions	-14681
▁riflessione	-14682
▁Disp	-14683
▁esib	-14684
▁ballo	-14685
▁Letter	-14686
▁emergenza	-14687
▁distinguish	-14688
conf	-14689
ashes	-14690
▁hunt	-14691
▁exemp	-14692
▁thyroid	-14693
▁addresses	-14694
▁appuntamenti	-14695
unn	-14696
▁Bob	-14697
▁Kat	-14698
▁painted	-14699
▁Consigli	-14700
▁monument	-14701
▁contributi	-14702
NE	-14703
▁paga	-14704
▁chiudere	-14705
▁creativity	-14706
sey	-14707
rang	-14708
ologic	-14709
▁Introduction	-14710
sk	-14711
)||	-14712
ituale	-14713
mental	-14714
▁Urban	-14715
▁presum	-14716
▁alternativa	-14717
▁refrig	-14718
▁gratuitamente	-14719
News	-14720
ondere	-14721
▁empire	-14722
''	-14723
ivere	-14724
▁shoes	-14725
isciplin	-14726
ospedale	-14727
▁surveys	-14728
▁dementia	-14729
▁refugees	-14730
▁Francesca	-14731
▁assignment	-14732
▁initiatives	-14733
dersi	-14734
▁Carbon	-14735
▁surprising	-14736
▁Therap	-14737
▁discut	-14738
▁Jefferson	-14739
▁tentativo	-14740
orus	-14741
▁gioi	-14742
▁wing	-14743
fezione	-14744
▁propor	-14745
▁citizen	-14746
▁deterior	-14747
▁Indigenous	-14748
▁95	-14749
arme	-14750
▁Jane	-14751
▁Lung	-14752
▁puts	-14753
▁sanno	-14754
▁Number	-14755
▁Università	-14756
▁cave	-14757
▁accert	-14758
▁definito	-14759
▁Direttore	-14760
ELL	-14761
▁Usa	-14762
▁Unit	-14763
▁Nucle	-14764
rutture	-14765
▁ascolt	-14766
▁vigore	-14767
▁sophistic	-14768
GA	-14769
▁Typ	-14770
rowth	-14771
▁verd	-14772
blog	-14773
▁doppia	-14774
▁instances	-14775
▁translated	-14776
sia	-14777
▁Oil	-14778
tiera	-14779
▁manca	-14780
PE	-14781
ALL	-14782
▁SI	-14783
▁Fal	-14784
▁Guida	-14785
▁avver	-14786
ectives	-14787
▁adverse	-14788
▁malaria	-14789
▁Kim	-14790
▁knee	-14791
▁piacevole	-14792
ictions	-14793
▁distant	-14794
Gi	-14795
fly	-14796
▁potrete	-14797
▁cellular	-14798
▁incidence	-14799
ecchi	-14800
▁autent	-14801
▁tipologia	-14802
▁surrounded	-14803
▁flexibility	-14804
▁cuts	-14805
▁diarr	-14806
▁avranno	-14807
▁Assembly	-14808
▁Federico	-14809
▁statistical	-14810
BL	-14811
ocus	-14812
▁Hab	-14813
appro	-14814
▁fatica	-14815
▁ospedali	-14816
▁simultaneously	-14817
▁Interest	-14818
aer	-14819
aton	-14820
▁centinaia	-14821
▁reasoning	-14822
▁57	-14823
inio	-14824
▁13.	-14825
▁Whats	-14826
▁categor	-14827
▁mobilità	-14828
▁prisoners	-14829
▁>>	-14830
rand	-14831
/2021	-14832
▁arise	-14833
▁insist	-14834
▁Publish	-14835
▁Generale	-14836
▁disadvan	-14837
▁PO	-14838
▁Sn	-14839
▁alti	-14840
unters	-14841
ufficio	-14842
▁Anders	-14843
▁regulate	-14844
istrazioni	-14845
▁attributed	-14846
porti	-14847
▁unto	-14848
▁Corps	-14849
▁Prote	-14850
▁basket	-14851
▁bottle	-14852
▁Manager	-14853
eco	-14854
▁Answ	-14855
▁Giac	-14856
▁lect	-14857
▁acco	-14858
tabile	-14859
▁segni	-14860
▁payment	-14861
▁minimize	-14862
▁Quanto	-14863
▁bianca	-14864
▁combine	-14865
▁coraggio	-14866
▁register	-14867
▁severity	-14868
▁commissione	-14869
anes	-14870
▁attain	-14871
▁dotato	-14872
▁casual	-14873
▁ferrov	-14874
▁legate	-14875
▁dipende	-14876
▁proposto	-14877
▁acceptable	-14878
▁Mississippi	-14879
▁appassionati	-14880
▁coni	-14881
▁alert	-14882
▁pianta	-14883
regation	-14884
▁americano	-14885
amme	-14886
pson	-14887
uela	-14888
▁hat	-14889
▁panc	-14890
▁sg	-14891
asmo	-14892
▁veri	-14893
▁hopes	-14894
▁multim	-14895
▁passes	-14896
▁salmon	-14897
isations	-14898
▁facciamo	-14899
▁influences	-14900
▁efficiently	-14901
▁contemporanea	-14902
▁urg	-14903
▁brit	-14904
romagn	-14905
My	-14906
”)	-14907
iki	-14908
▁Meg	-14909
▁alternatives	-14910
▁reef	-14911
opportunità	-14912
▁adolescents	-14913
▁provvedimento	-14914
anium	-14915
▁rear	-14916
▁summar	-14917
▁enzymes	-14918
▁improvvis	-14919
▁atmospheric	-14920
▁evolutionary	-14921
▁Tree	-14922
▁Sleep	-14923
▁dense	-14924
▁valle	-14925
▁Internazionale	-14926
FS	-14927
▁Lady	-14928
▁Cinema	-14929
▁neglect	-14930
eted	-14931
▁Pes	-14932
oterap	-14933
▁patri	-14934
▁piscina	-14935
▁visiting	-14936
▁Bow	-14937
antica	-14938
▁wings	-14939
necessary	-14940
▁sacrific	-14941
▁digestive	-14942
▁addressing	-14943
01	-14944
▁IB	-14945
▁vedo	-14946
illance	-14947
▁regolare	-14948
CL	-14949
▁Regno	-14950
▁ostac	-14951
▁cycles	-14952
liamo	-14953
ruzzo	-14954
▁medieval	-14955
▁ristoranti	-14956
So	-14957
abis	-14958
▁ponte	-14959
▁distinction	-14960
▁29,	-14961
▁Vener	-14962
▁recall	-14963
▁themes	-14964
▁revenue	-14965
▁Nutrition	-14966
▁stipendio	-14967
Te	-14968
scar	-14969
▁broke	-14970
▁morale	-14971
obiliare	-14972
▁Samsung	-14973
▁Standards	-14974
▁motivation	-14975
/05	-14976
wall	-14977
▁Monitor	-14978
▁ricette	-14979
efficient	-14980
▁colleghi	-14981
▁successive	-14982
cor	-14983
▁poesia	-14984
84	-14985
eccato	-14986
▁favour	-14987
▁license	-14988
▁employee	-14989
▁fortemente	-14990
▁1-	-14991
phere	-14992
▁indica	-14993
▁varying	-14994
▁militare	-14995
▁modificare	-14996
bria	-14997
▁Jersey	-14998
▁patent	-14999
▁survived	-15000
▁hospitals	-15001
▁newsletter	-15002
▁raccogliere	-15003
▁Ron	-15004
abbia	-15005
▁inut	-15006
▁opinioni	-15007
ifications	-15008
6%	-15009
otting	-15010
▁aside	-15011
▁codes	-15012
▁Living	-15013
▁registrato	-15014
informazione	-15015
km	-15016
▁Ty	-15017
▁bev	-15018
▁coer	-15019
▁Making	-15020
▁cellul	-15021
▁divertente	-15022
▁Fox	-15023
▁Drug	-15024
▁scholar	-15025
▁Rab	-15026
▁1996	-15027
▁bonds	-15028
▁Giulia	-15029
▁eccess	-15030
impianto	-15031
▁restricted	-15032
▁dramatically	-15033
ptic	-15034
▁Box	-15035
group	-15036
▁diets	-15037
▁ferro	-15038
▁Philos	-15039
▁honest	-15040
▁relate	-15041
▁scambio	-15042
▁dando	-15043
onymous	-15044
▁optimal	-15045
▁libraries	-15046
▁systematic	-15047
▁fratello	-15048
RS	-15049
person	-15050
▁blocco	-15051
▁strange	-15052
▁separation	-15053
▁encouraging	-15054
▁Hop	-15055
▁beta	-15056
▁Simon	-15057
▁elderly	-15058
▁programmazione	-15059
hu	-15060
ocon	-15061
▁holy	-15062
▁kilometers	-15063
▁Cab	-15064
▁Flow	-15065
▁prost	-15066
▁Nation	-15067
▁esercizi	-15068
▁allergies	-15069
▁Vita	-15070
obbligo	-15071
▁hybrid	-15072
pm	-15073
▁yoga	-15074
▁Legge	-15075
treated	-15076
▁finito	-15077
▁rivest	-15078
▁individuare	-15079
ZI	-15080
▁os	-15081
larg	-15082
.....	-15083
▁Stone	-15084
▁firma	-15085
chestra	-15086
▁neural	-15087
▁Brescia	-15088
▁fascinating	-15089
▁administrative	-15090
▁Lt	-15091
▁PL	-15092
▁lent	-15093
▁tanta	-15094
▁legend	-15095
▁Matthew	-15096
▁democratic	-15097
etch	-15098
rics	-15099
▁Doug	-15100
▁fabb	-15101
engers	-15102
▁scales	-15103
▁deposito	-15104
▁zucchero	-15105
▁Mrs	-15106
▁Davis	-15107
▁Lascia	-15108
▁copies	-15109
▁Creative	-15110
▁collections	-15111
[...]
