<unk>	0
<s>	0
</s>	0
<pad>	0
<eod>	0
<ph_1>	0
<ph_2>	0
<ph_3>	0
<ph_4>	0
<ph_5>	0
<ph_6>	0
<ph_7>	0
<ph_8>	0
<ph_9>	0
<ph_10>	0
<ph_11>	0
<ph_12>	0
<ph_13>	0
<ph_14>	0
<ph_15>	0
<ph_16>	0
<ph_17>	0
<ph_18>	0
<ph_19>	0
<ph_20>	0
<ph_21>	0
<ph_22>	0
<ph_23>	0
<ph_24>	0
<ph_25>	0
<ph_26>	0
<ph_27>	0
<ph_28>	0
<ph_29>	0
<ph_30>	0
<ph_31>	0
<ph_32>	0
<ph_33>	0
<ph_34>	0
<ph_35>	0
<ph_36>	0
<ph_37>	0
<ph_38>	0
<ph_39>	0
<ph_40>	0
<ph_41>	0
<ph_42>	0
<ph_43>	0
<ph_44>	0
<ph_45>	0
<ph_46>	0
<ph_47>	0
<ph_48>	0
<ph_49>	0
<ph_50>	0
<ph_51>	0
<ph_52>	0
<ph_53>	0
<ph_54>	0
<ph_55>	0
<ph_56>	0
<ph_57>	0
<ph_58>	0
<ph_59>	0
<ph_60>	0
<ph_61>	0
<ph_62>	0
<ph_63>	0
<ph_64>	0
<ph_65>	0
<ph_66>	0
<ph_67>	0
<ph_68>	0
<ph_69>	0
<ph_70>	0
<ph_71>	0
<ph_72>	0
<ph_73>	0
<ph_74>	0
<ph_75>	0
<ph_76>	0
<ph_77>	0
<ph_78>	0
<ph_79>	0
<ph_80>	0
<ph_81>	0
<ph_82>	0
<ph_83>	0
<ph_84>	0
<ph_85>	0
<ph_86>	0
<ph_87>	0
<ph_88>	0
<ph_89>	0
<ph_90>	0
<ph_91>	0
<ph_92>	0
<ph_93>	0
<ph_94>	0
<ph_95>	0
<ph_96>	0
<ph_97>	0
<ph_98>	0
<ph_99>	0
<ph_100>	0
<ph_101>	0
<ph_102>	0
<ph_103>	0
<ph_104>	0
<ph_105>	0
<ph_106>	0
<ph_107>	0
<ph_108>	0
<ph_109>	0
<ph_110>	0
<ph_111>	0
<ph_112>	0
<ph_113>	0
<ph_114>	0
<ph_115>	0
<ph_116>	0
<ph_117>	0
<ph_118>	0
<ph_119>	0
<ph_120>	0
<ph_121>	0
<ph_122>	0
<ph_123>	0
<ph_124>	0
<ph_125>	0
<ph_126>	0
<ph_127>	0
<ph_128>	0
<ph_129>	0
<ph_130>	0
<ph_131>	0
<ph_132>	0
<ph_133>	0
<ph_134>	0
<ph_135>	0
<ph_136>	0
<ph_137>	0
<ph_138>	0
<ph_139>	0
<ph_140>	0
<ph_141>	0
<ph_142>	0
<ph_143>	0
<ph_144>	0
<ph_145>	0
<ph_146>	0
<ph_147>	0
<ph_148>	0
<ph_149>	0
<ph_150>	0
<ph_151>	0
<ph_152>	0
<ph_153>	0
<ph_154>	0
<ph_155>	0
<ph_156>	0
<ph_157>	0
<ph_158>	0
<ph_159>	0
<ph_160>	0
<ph_161>	0
<ph_162>	0
<ph_163>	0
<ph_164>	0
<ph_165>	0
<ph_166>	0
<ph_167>	0
<ph_168>	0
<ph_169>	0
<ph_170>	0
<ph_171>	0
<ph_172>	0
<ph_173>	0
<ph_174>	0
<ph_175>	0
<ph_176>	0
<ph_177>	0
<ph_178>	0
<ph_179>	0
<ph_180>	0
<ph_181>	0
<ph_182>	0
<ph_183>	0
<ph_184>	0
<ph_185>	0
<ph_186>	0
<ph_187>	0
<ph_188>	0
<ph_189>	0
<ph_190>	0
<ph_191>	0
<ph_192>	0
<ph_193>	0
<ph_194>	0
<ph_195>	0
<ph_196>	0
<ph_197>	0
<ph_198>	0
<ph_199>	0
<ph_200>	0
<ph_201>	0
<ph_202>	0
<ph_203>	0
<ph_204>	0
<ph_205>	0
<ph_206>	0
<ph_207>	0
<ph_208>	0
<ph_209>	0
<ph_210>	0
<ph_211>	0
<ph_212>	0
<ph_213>	0
<ph_214>	0
<ph_215>	0
<ph_216>	0
<ph_217>	0
<ph_218>	0
<ph_219>	0
<ph_220>	0
<ph_221>	0
<ph_222>	0
<ph_223>	0
<ph_224>	0
<ph_225>	0
<ph_226>	0
<ph_227>	0
<ph_228>	0
<ph_229>	0
<ph_230>	0
<ph_231>	0
<ph_232>	0
<ph_233>	0
<ph_234>	0
<ph_235>	0
<ph_236>	0
<ph_237>	0
<ph_238>	0
<ph_239>	0
<ph_240>	0
<ph_241>	0
<ph_242>	0
<ph_243>	0
<ph_244>	0
<ph_245>	0
<ph_246>	0
<ph_247>	0
<ph_248>	0
<ph_249>	0
<ph_250>	0
<ph_251>	0
<ph_252>	0
<ph_253>	0
<ph_254>	0
<ph_255>	0
<0x00>	0
<0x01>	0
<0x02>	0
<0x03>	0
<0x04>	0
<0x05>	0
<0x06>	0
<0x07>	0
<0x08>	0
<0x09>	0
<0x0A>	0
<0x0B>	0
<0x0C>	0
<0x0D>	0
<0x0E>	0
<0x0F>	0
<0x10>	0
<0x11>	0
<0x12>	0
<0x13>	0
<0x14>	0
<0x15>	0
<0x16>	0
<0x17>	0
<0x18>	0
<0x19>	0
<0x1A>	0
<0x1B>	0
<0x1C>	0
<0x1D>	0
<0x1E>	0
<0x1F>	0
<0x20>	0
<0x21>	0
<0x22>	0
<0x23>	0
<0x24>	0
<0x25>	0
<0x26>	0
<0x27>	0
<0x28>	0
<0x29>	0
<0x2A>	0
<0x2B>	0
<0x2C>	0
<0x2D>	0
<0x2E>	0
<0x2F>	0
<0x30>	0
<0x31>	0
<0x32>	0
<0x33>	0
<0x34>	0
<0x35>	0
<0x36>	0
<0x37>	0
<0x38>	0
<0x39>	0
<0x3A>	0
<0x3B>	0
<0x3C>	0
<0x3D>	0
<0x3E>	0
<0x3F>	0
<0x40>	0
<0x41>	0
<0x42>	0
<0x43>	0
<0x44>	0
<0x45>	0
<0x46>	0
<0x47>	0
<0x48>	0
<0x49>	0
<0x4A>	0
<0x4B>	0
<0x4C>	0
<0x4D>	0
<0x4E>	0
<0x4F>	0
<0x50>	0
<0x51>	0
<0x52>	0
<0x53>	0
<0x54>	0
<0x55>	0
<0x56>	0
<0x57>	0
<0x58>	0
<0x59>	0
<0x5A>	0
<0x5B>	0
<0x5C>	0
<0x5D>	0
<0x5E>	0
<0x5F>	0
<0x60>	0
<0x61>	0
<0x62>	0
<0x63>	0
<0x64>	0
<0x65>	0
<0x66>	0
<0x67>	0
<0x68>	0
<0x69>	0
<0x6A>	0
<0x6B>	0
<0x6C>	0
<0x6D>	0
<0x6E>	0
<0x6F>	0
<0x70>	0
<0x71>	0
<0x72>	0
<0x73>	0
<0x74>	0
<0x75>	0
<0x76>	0
<0x77>	0
<0x78>	0
<0x79>	0
<0x7A>	0
<0x7B>	0
<0x7C>	0
<0x7D>	0
<0x7E>	0
<0x7F>	0
<0x80>	0
<0x81>	0
<0x82>	0
<0x83>	0
<0x84>	0
<0x85>	0
<0x86>	0
<0x87>	0
<0x88>	0
<0x89>	0
<0x8A>	0
<0x8B>	0
<0x8C>	0
<0x8D>	0
<0x8E>	0
<0x8F>	0
<0x90>	0
<0x91>	0
<0x92>	0
<0x93>	0
<0x94>	0
<0x95>	0
<0x96>	0
<0x97>	0
<0x98>	0
<0x99>	0
<0x9A>	0
<0x9B>	0
<0x9C>	0
<0x9D>	0
<0x9E>	0
<0x9F>	0
<0xA0>	0
<0xA1>	0
<0xA2>	0
<0xA3>	0
<0xA4>	0
<0xA5>	0
<0xA6>	0
<0xA7>	0
<0xA8>	0
<0xA9>	0
<0xAA>	0
<0xAB>	0
<0xAC>	0
<0xAD>	0
<0xAE>	0
<0xAF>	0
<0xB0>	0
<0xB1>	0
<0xB2>	0
<0xB3>	0
<0xB4>	0
<0xB5>	0
<0xB6>	0
<0xB7>	0
<0xB8>	0
<0xB9>	0
<0xBA>	0
<0xBB>	0
<0xBC>	0
<0xBD>	0
<0xBE>	0
<0xBF>	0
<0xC0>	0
<0xC1>	0
<0xC2>	0
<0xC3>	0
<0xC4>	0
<0xC5>	0
<0xC6>	0
<0xC7>	0
<0xC8>	0
<0xC9>	0
<0xCA>	0
<0xCB>	0
<0xCC>	0
<0xCD>	0
<0xCE>	0
<0xCF>	0
<0xD0>	0
<0xD1>	0
<0xD2>	0
<0xD3>	0
<0xD4>	0
<0xD5>	0
<0xD6>	0
<0xD7>	0
<0xD8>	0
<0xD9>	0
<0xDA>	0
<0xDB>	0
<0xDC>	0
<0xDD>	0
<0xDE>	0
<0xDF>	0
<0xE0>	0
<0xE1>	0
<0xE2>	0
<0xE3>	0
<0xE4>	0
<0xE5>	0
<0xE6>	0
<0xE7>	0
<0xE8>	0
<0xE9>	0
<0xEA>	0
<0xEB>	0
<0xEC>	0
<0xED>	0
<0xEE>	0
<0xEF>	0
<0xF0>	0
<0xF1>	0
<0xF2>	0
<0xF3>	0
<0xF4>	0
<0xF5>	0
<0xF6>	0
<0xF7>	0
<0xF8>	0
<0xF9>	0
<0xFA>	0
<0xFB>	0
<0xFC>	0
<0xFD>	0
<0xFE>	0
<0xFF>	0
▁t	-0
▁a	-1
he	-2
in	-3
re	-4
▁the	-5
▁o	-6
er	-7
▁s	-8
on	-9
at	-10
en	-11
▁c	-12
▁w	-13
es	-14
is	-15
nd	-16
▁p	-17
it	-18
or	-19
al	-20
▁f	-21
▁b	-22
ed	-23
ing	-24
an	-25
▁of	-26
▁in	-27
ar	-28
ou	-29
▁to	-30
▁m	-31
▁and	-32
ic	-33
▁d	-34
ion	-35
le	-36
ro	-37
as	-38
▁h	-39
ent	-40
▁th	-41
il	-42
▁e	-43
ct	-44
▁l	-45
om	-46
▁re	-47
ve	-48
▁T	-49
st	-50
▁n	-51
▁is	-52
▁be	-53
ly	-54
ol	-55
▁g	-56
ay	-57
im	-58
▁A	-59
se	-60
id	-61
et	-62
ation	-63
ur	-64
ut	-65
▁for	-66
ce	-67
ch	-68
▁S	-69
▁that	-70
ot	-71
▁u	-72
▁on	-73
ow	-74
▁I	-75
ra	-76
ir	-77
▁st	-78
ig	-79
ver	-80
▁The	-81
▁C	-82
am	-83
ith	-84
▁y	-85
ul	-86
▁as	-87
▁wh	-88
el	-89
her	-90
▁with	-91
▁are	-92
▁an	-93
ad	-94
▁pro	-95
▁or	-96
▁con	-97
od	-98
if	-99
▁P	-100
▁M	-101
▁it	-102
▁al	-103
▁B	-104
ers	-105
em	-106
▁you	-107
▁pl	-108
ess	-109
▁(	-110
ist	-111
op	-112
est	-113
▁1	-114
ag	-115
us	-116
▁H	-117
th	-118
▁ch	-119
um	-120
▁ha	-121
ies	-122
ore	-123
ill	-124
▁he	-125
ect	-126
▁com	-127
ate	-128
ter	-129
ere	-130
▁ex	-131
▁W	-132
▁de	-133
ive	-134
▁v	-135
qu	-136
ld	-137
rom	-138
▁D	-139
ity	-140
▁su	-141
ment	-142
▁by	-143
ab	-144
ci	-145
▁at	-146
▁-	-147
ke	-148
ud	-149
nt	-150
iv	-151
os	-152
res	-153
▁se	-154
▁F	-155
▁can	-156
▁E	-157
ant	-158
▁from	-159
ac	-160
pp	-161
ain	-162
igh	-163
▁R	-164
▁r	-165
▁ne	-166
▁le	-167
▁was	-168
and	-169
ort	-170
art	-171
▁have	-172
og	-173
▁play	-174
▁N	-175
▁2	-176
ical	-177
ild	-178
▁G	-179
ure	-180
▁not	-181
▁ab	-182
ions	-183
▁L	-184
out	-185
ri	-186
▁sp	-187
ost	-188
un	-189
▁their	-190
▁wor	-191
▁sh	-192
ich	-193
ome	-194
▁en	-195
all	-196
ge	-197
ight	-198
ther	-199
▁k	-200
▁this	-201
▁O	-202
pt	-203
ood	-204
▁im	-205
rou	-206
ine	-207
▁In	-208
ould	-209
ans	-210
▁whe	-211
ous	-212
00	-213
du	-214
▁we	-215
our	-216
ast	-217
▁us	-218
▁comp	-219
per	-220
ide	-221
ated	-222
gh	-223
▁which	-224
▁int	-225
▁more	-226
act	-227
ear	-228
ru	-229
▁Th	-230
ell	-231
are	-232
▁they	-233
oc	-234
ff	-235
▁U	-236
ally	-237
ard	-238
ary	-239
▁so	-240
▁ad	-241
vel	-242
ib	-243
▁J	-244
▁inc	-245
▁child	-246
ak	-247
ew	-248
pl	-249
cc	-250
▁dis	-251
so	-252
ence	-253
▁other	-254
iz	-255
▁all	-256
▁do	-257
ust	-258
▁res	-259
▁will	-260
end	-261
▁about	-262
ia	-263
age	-264
ong	-265
▁your	-266
ap	-267
▁cont	-268
▁has	-269
ult	-270
ime	-271
ren	-272
▁cl	-273
▁ev	-274
orm	-275
▁man	-276
▁“	-277
ial	-278
ep	-279
ens	-280
reat	-281
ents	-282
ations	-283
ry	-284
▁un	-285
ok	-286
▁one	-287
▁were	-288
one	-289
▁who	-290
ance	-291
▁stud	-292
▁imp	-293
▁part	-294
row	-295
ass	-296
ake	-297
▁per	-298
ire	-299
▁qu	-300
ind	-301
▁but	-302
able	-303
ip	-304
▁me	-305
av	-306
ub	-307
▁when	-308
▁ar	-309
▁out	-310
▁inf	-311
▁than	-312
ater	-313
ign	-314
▁St	-315
ress	-316
▁them	-317
▁some	-318
▁j	-319
▁19	-320
▁This	-321
nder	-322
ach	-323
▁It	-324
▁te	-325
▁also	-326
ition	-327
▁"	-328
olog	-329
ec	-330
ang	-331
very	-332
vers	-333
▁K	-334
ory	-335
▁work	-336
ount	-337
ack	-338
ame	-339
ace	-340
ase	-341
au	-342
ces	-343
ike	-344
).	-345
ice	-346
ose	-347
ction	-348
▁rec	-349
▁app	-350
ning	-351
ber	-352
▁time	-353
ook	-354
ord	-355
▁pre	-356
ish	-357
▁under	-358
ree	-359
ors	-360
▁what	-361
ue	-362
iff	-363
▁his	-364
velop	-365
▁children	-366
▁there	-367
▁how	-368
▁up	-369
▁bec	-370
▁its	-371
mer	-372
▁pe	-373
▁into	-374
ie	-375
ric	-376
ile	-377
▁Ch	-378
▁sy	-379
▁year	-380
ons	-381
ays	-382
ite	-383
▁these	-384
ian	-385
own	-386
▁been	-387
lic	-388
▁off	-389
ound	-390
lud	-391
▁diff	-392
low	-393
▁comm	-394
▁our	-395
▁may	-396
ings	-397
pe	-398
▁V	-399
ual	-400
ople	-401
ail	-402
ates	-403
▁develop	-404
ram	-405
▁Y	-406
rain	-407
▁cons	-408
ough	-409
▁ag	-410
ys	-411
▁col	-412
▁3	-413
▁kn	-414
ll	-415
▁go	-416
▁act	-417
▁no	-418
▁includ	-419
▁gen	-420
ph	-421
ink	-422
int	-423
ific	-424
▁most	-425
▁bet	-426
ution	-427
irst	-428
▁ro	-429
eth	-430
ved	-431
rit	-432
▁20	-433
▁bl	-434
ities	-435
we	-436
▁like	-437
▁had	-438
▁over	-439
cial	-440
erm	-441
alth	-442
rough	-443
▁people	-444
ond	-445
▁such	-446
ove	-447
▁if	-448
ause	-449
▁need	-450
ath	-451
▁any	-452
hed	-453
▁use	-454
ark	-455
ise	-456
uring	-457
▁would	-458
als	-459
iss	-460
▁pr	-461
▁sa	-462
▁way	-463
te	-464
▁des	-465
▁only	-466
▁hel	-467
lect	-468
ious	-469
rad	-470
ject	-471
ob	-472
▁differe	-473
▁acc	-474
▁tw	-475
ool	-476
▁new	-477
ating	-478
..	-479
▁help	-480
▁add	-481
▁many	-482
▁first	-483
les	-484
▁produ	-485
stem	-486
▁rel	-487
▁am	-488
ck	-489
fter	-490
ple	-491
wn	-492
ists	-493
▁fl	-494
red	-495
ational	-496
▁sc	-497
oss	-498
sel	-499
round	-500
▁em	-501
ffect	-502
▁fe	-503
▁Wh	-504
▁Un	-505
hen	-506
▁lear	-507
▁tr	-508
▁hum	-509
erv	-510
ative	-511
ular	-512
tern	-513
▁grow	-514
old	-515
▁ob	-516
▁sci	-517
▁att	-518
cess	-519
▁her	-520
ced	-521
uch	-522
▁rep	-523
),	-524
▁ph	-525
▁used	-526
ible	-527
▁make	-528
ble	-529
▁quest	-530
▁pers	-531
ife	-532
▁get	-533
ased	-534
▁dec	-535
ids	-536
▁through	-537
pect	-538
▁ind	-539
▁prov	-540
ract	-541
arch	-542
''	-543
▁inst	-544
▁As	-545
▁He	-546
▁well	-547
▁po	-548
▁reg	-549
ween	-550
▁cent	-551
ick	-552
ics	-553
▁two	-554
ts	-555
ered	-556
▁could	-557
▁An	-558
▁di	-559
ful	-560
▁system	-561
rib	-562
▁between	-563
ments	-564
▁car	-565
its	-566
▁study	-567
oth	-568
▁ac	-569
ility	-570
▁4	-571
ily	-572
▁health	-573
▁bu	-574
▁If	-575
▁gener	-576
▁sur	-577
▁ext	-578
ne	-579
iew	-580
ft	-581
▁–	-582
▁rese	-583
ology	-584
ert	-585
▁200	-586
▁form	-587
meric	-588
▁import	-589
▁They	-590
ower	-591
▁--	-592
chool	-593
▁Al	-594
ks	-595
ublic	-596
▁should	-597
ruct	-598
fore	-599
▁201	-600
olution	-601
▁years	-602
▁co	-603
▁supp	-604
ures	-605
▁much	-606
▁rem	-607
ines	-608
▁5	-609
▁after	-610
ern	-611
▁during	-612
▁own	-613
▁inv	-614
ten	-615
▁water	-616
▁How	-617
▁lar	-618
▁sub	-619
ade	-620
▁long	-621
▁inform	-622
gan	-623
urn	-624
▁world	-625
ism	-626
▁Americ	-627
▁just	-628
ied	-629
aw	-630
▁count	-631
itt	-632
▁too	-633
▁sm	-634
▁different	-635
cy	-636
arm	-637
▁sk	-638
▁incre	-639
▁exper	-640
▁ins	-641
▁disc	-642
▁where	-643
hes	-644
▁pres	-645
ange	-646
▁ra	-647
aking	-648
▁For	-649
ov	-650
▁som	-651
▁questions	-652
▁high	-653
ness	-654
ives	-655
▁call	-656
ever	-657
▁trans	-658
▁ear	-659
▁sign	-660
ited	-661
ident	-662
land	-663
uc	-664
▁prog	-665
ng	-666
xt	-667
▁every	-668
ants	-669
▁We	-670
▁inter	-671
▁test	-672
stand	-673
▁pol	-674
ros	-675
form	-676
▁fact	-677
▁being	-678
▁seem	-679
▁know	-680
ral	-681
chn	-682
ues	-683
ural	-684
▁exp	-685
▁less	-686
▁num	-687
ury	-688
▁life	-689
▁mod	-690
ict	-691
▁mem	-692
arent	-693
▁kids	-694
▁Re	-695
▁exam	-696
ected	-697
ont	-698
▁important	-699
▁med	-700
▁art	-701
▁mon	-702
uss	-703
ps	-704
▁18	-705
▁found	-706
▁spec	-707
imes	-708
gy	-709
▁because	-710
▁then	-711
ually	-712
▁Ar	-713
▁did	-714
▁even	-715
▁Pro	-716
ized	-717
ves	-718
oy	-719
▁very	-720
▁students	-721
▁But	-722
▁sim	-723
▁does	-724
ature	-725
ata	-726
▁effect	-727
▁ed	-728
ivers	-729
other	-730
▁ty	-731
▁det	-732
cept	-733
▁bod	-734
▁person	-735
▁cur	-736
▁conc	-737
▁see	-738
und	-739
▁including	-740
vent	-741
▁those	-742
▁pop	-743
▁ref	-744
get	-745
ically	-746
▁good	-747
▁So	-748
ames	-749
▁fol	-750
ety	-751
ient	-752
▁school	-753
▁understand	-754
▁Com	-755
▁said	-756
▁ke	-757
▁comple	-758
▁look	-759
▁var	-760
ork	-761
ething	-762
ense	-763
▁sec	-764
.”	-765
rol	-766
iel	-767
itive	-768
ds	-769
▁loc	-770
▁ass	-771
io	-772
imate	-773
ases	-774
ries	-775
▁while	-776
vern	-777
▁each	-778
▁pat	-779
▁resp	-780
led	-781
▁result	-782
ef	-783
▁spe	-784
▁something	-785
▁partic	-786
▁There	-787
▁set	-788
▁brain	-789
▁And	-790
▁process	-791
▁val	-792
▁ca	-793
▁program	-794
▁development	-795
▁my	-796
▁she	-797
▁information	-798
▁6	-799
▁dist	-800
▁pass	-801
ental	-802
iron	-803
▁fam	-804
ather	-805
▁def	-806
▁great	-807
ins	-808
▁commun	-809
▁research	-810
▁human	-811
▁techn	-812
ages	-813
▁dep	-814
▁requ	-815
▁three	-816
▁cre	-817
ccess	-818
▁activ	-819
ward	-820
▁right	-821
▁ent	-822
▁char	-823
▁wom	-824
▁read	-825
▁tra	-826
ger	-827
▁follow	-828
blem	-829
iqu	-830
▁same	-831
ting	-832
IV	-833
▁|	-834
▁aut	-835
day	-836
▁level	-837
▁made	-838
▁lead	-839
▁anim	-840
ices	-841
▁food	-842
ined	-843
ving	-844
hip	-845
gg	-846
▁bi	-847
▁end	-848
any	-849
▁back	-850
▁find	-851
▁evolution	-852
▁str	-853
▁cour	-854
▁min	-855
arents	-856
ize	-857
ional	-858
med	-859
▁scient	-860
ty	-861
▁think	-862
▁called	-863
ection	-864
▁problem	-865
The	-866
▁av	-867
▁public	-868
▁You	-869
ars	-870
▁learning	-871
▁both	-872
▁build	-873
▁che	-874
way	-875
onom	-876
▁fre	-877
▁HIV	-878
▁data	-879
▁before	-880
▁still	-881
▁grou	-882
▁New	-883
▁tru	-884
ale	-885
rown	-886
▁hist	-887
▁show	-888
ials	-889
▁small	-890
ince	-891
▁expl	-892
▁(1	-893
▁again	-894
viron	-895
.,	-896
▁Ind	-897
▁beh	-898
ement	-899
ination	-900
▁pract	-901
▁view	-902
▁ide	-903
▁ser	-904
▁appro	-905
▁using	-906
▁few	-907
▁success	-908
ering	-909
orn	-910
inal	-911
▁gl	-912
▁real	-913
bers	-914
▁bo	-915
000	-916
▁place	-917
▁prot	-918
read	-919
▁might	-920
nce	-921
ished	-922
▁sex	-923
▁often	-924
ivid	-925
▁main	-926
▁cell	-927
▁treat	-928
hood	-929
ax	-930
▁without	-931
▁creat	-932
▁br	-933
ute	-934
ergy	-935
▁poss	-936
▁now	-937
▁him	-938
▁learn	-939
ock	-940
ix	-941
▁dise	-942
▁iss	-943
▁7	-944
irect	-945
line	-946
▁day	-947
oh	-948
ential	-949
▁10	-950
▁pur	-951
der	-952
▁What	-953
▁power	-954
iversity	-955
▁take	-956
▁pos	-957
▁occ	-958
▁social	-959
||	-960
▁don	-961
▁number	-962
less	-963
ffic	-964
20	-965
▁ris	-966
▁provid	-967
alk	-968
▁ec	-969
akes	-970
ulation	-971
▁vis	-972
▁organ	-973
▁support	-974
▁''	-975
▁When	-976
▁Se	-977
▁air	-978
▁Is	-979
▁rest	-980
▁impro	-981
vironment	-982
▁ask	-983
iness	-984
com	-985
cent	-986
▁skill	-987
ological	-988
▁down	-989
ven	-990
selves	-991
▁fun	-992
air	-993
iving	-994
ital	-995
▁govern	-996
▁bel	-997
rist	-998
▁est	-999
▁design	-1000
hers	-1001
cing	-1002
▁body	-1003
▁eng	-1004
▁must	-1005
▁around	-1006
▁class	-1007
▁These	-1008
up	-1009
ier	-1010
az	-1011
▁hand	-1012
▁old	-1013
tt	-1014
▁8	-1015
▁best	-1016
ah	-1017
ield	-1018
raph	-1019
▁blood	-1020
▁point	-1021
ience	-1022
▁land	-1023
▁cond	-1024
▁Pl	-1025
▁common	-1026
▁conf	-1027
ex	-1028
aj	-1029
▁elect	-1030
▁start	-1031
self	-1032
▁plan	-1033
▁last	-1034
ains	-1035
rent	-1036
▁redu	-1037
the	-1038
-1	-1039
▁contin	-1040
ouse	-1041
▁large	-1042
ories	-1043
▁report	-1044
ave	-1045
▁Sp	-1046
ency	-1047
▁science	-1048
▁tre	-1049
▁say	-1050
ared	-1051
▁consid	-1052
by	-1053
▁cle	-1054
▁.	-1055
▁example	-1056
ross	-1057
▁offic	-1058
icle	-1059
ote	-1060
▁feel	-1061
ead	-1062
used	-1063
▁To	-1064
."	-1065
ittle	-1066
▁ret	-1067
▁though	-1068
ron	-1069
ibr	-1070
itions	-1071
▁const	-1072
▁op	-1073
▁miss	-1074
▁care	-1075
▁cor	-1076
acter	-1077
▁happ	-1078
ull	-1079
▁themselves	-1080
▁mean	-1081
cer	-1082
,”	-1083
▁serv	-1084
▁allow	-1085
▁games	-1086
▁prom	-1087
ash	-1088
▁9	-1089
ran	-1090
ogn	-1091
▁met	-1092
▁educ	-1093
▁writ	-1094
▁equ	-1095
eg	-1096
▁cal	-1097
▁bus	-1098
▁animals	-1099
ality	-1100
cially	-1101
iver	-1102
▁adv	-1103
▁known	-1104
outh	-1105
iven	-1106
sy	-1107
▁times	-1108
...	-1109
▁state	-1110
reen	-1111
▁playing	-1112
erest	-1113
▁Con	-1114
,000	-1115
▁‘	-1116
att	-1117
▁Res	-1118
ls	-1119
▁head	-1120
▁199	-1121
0.	-1122
▁del	-1123
▁Brown	-1124
▁gu	-1125
be	-1126
ired	-1127
▁Ad	-1128
▁sol	-1129
▁dr	-1130
▁little	-1131
ividual	-1132
▁month	-1133
▁childhood	-1134
▁free	-1135
▁De	-1136
lish	-1137
▁eas	-1138
▁book	-1139
erous	-1140
aps	-1141
osed	-1142
▁Eng	-1143
▁list	-1144
eral	-1145
▁stand	-1146
oms	-1147
▁University	-1148
▁leav	-1149
ets	-1150
ium	-1151
ived	-1152
soci	-1153
▁However	-1154
▁American	-1155
ior	-1156
ources	-1157
▁Sci	-1158
ization	-1159
▁chang	-1160
▁dem	-1161
▁mater	-1162
sc	-1163
▁Ph	-1164
aper	-1165
ason	-1166
▁tem	-1167
▁typ	-1168
me	-1169
ID	-1170
els	-1171
▁energy	-1172
▁present	-1173
ument	-1174
ording	-1175
ertain	-1176
▁environment	-1177
▁At	-1178
▁vide	-1179
▁within	-1180
▁Ex	-1181
ured	-1182
▁comput	-1183
illion	-1184
oun	-1185
ians	-1186
▁direct	-1187
▁want	-1188
▁recent	-1189
let	-1190
▁change	-1191
▁term	-1192
▁Sh	-1193
orth	-1194
▁evolutionary	-1195
aring	-1196
▁phys	-1197
▁trad	-1198
cl	-1199
eng	-1200
ption	-1201
ethod	-1202
▁product	-1203
▁disease	-1204
▁ess	-1205
▁individual	-1206
▁ident	-1207
▁comb	-1208
▁mark	-1209
▁another	-1210
▁sym	-1211
▁sing	-1212
ted	-1213
man	-1214
▁growing	-1215
▁days	-1216
ug	-1217
▁sl	-1218
▁compet	-1219
▁women	-1220
uro	-1221
▁vir	-1222
▁bre	-1223
▁dam	-1224
▁&	-1225
ration	-1226
▁project	-1227
▁area	-1228
▁rele	-1229
▁past	-1230
▁pot	-1231
ability	-1232
▁today	-1233
iod	-1234
angu	-1235
▁bas	-1236
agn	-1237
pr	-1238
▁desc	-1239
sw	-1240
▁interest	-1241
▁On	-1242
▁ben	-1243
▁prof	-1244
▁belie	-1245
▁light	-1246
asing	-1247
ajor	-1248
▁mus	-1249
▁ve	-1250
▁why	-1251
ators	-1252
▁home	-1253
▁law	-1254
▁cap	-1255
ats	-1256
▁humans	-1257
▁discuss	-1258
▁include	-1259
ner	-1260
▁government	-1261
▁central	-1262
ified	-1263
▁ant	-1264
ained	-1265
bs	-1266
▁left	-1267
▁control	-1268
isc	-1269
aim	-1270
▁lost	-1271
▁risk	-1272
▁side	-1273
▁respons	-1274
▁Cl	-1275
▁mat	-1276
▁countries	-1277
lished	-1278
▁video	-1279
▁vari	-1280
▁cult	-1281
▁against	-1282
▁mil	-1283
▁away	-1284
▁leg	-1285
▁link	-1286
▁colle	-1287
▁Can	-1288
▁opp	-1289
▁having	-1290
rodu	-1291
atic	-1292
▁early	-1293
ify	-1294
gin	-1295
inf	-1296
▁become	-1297
▁sever	-1298
atural	-1299
ibrary	-1300
▁econom	-1301
▁Col	-1302
▁business	-1303
▁meas	-1304
▁war	-1305
▁low	-1306
ton	-1307
hor	-1308
▁pain	-1309
arc	-1310
▁et	-1311
▁general	-1312
ik	-1313
▁Are	-1314
▁hy	-1315
ways	-1316
lement	-1317
quent	-1318
ipp	-1319
▁asked	-1320
▁fund	-1321
▁—	-1322
▁method	-1323
▁move	-1324
▁Q	-1325
▁proper	-1326
rop	-1327
ision	-1328
▁United	-1329
▁here	-1330
▁anal	-1331
▁second	-1332
▁[	-1333
▁family	-1334
▁step	-1335
▁better	-1336
ush	-1337
▁fore	-1338
itional	-1339
ource	-1340
▁sit	-1341
▁ground	-1342
ank	-1343
▁sens	-1344
▁percent	-1345
▁group	-1346
ux	-1347
▁history	-1348
▁gra	-1349
olved	-1350
▁provide	-1351
▁Comm	-1352
here	-1353
▁means	-1354
▁unt	-1355
chie	-1356
▁Their	-1357
▁15	-1358
▁major	-1359
time	-1360
ager	-1361
use	-1362
▁oper	-1363
▁keep	-1364
▁Z	-1365
▁occur	-1366
▁avail	-1367
▁loss	-1368
▁order	-1369
▁particular	-1370
▁dev	-1371
ention	-1372
ards	-1373
ream	-1374
▁es	-1375
▁near	-1376
ences	-1377
▁Do	-1378
▁growth	-1379
▁activities	-1380
ised	-1381
▁current	-1382
▁Be	-1383
▁top	-1384
▁par	-1385
▁fin	-1386
▁possible	-1387
▁convers	-1388
▁value	-1389
▁orig	-1390
▁several	-1391
idence	-1392
▁cause	-1393
,"	-1394
ples	-1395
▁really	-1396
▁passed	-1397
ograph	-1398
sych	-1399
▁fall	-1400
ware	-1401
▁done	-1402
ina	-1403
▁single	-1404
oid	-1405
▁saf	-1406
▁members	-1407
ret	-1408
▁five	-1409
irc	-1410
▁article	-1411
▁En	-1412
▁since	-1413
▁period	-1414
▁All	-1415
▁indu	-1416
amp	-1417
▁able	-1418
view	-1419
▁hig	-1420
▁mo	-1421
▁species	-1422
▁open	-1423
▁men	-1424
angerous	-1425
▁achie	-1426
▁things	-1427
▁One	-1428
▁came	-1429
▁God	-1430
▁field	-1431
▁perform	-1432
▁infl	-1433
▁says	-1434
▁el	-1435
▁issues	-1436
ients	-1437
▁paper	-1438
though	-1439
▁stat	-1440
▁address	-1441
▁areas	-1442
▁lim	-1443
▁spent	-1444
▁langu	-1445
fficient	-1446
▁benef	-1447
ights	-1448
▁States	-1449
ator	-1450
__	-1451
leep	-1452
▁name	-1453
▁non	-1454
▁among	-1455
ides	-1456
▁others	-1457
▁country	-1458
▁flu	-1459
▁Or	-1460
▁skills	-1461
osp	-1462
gen	-1463
▁treatment	-1464
▁extent	-1465
▁four	-1466
▁arg	-1467
▁affect	-1468
▁complex	-1469
ek	-1470
2.	-1471
▁based	-1472
▁cells	-1473
▁becom	-1474
▁prop	-1475
aged	-1476
ww	-1477
ivity	-1478
▁gr	-1479
▁object	-1480
▁following	-1481
▁available	-1482
ploy	-1483
▁Te	-1484
▁claim	-1485
▁officials	-1486
▁Christ	-1487
▁understanding	-1488
ilar	-1489
▁plant	-1490
lying	-1491
ended	-1492
▁signific	-1493
▁certain	-1494
▁concern	-1495
rying	-1496
▁Most	-1497
▁17	-1498
stit	-1499
▁National	-1500
▁vers	-1501
rap	-1502
ably	-1503
▁Cent	-1504
▁cost	-1505
▁post	-1506
ling	-1507
une	-1508
▁Some	-1509
▁access	-1510
▁ever	-1511
▁run	-1512
▁case	-1513
ends	-1514
▁struct	-1515
▁months	-1516
pro	-1517
▁age	-1518
▁infected	-1519
▁fr	-1520
▁prevent	-1521
▁parents	-1522
▁With	-1523
uses	-1524
elf	-1525
urther	-1526
▁local	-1527
▁bro	-1528
▁library	-1529
aging	-1530
▁hop	-1531
iter	-1532
to	-1533
▁sense	-1534
▁rece	-1535
▁computer	-1536
▁conn	-1537
▁press	-1538
▁happen	-1539
1.	-1540
▁later	-1541
▁mar	-1542
inter	-1543
▁lab	-1544
▁bir	-1545
▁come	-1546
resent	-1547
urope	-1548
ched	-1549
▁put	-1550
par	-1551
ots	-1552
▁increasing	-1553
▁By	-1554
oint	-1555
▁until	-1556
nces	-1557
ression	-1558
▁intern	-1559
ggest	-1560
▁talk	-1561
erc	-1562
▁Med	-1563
▁missing	-1564
▁hard	-1565
ged	-1566
▁seemed	-1567
▁neu	-1568
▁type	-1569
▁online	-1570
▁true	-1571
▁tri	-1572
▁problems	-1573
▁conversation	-1574
▁levels	-1575
work	-1576
▁polit	-1577
▁cr	-1578
ither	-1579
IDS	-1580
▁vol	-1581
▁natural	-1582
▁young	-1583
▁Af	-1584
▁fac	-1585
▁associ	-1586
▁16	-1587
lex	-1588
▁foc	-1589
icult	-1590
▁experim	-1591
▁turn	-1592
▁given	-1593
▁scientists	-1594
▁shown	-1595
ones	-1596
por	-1597
▁amount	-1598
▁Le	-1599
ately	-1600
▁lo	-1601
▁suggest	-1602
▁lives	-1603
▁$	-1604
▁Europe	-1605
▁sleep	-1606
▁heart	-1607
ances	-1608
▁short	-1609
duc	-1610
ades	-1611
ox	-1612
▁Ear	-1613
de	-1614
ortun	-1615
▁determ	-1616
▁indust	-1617
▁flow	-1618
▁sw	-1619
▁US	-1620
▁making	-1621
uture	-1622
▁cho	-1623
▁positive	-1624
aken	-1625
▁mult	-1626
str	-1627
▁ste	-1628
hem	-1629
▁12	-1630
▁Wor	-1631
atory	-1632
oor	-1633
uge	-1634
▁train	-1635
▁Bl	-1636
▁invest	-1637
▁along	-1638
▁Parents	-1639
ledge	-1640
over	-1641
▁circ	-1642
▁impact	-1643
▁rad	-1644
▁likely	-1645
▁education	-1646
▁course	-1647
▁developing	-1648
ym	-1649
▁function	-1650
anes	-1651
▁significant	-1652
▁force	-1653
not	-1654
▁death	-1655
vious	-1656
emen	-1657
▁AIDS	-1658
▁due	-1659
▁century	-1660
ohn	-1661
br	-1662
▁appear	-1663
▁ele	-1664
▁mess	-1665
▁fil	-1666
face	-1667
ication	-1668
▁words	-1669
ission	-1670
▁behav	-1671
orts	-1672
▁always	-1673
▁lux	-1674
▁Educ	-1675
▁wood	-1676
▁million	-1677
▁far	-1678
min	-1679
▁ideas	-1680
▁population	-1681
etic	-1682
omm	-1683
erson	-1684
▁Brit	-1685
10	-1686
▁eager	-1687
ament	-1688
agement	-1689
▁That	-1690
▁author	-1691
▁'	-1692
ending	-1693
haps	-1694
cle	-1695
▁community	-1696
ring	-1697
irit	-1698
ulated	-1699
aster	-1700
▁increase	-1701
▁dou	-1702
3.	-1703
▁systems	-1704
▁Sc	-1705
▁above	-1706
pective	-1707
ours	-1708
▁teac	-1709
▁describ	-1710
▁obs	-1711
▁instead	-1712
▁luxury	-1713
▁usually	-1714
pecially	-1715
▁cancer	-1716
ember	-1717
ciety	-1718
ored	-1719
▁give	-1720
▁ill	-1721
▁clear	-1722
▁record	-1723
▁dra	-1724
idd	-1725
▁exist	-1726
▁results	-1727
▁(2	-1728
▁language	-1729
▁scientific	-1730
▁someone	-1731
▁line	-1732
▁difficult	-1733
▁disp	-1734
▁essential	-1735
ape	-1736
▁ey	-1737
▁conditions	-1738
▁Dr	-1739
▁space	-1740
▁technology	-1741
▁estab	-1742
▁specific	-1743
obal	-1744
oph	-1745
▁temper	-1746
▁next	-1747
▁enc	-1748
ler	-1749
most	-1750
ott	-1751
▁seems	-1752
▁imm	-1753
▁create	-1754
▁pub	-1755
1,	-1756
hern	-1757
▁character	-1758
▁trees	-1759
▁similar	-1760
▁larger	-1761
▁special	-1762
▁crit	-1763
▁playtime	-1764
▁begin	-1765
▁Afric	-1766
▁er	-1767
▁consum	-1768
ruction	-1769
aining	-1770
▁needs	-1771
▁aud	-1772
▁behind	-1773
ribut	-1774
app	-1775
su	-1776
▁future	-1777
▁never	-1778
▁changes	-1779
▁applic	-1780
rug	-1781
▁experience	-1782
▁John	-1783
bit	-1784
▁Germ	-1785
▁necess	-1786
of	-1787
▁least	-1788
▁however	-1789
ptoms	-1790
▁strong	-1791
▁host	-1792
▁effective	-1793
▁aspect	-1794
▁Go	-1795
▁mot	-1796
▁higher	-1797
▁Im	-1798
▁researc	-1799
▁across	-1800
▁kind	-1801
▁Gen	-1802
▁toget	-1803
▁Bo	-1804
▁together	-1805
▁While	-1806
apt	-1807
ique	-1808
nal	-1809
alf	-1810
▁various	-1811
ann	-1812
ilities	-1813
▁complete	-1814
atch	-1815
ison	-1816
▁dark	-1817
▁enough	-1818
oney	-1819
▁frequent	-1820
▁War	-1821
enn	-1822
af	-1823
▁After	-1824
4.	-1825
ane	-1826
▁profess	-1827
▁Ab	-1828
▁working	-1829
5.	-1830
▁chem	-1831
unt	-1832
ode	-1833
▁works	-1834
duct	-1835
pre	-1836
arming	-1837
▁(19	-1838
▁198	-1839
▁Ne	-1840
▁became	-1841
▁net	-1842
ateg	-1843
▁especially	-1844
uous	-1845
ilt	-1846
thing	-1847
▁Americans	-1848
ley	-1849
▁plac	-1850
▁Am	-1851
▁told	-1852
▁cases	-1853
ales	-1854
▁leaves	-1855
▁Intern	-1856
ially	-1857
▁require	-1858
▁plants	-1859
▁cy	-1860
▁memory	-1861
ses	-1862
▁prim	-1863
aching	-1864
▁tool	-1865
▁World	-1866
▁English	-1867
▁norm	-1868
▁full	-1869
▁key	-1870
▁sum	-1871
▁spirit	-1872
ges	-1873
▁1.	-1874
acy	-1875
▁ways	-1876
ysis	-1877
▁z	-1878
ires	-1879
▁improve	-1880
oot	-1881
urt	-1882
▁represent	-1883
istic	-1884
port	-1885
li	-1886
▁studies	-1887
put	-1888
▁subject	-1889
▁Car	-1890
▁effects	-1891
50	-1892
▁city	-1893
NA	-1894
▁consider	-1895
▁Stud	-1896
ued	-1897
ising	-1898
reet	-1899
▁relations	-1900
itor	-1901
erence	-1902
▁team	-1903
side	-1904
▁fear	-1905
▁pen	-1906
▁house	-1907
▁let	-1908
aith	-1909
▁reason	-1910
yn	-1911
▁knowledge	-1912
mber	-1913
ung	-1914
▁woman	-1915
▁protect	-1916
bt	-1917
▁whether	-1918
▁Ge	-1919
▁types	-1920
▁Pr	-1921
▁lower	-1922
ms	-1923
▁alone	-1924
▁She	-1925
▁further	-1926
ready	-1927
6.	-1928
▁polic	-1929
▁going	-1930
▁Cal	-1931
▁makes	-1932
▁room	-1933
▁physical	-1934
▁everyone	-1935
ird	-1936
▁account	-1937
▁mind	-1938
▁Health	-1939
▁Resear	-1940
▁Mar	-1941
▁employ	-1942
//	-1943
▁sequ	-1944
▁question	-1945
▁Book	-1946
amm	-1947
▁virus	-1948
▁self	-1949
▁live	-1950
▁perhaps	-1951
▁eff	-1952
▁differences	-1953
aut	-1954
▁story	-1955
▁role	-1956
▁gir	-1957
iting	-1958
▁mic	-1959
▁ur	-1960
▁patients	-1961
▁rise	-1962
▁symptoms	-1963
eter	-1964
augh	-1965
ee	-1966
▁arr	-1967
2,	-1968
▁Public	-1969
▁big	-1970
▁close	-1971
▁expect	-1972
ae	-1973
ett	-1974
▁influ	-1975
▁rather	-1976
▁30	-1977
▁groups	-1978
▁imag	-1979
▁prob	-1980
velopment	-1981
▁seen	-1982
▁particip	-1983
▁chall	-1984
▁evidence	-1985
imens	-1986
▁opt	-1987
more	-1988
ification	-1989
▁below	-1990
▁emp	-1991
▁word	-1992
▁May	-1993
▁text	-1994
eds	-1995
▁site	-1996
ibility	-1997
8.	-1998
▁already	-1999
▁sure	-2000
urch	-2001
://	-2002
▁activity	-2003
▁pred	-2004
▁neg	-2005
ches	-2006
etimes	-2007
atures	-2008
▁indic	-2009
▁toward	-2010
▁North	-2011
▁wr	-2012
ules	-2013
ands	-2014
▁West	-2015
▁phot	-2016
▁either	-2017
▁sun	-2018
3,	-2019
urity	-2020
amin	-2021
▁nut	-2022
ried	-2023
ables	-2024
overed	-2025
▁range	-2026
▁chance	-2027
▁Aust	-2028
▁dig	-2029
verage	-2030
▁resources	-2031
▁developed	-2032
iol	-2033
▁model	-2034
▁anx	-2035
uild	-2036
ites	-2037
▁material	-2038
9.	-2039
▁return	-2040
▁deg	-2041
wh	-2042
oura	-2043
▁14	-2044
▁Rep	-2045
▁mag	-2046
▁dol	-2047
▁products	-2048
inci	-2049
▁national	-2050
ival	-2051
▁collect	-2052
now	-2053
▁recogn	-2054
▁black	-2055
7.	-2056
▁decades	-2057
▁addition	-2058
▁Man	-2059
▁once	-2060
▁wind	-2061
▁event	-2062
▁production	-2063
bon	-2064
lo	-2065
▁according	-2066
▁instruct	-2067
▁medical	-2068
▁197	-2069
▁sent	-2070
osis	-2071
▁potential	-2072
▁South	-2073
▁mass	-2074
▁Dep	-2075
▁ens	-2076
▁doct	-2077
▁building	-2078
▁taken	-2079
▁upon	-2080
▁Acc	-2081
▁researchers	-2082
▁ann	-2083
▁lot	-2084
▁rate	-2085
ivil	-2086
ER	-2087
▁dom	-2088
▁climate	-2089
▁political	-2090
▁released	-2091
▁drug	-2092
▁whole	-2093
uation	-2094
▁oil	-2095
▁liqu	-2096
▁Cont	-2097
▁America	-2098
▁becoming	-2099
ien	-2100
▁Act	-2101
▁relig	-2102
acc	-2103
▁surface	-2104
▁meet	-2105
▁message	-2106
val	-2107
▁quality	-2108
▁init	-2109
▁Hist	-2110
30	-2111
ule	-2112
ologists	-2113
▁trust	-2114
amental	-2115
roll	-2116
cking	-2117
▁abs	-2118
fer	-2119
▁Hol	-2120
▁Scient	-2121
▁York	-2122
▁red	-2123
ournal	-2124
fact	-2125
ulum	-2126
▁source	-2127
▁11	-2128
▁living	-2129
▁detail	-2130
ognitive	-2131
▁dest	-2132
▁hold	-2133
5,	-2134
▁Earth	-2135
rict	-2136
▁dangerous	-2137
▁created	-2138
▁nature	-2139
▁reduce	-2140
▁wide	-2141
▁concept	-2142
son	-2143
▁cannot	-2144
▁college	-2145
▁thought	-2146
▁burn	-2147
▁fail	-2148
▁cut	-2149
▁considered	-2150
▁His	-2151
▁white	-2152
▁Co	-2153
▁tot	-2154
▁introdu	-2155
▁itself	-2156
ips	-2157
▁Sy	-2158
rect	-2159
▁Fl	-2160
▁answ	-2161
▁attack	-2162
org	-2163
▁cop	-2164
▁Many	-2165
▁histor	-2166
▁tell	-2167
▁published	-2168
▁rights	-2169
▁Pe	-2170
▁increased	-2171
▁lay	-2172
▁pay	-2173
ask	-2174
itud	-2175
▁ver	-2176
▁famil	-2177
▁promote	-2178
ober	-2179
iet	-2180
ball	-2181
▁week	-2182
like	-2183
".	-2184
▁pressure	-2185
riculum	-2186
▁actually	-2187
▁states	-2188
▁No	-2189
▁doc	-2190
wood	-2191
▁repl	-2192
▁skin	-2193
▁size	-2194
utes	-2195
-2	-2196
artment	-2197
ogical	-2198
▁2.	-2199
▁la	-2200
▁almost	-2201
▁sound	-2202
▁adult	-2203
▁recomm	-2204
▁associated	-2205
▁math	-2206
ensive	-2207
▁combined	-2208
ster	-2209
▁fri	-2210
utions	-2211
▁fat	-2212
):	-2213
eb	-2214
▁entire	-2215
▁economic	-2216
▁kill	-2217
reg	-2218
▁student	-2219
▁required	-2220
epend	-2221
ney	-2222
sh	-2223
▁girls	-2224
▁global	-2225
▁=	-2226
▁half	-2227
ensus	-2228
▁practical	-2229
▁Ag	-2230
▁practice	-2231
▁mor	-2232
▁opportun	-2233
▁needed	-2234
▁Tr	-2235
▁Disc	-2236
▁flex	-2237
▁claims	-2238
▁Em	-2239
▁sal	-2240
▁maint	-2241
▁fish	-2242
▁fundamental	-2243
▁related	-2244
▁simple	-2245
▁idea	-2246
hib	-2247
▁liquid	-2248
▁modern	-2249
▁biological	-2250
inning	-2251
▁X	-2252
▁market	-2253
itary	-2254
▁vast	-2255
acters	-2256
▁Gu	-2257
▁provides	-2258
▁fluid	-2259
▁relationship	-2260
sp	-2261
▁soil	-2262
▁took	-2263
AS	-2264
▁obes	-2265
▁spiritual	-2266
▁perspective	-2267
▁ter	-2268
imb	-2269
struct	-2270
▁Psych	-2271
▁ability	-2272
itc	-2273
reme	-2274
▁htt	-2275
▁began	-2276
erve	-2277
▁quick	-2278
▁increasingly	-2279
hing	-2280
▁cognitive	-2281
ining	-2282
go	-2283
▁prote	-2284
▁parts	-2285
ulations	-2286
▁money	-2287
inc	-2288
▁super	-2289
▁characters	-2290
4,	-2291
▁diet	-2292
▁stick	-2293
▁196	-2294
▁leaving	-2295
▁stress	-2296
ervation	-2297
ma	-2298
▁invol	-2299
gest	-2300
for	-2301
▁port	-2302
iation	-2303
▁Jap	-2304
▁floor	-2305
▁priv	-2306
athy	-2307
ole	-2308
▁More	-2309
▁discussed	-2310
▁arch	-2311
ump	-2312
▁engine	-2313
▁materials	-2314
▁weight	-2315
▁focus	-2316
olic	-2317
▁Canad	-2318
rel	-2319
▁purp	-2320
▁comes	-2321
▁green	-2322
▁Su	-2323
▁curriculum	-2324
ging	-2325
▁dream	-2326
▁British	-2327
▁services	-2328
▁Instit	-2329
vere	-2330
▁creative	-2331
▁argument	-2332
▁soft	-2333
▁exerc	-2334
oses	-2335
▁feelings	-2336
ply	-2337
▁lessons	-2338
minist	-2339
▁pri	-2340
▁ade	-2341
▁healthy	-2342
▁Although	-2343
▁avoid	-2344
9,	-2345
▁medic	-2346
▁region	-2347
▁Research	-2348
ai	-2349
▁necessary	-2350
my	-2351
11	-2352
rew	-2353
▁react	-2354
▁condition	-2355
8,	-2356
▁suff	-2357
uilding	-2358
ises	-2359
uled	-2360
▁Des	-2361
▁100	-2362
▁ge	-2363
▁State	-2364
ederal	-2365
▁yet	-2366
6,	-2367
▁fru	-2368
ores	-2369
7,	-2370
▁Here	-2371
▁Jew	-2372
▁liter	-2373
yl	-2374
▁doubt	-2375
▁achieved	-2376
uel	-2377
ript	-2378
▁compl	-2379
mon	-2380
▁management	-2381
lines	-2382
▁coll	-2383
▁chemical	-2384
▁separ	-2385
eding	-2386
▁Ed	-2387
empt	-2388
cience	-2389
▁fire	-2390
▁amb	-2391
▁path	-2392
chan	-2393
▁produces	-2394
▁mov	-2395
het	-2396
▁bar	-2397
▁produce	-2398
ope	-2399
▁gas	-2400
▁stop	-2401
▁throughout	-2402
▁conduct	-2403
atter	-2404
usion	-2405
▁hours	-2406
▁courses	-2407
ume	-2408
▁nine	-2409
▁regard	-2410
being	-2411
▁assess	-2412
▁approach	-2413
▁popular	-2414
▁attend	-2415
▁audience	-2416
itted	-2417
▁studying	-2418
▁factors	-2419
lt	-2420
dom	-2421
iddle	-2422
▁Per	-2423
▁princi	-2424
▁Sec	-2425
izing	-2426
▁emer	-2427
▁dog	-2428
.)	-2429
ections	-2430
▁50	-2431
▁analysis	-2432
abor	-2433
igure	-2434
▁six	-2435
iction	-2436
▁action	-2437
based	-2438
▁structure	-2439
▁taking	-2440
▁previous	-2441
▁obesity	-2442
▁fold	-2443
medi	-2444
▁underlying	-2445
cient	-2446
▁pattern	-2447
▁longer	-2448
▁measure	-2449
▁interact	-2450
--	-2451
▁job	-2452
▁personal	-2453
pid	-2454
▁shows	-2455
hold	-2456
▁sett	-2457
▁bur	-2458
▁Other	-2459
▁tar	-2460
▁service	-2461
▁heat	-2462
azine	-2463
▁instructions	-2464
▁reading	-2465
▁competition	-2466
▁II	-2467
▁ut	-2468
▁calories	-2469
▁sam	-2470
▁color	-2471
▁street	-2472
ES	-2473
▁According	-2474
▁Scientists	-2475
▁provided	-2476
▁built	-2477
▁Me	-2478
▁Pres	-2479
attle	-2480
▁damaged	-2481
▁surv	-2482
▁boys	-2483
▁heav	-2484
▁School	-2485
icles	-2486
▁carrying	-2487
▁biology	-2488
rapy	-2489
onse	-2490
▁farm	-2491
▁disord	-2492
ene	-2493
▁pursu	-2494
▁individuals	-2495
▁total	-2496
▁environmental	-2497
reens	-2498
▁Austral	-2499
ze	-2500
▁earth	-2501
▁thing	-2502
▁behavior	-2503
▁position	-2504
▁matter	-2505
ery	-2506
▁id	-2507
▁Int	-2508
ows	-2509
▁0	-2510
▁terms	-2511
▁meaning	-2512
emic	-2513
▁music	-2514
▁13	-2515
▁training	-2516
▁content	-2517
▁bring	-2518
▁King	-2519
▁accept	-2520
▁experimental	-2521
▁caused	-2522
person	-2523
▁media	-2524
▁prep	-2525
vey	-2526
▁Part	-2527
abet	-2528
rought	-2529
▁industry	-2530
▁rev	-2531
mo	-2532
▁Fr	-2533
fully	-2534
▁temperature	-2535
▁Play	-2536
▁writing	-2537
lands	-2538
asc	-2539
encing	-2540
▁hom	-2541
▁designed	-2542
sell	-2543
▁society	-2544
12	-2545
▁Qu	-2546
ricult	-2547
▁Pre	-2548
▁evolved	-2549
ucle	-2550
▁travel	-2551
▁steam	-2552
▁schools	-2553
inary	-2554
▁relative	-2555
yle	-2556
▁From	-2557
aries	-2558
▁threat	-2559
▁grows	-2560
▁break	-2561
▁inj	-2562
▁etc	-2563
▁original	-2564
▁programs	-2565
aily	-2566
▁addressed	-2567
▁viol	-2568
▁Min	-2569
aff	-2570
▁company	-2571
▁contain	-2572
reng	-2573
▁contact	-2574
anced	-2575
▁page	-2576
▁falling	-2577
istance	-2578
▁worry	-2579
mb	-2580
atives	-2581
▁App	-2582
▁check	-2583
gar	-2584
imately	-2585
▁diagn	-2586
▁sat	-2587
▁includes	-2588
AT	-2589
▁simply	-2590
▁love	-2591
arr	-2592
▁led	-2593
itchen	-2594
▁sometimes	-2595
▁slow	-2596
▁safe	-2597
▁Cons	-2598
erved	-2599
▁flexible	-2600
▁Will	-2601
▁standard	-2602
rench	-2603
umb	-2604
▁Science	-2605
▁culture	-2606
▁Your	-2607
▁easy	-2608
imensional	-2609
▁engaging	-2610
asy	-2611
▁versus	-2612
ensed	-2613
▁believe	-2614
▁lack	-2615
▁wild	-2616
▁average	-2617
ronic	-2618
▁causes	-2619
▁greater	-2620
▁methods	-2621
▁194	-2622
▁active	-2623
▁variety	-2624
▁benefits	-2625
▁climb	-2626
ming	-2627
▁spread	-2628
▁reported	-2629
▁complain	-2630
cil	-2631
▁differently	-2632
▁deep	-2633
itation	-2634
amed	-2635
▁clean	-2636
▁emb	-2637
▁written	-2638
uments	-2639
▁subst	-2640
uck	-2641
iano	-2642
▁origin	-2643
▁pict	-2644
▁eat	-2645
▁Not	-2646
istics	-2647
▁normal	-2648
▁issue	-2649
▁...	-2650
iam	-2651
▁China	-2652
rim	-2653
▁exc	-2654
omen	-2655
▁regular	-2656
▁magazine	-2657
▁lif	-2658
▁mach	-2659
▁uses	-2660
urs	-2661
rast	-2662
▁kitchen	-2663
▁sperm	-2664
▁ple	-2665
▁fem	-2666
▁insights	-2667
▁involved	-2668
▁movement	-2669
arily	-2670
▁neurol	-2671
▁imagination	-2672
cies	-2673
▁sources	-2674
▁target	-2675
▁compan	-2676
alg	-2677
▁creativity	-2678
astic	-2679
▁camp	-2680
▁events	-2681
▁hurt	-2682
19	-2683
▁tax	-2684
▁demon	-2685
▁brains	-2686
rand	-2687
▁fant	-2688
▁developmental	-2689
▁psych	-2690
ief	-2691
aches	-2692
idge	-2693
step	-2694
▁Comp	-2695
▁Answ	-2696
▁Jan	-2697
aling	-2698
▁carries	-2699
▁late	-2700
▁micro	-2701
▁cat	-2702
▁senses	-2703
▁poll	-2704
▁forms	-2705
▁Ju	-2706
▁refer	-2707
▁Ac	-2708
▁try	-2709
▁drink	-2710
eration	-2711
ington	-2712
rial	-2713
ulate	-2714
▁image	-2715
▁doing	-2716
▁Jes	-2717
▁carbon	-2718
▁particularly	-2719
peaking	-2720
▁mechan	-2721
▁squ	-2722
AR	-2723
ening	-2724
▁encoura	-2725
▁share	-2726
▁attempt	-2727
▁consensus	-2728
▁alike	-2729
osition	-2730
▁recess	-2731
▁basic	-2732
ength	-2733
▁Count	-2734
▁generating	-2735
▁face	-2736
▁identify	-2737
▁outside	-2738
▁streng	-2739
▁overs	-2740
▁reson	-2741
ufact	-2742
ban	-2743
▁Discuss	-2744
▁3.	-2745
dimensional	-2746
▁damage	-2747
ached	-2748
verse	-2749
▁insu	-2750
ister	-2751
▁Rec	-2752
bor	-2753
▁visit	-2754
▁ce	-2755
light	-2756
▁review	-2757
▁generally	-2758
▁bacter	-2759
▁Now	-2760
▁serious	-2761
▁skilled	-2762
▁foods	-2763
▁dreams	-2764
▁,	-2765
▁During	-2766
▁Center	-2767
▁network	-2768
▁First	-2769
▁implement	-2770
▁Art	-2771
▁forest	-2772
▁India	-2773
▁Gl	-2774
▁poor	-2775
rie	-2776
▁series	-2777
▁draw	-2778
▁Aug	-2779
bo	-2780
▁aff	-2781
▁helps	-2782
ership	-2783
▁multip	-2784
▁extreme	-2785
imum	-2786
▁/	-2787
uth	-2788
▁socially	-2789
ops	-2790
▁Par	-2791
▁25	-2792
▁Pol	-2793
▁produced	-2794
▁international	-2795
▁attention	-2796
▁piano	-2797
▁anxious	-2798
▁neurological	-2799
▁integ	-2800
▁•	-2801
▁cram	-2802
ribution	-2803
ender	-2804
▁screens	-2805
rade	-2806
▁probably	-2807
▁safety	-2808
osure	-2809
▁Bec	-2810
▁ago	-2811
▁teachers	-2812
▁insufficient	-2813
▁My	-2814
▁response	-2815
▁nu	-2816
▁cross	-2817
▁Ke	-2818
▁mother	-2819
▁harm	-2820
▁sea	-2821
▁Us	-2822
erg	-2823
roscience	-2824
prot	-2825
ana	-2826
▁airpl	-2827
▁rush	-2828
itude	-2829
▁woods	-2830
personal	-2831
▁competing	-2832
isions	-2833
▁Calif	-2834
▁Our	-2835
▁numbers	-2836
uary	-2837
▁Rom	-2838
lywood	-2839
raft	-2840
▁coun	-2841
▁consist	-2842
ius	-2843
▁continue	-2844
vention	-2845
hy	-2846
▁webs	-2847
pri	-2848
▁Faith	-2849
▁Russ	-2850
ided	-2851
elling	-2852
ctions	-2853
▁town	-2854
▁sust	-2855
▁sequencing	-2856
▁express	-2857
▁ir	-2858
▁Tw	-2859
iguous	-2860
▁ensure	-2861
kon	-2862
▁electric	-2863
▁cust	-2864
▁Stu	-2865
▁feet	-2866
▁independ	-2867
IS	-2868
▁bal	-2869
▁select	-2870
▁Department	-2871
▁populated	-2872
▁appl	-2873
Th	-2874
▁bodily	-2875
▁cit	-2876
▁defin	-2877
▁ox	-2878
▁emot	-2879
▁night	-2880
▁empathy	-2881
▁compon	-2882
oly	-2883
▁policy	-2884
ills	-2885
▁darker	-2886
▁underp	-2887
▁Child	-2888
▁included	-2889
osing	-2890
____	-2891
▁print	-2892
▁CO	-2893
▁ap	-2894
▁getting	-2895
▁concent	-2896
▁French	-2897
▁rock	-2898
▁thus	-2899
▁established	-2900
▁Institute	-2901
▁div	-2902
velopmental	-2903
▁Armed	-2904
▁veget	-2905
▁challeng	-2906
IN	-2907
▁animal	-2908
overy	-2909
ror	-2910
▁takes	-2911
▁Fran	-2912
▁Hollywood	-2913
ground	-2914
▁civil	-2915
▁looking	-2916
▁grounded	-2917
▁improv	-2918
▁held	-2919
▁displ	-2920
▁correct	-2921
▁cover	-2922
▁Stuart	-2923
▁March	-2924
▁nation	-2925
▁theory	-2926
▁colon	-2927
▁responsive	-2928
▁Krist	-2929
algia	-2930
▁books	-2931
room	-2932
▁wall	-2933
▁doesn	-2934
ino	-2935
▁nost	-2936
▁therefore	-2937
infected	-2938
▁investig	-2939
▁patient	-2940
ornia	-2941
▁quite	-2942
▁hyd	-2943
▁Cor	-2944
0,	-2945
aves	-2946
hel	-2947
abetes	-2948
▁magn	-2949
▁European	-2950
▁generalized	-2951
useum	-2952
ads	-2953
▁third	-2954
▁estim	-2955
▁ful	-2956
▁tree	-2957
▁aware	-2958
▁military	-2959
ems	-2960
prep	-2961
▁fantasy	-2962
set	-2963
▁instit	-2964
▁birth	-2965
▁restless	-2966
ties	-2967
▁German	-2968
▁headlines	-2969
▁folding	-2970
▁Boys	-2971
▁added	-2972
▁daily	-2973
ography	-2974
rated	-2975
▁thous	-2976
▁front	-2977
asons	-2978
ogies	-2979
▁solar	-2980
protected	-2981
▁neuroscience	-2982
▁ambiguous	-2983
▁idle	-2984
answ	-2985
▁Har	-2986
▁bab	-2987
otch	-2988
cell	-2989
▁reckon	-2990
ened	-2991
elt	-2992
▁communities	-2993
▁manufact	-2994
▁airplanes	-2995
▁bob	-2996
▁Char	-2997
ha	-2998
▁Even	-2999
right	-3000
▁vit	-3001
▁Indian	-3002
▁primary	-3003
▁traditional	-3004
▁compared	-3005
structured	-3006
www	-3007
▁capt	-3008
▁beginning	-3009
ift	-3010
▁determine	-3011
ying	-3012
▁http	-3013
▁started	-3014
▁Since	-3015
▁testament	-3016
▁Educators	-3017
▁families	-3018
▁easily	-3019
▁International	-3020
▁June	-3021
▁finan	-3022
▁California	-3023
ille	-3024
▁History	-3025
,''	-3026
.''	-3027
▁fret	-3028
rs	-3029
▁administ	-3030
▁Oct	-3031
▁hacking	-3032
▁semen	-3033
▁pursuits	-3034
▁underpinning	-3035
▁penis	-3036
▁difference	-3037
▁unprotected	-3038
▁fav	-3039
▁staring	-3040
▁Her	-3041
▁Sm	-3042
▁Dav	-3043
▁immedi	-3044
▁document	-3045
▁primate	-3046
▁appropri	-3047
▁reflect	-3048
▁longing	-3049
▁Reg	-3050
▁adept	-3051
ivol	-3052
▁dolls	-3053
answered	-3054
rate	-3055
undred	-3056
seller	-3057
where	-3058
▁Tipp	-3059
▁Dangerous	-3060
developmental	-3061
▁unanswered	-3062
▁unstructured	-3063
▁points	-3064
radio	-3065
▁security	-3066
▁Psychologists	-3067
▁(200	-3068
▁Discussions	-3069
oon	-3070
▁i	-3071
▁resonate	-3072
▁underpinnings	-3073
cheduled	-3074
▁yearning	-3075
▁directly	-3076
▁nostalgia	-3077
▁although	-3078
▁west	-3079
▁cognitively	-3080
▁dispensed	-3081
ubby	-3082
▁deluge	-3083
▁eul	-3084
▁doctor	-3085
▁uninfected	-3086
▁reve	-3087
▁frivol	-3088
▁crammed	-3089
ancy	-3090
▁nuance	-3091
▁eye	-3092
▁improvise	-3093
▁frivolous	-3094
▁Answering	-3095
▁mental	-3096
▁companies	-3097
▁diseases	-3098
ounds	-3099
▁bott	-3100
pril	-3101
▁Semen	-3102
▁bemo	-3103
▁inside	-3104
Speaking	-3105
▁Tippett	-3106
infused	-3107
▁eulogies	-3108
intense	-3109
▁meanness	-3110
▁unique	-3111
▁Alarming	-3112
scotch	-3113
▁Krista	-3114
ellow	-3115
▁went	-3116
▁Ant	-3117
▁bemoan	-3118
▁additional	-3119
▁altern	-3120
▁chubby	-3121
▁sold	-3122
▁rout	-3123
▁hopscotch	-3124
▁bobble	-3125
▁performance	-3126
interpersonal	-3127
15	-3128
▁stickball	-3129
▁overscheduled	-3130
▁tend	-3131
▁demonstr	-3132
▁allows	-3133
▁Ret	-3134
▁tools	-3135
▁Add	-3136
orthern	-3137
▁whose	-3138
oes	-3139
AN	-3140
aught	-3141
▁progress	-3142
cean	-3143
▁40	-3144
▁negative	-3145
▁achieve	-3146
▁quickly	-3147
▁offer	-3148
aces	-3149
▁Christian	-3150
▁eth	-3151
▁nucle	-3152
▁sil	-3153
▁speak	-3154
▁habit	-3155
OR	-3156
ned	-3157
13	-3158
▁decre	-3159
▁Bar	-3160
▁tiss	-3161
pite	-3162
▁pan	-3163
▁El	-3164
book	-3165
▁African	-3166
▁Read	-3167
using	-3168
▁Sch	-3169
▁labor	-3170
iency	-3171
gram	-3172
yond	-3173
▁ord	-3174
uman	-3175
▁Mon	-3176
▁eval	-3177
▁walk	-3178
uries	-3179
ently	-3180
▁Sept	-3181
▁impl	-3182
▁severe	-3183
▁Jesus	-3184
▁north	-3185
▁1,	-3186
▁stri	-3187
▁Lear	-3188
▁Wash	-3189
▁fight	-3190
ray	-3191
▁infection	-3192
▁foot	-3193
▁broad	-3194
▁Mus	-3195
16	-3196
▁gard	-3197
fect	-3198
▁mount	-3199
outhern	-3200
ody	-3201
▁hor	-3202
aly	-3203
▁sus	-3204
▁answer	-3205
▁highly	-3206
▁July	-3207
den	-3208
▁soon	-3209
eks	-3210
▁extra	-3211
▁x	-3212
▁Why	-3213
▁critical	-3214
con	-3215
▁bit	-3216
▁exercise	-3217
▁protein	-3218
▁fram	-3219
We	-3220
▁capital	-3221
joy	-3222
▁multiple	-3223
che	-3224
▁August	-3225
▁acid	-3226
▁leading	-3227
▁Because	-3228
iot	-3229
coh	-3230
na	-3231
anks	-3232
▁proced	-3233
ilos	-3234
oles	-3235
uk	-3236
▁thinking	-3237
▁vacc	-3238
▁prior	-3239
▁Press	-3240
eed	-3241
▁hot	-3242
-3	-3243
▁elements	-3244
ests	-3245
▁ancient	-3246
▁Inc	-3247
14	-3248
ims	-3249
formation	-3250
▁limited	-3251
▁card	-3252
▁news	-3253
ON	-3254
▁Great	-3255
gn	-3256
▁Africa	-3257
lier	-3258
▁pack	-3259
cious	-3260
iques	-3261
▁contains	-3262
▁jud	-3263
isms	-3264
▁received	-3265
▁April	-3266
▁minutes	-3267
▁supply	-3268
▁bad	-3269
▁Also	-3270
ching	-3271
term	-3272
▁described	-3273
▁else	-3274
▁jo	-3275
▁hundred	-3276
▁cred	-3277
ription	-3278
inese	-3279
IC	-3280
▁President	-3281
▁towards	-3282
itting	-3283
▁workers	-3284
back	-3285
▁brought	-3286
mit	-3287
▁Mc	-3288
▁clin	-3289
▁calc	-3290
▁search	-3291
▁transport	-3292
▁feed	-3293
▁useful	-3294
▁protection	-3295
▁log	-3296
istry	-3297
▁Gree	-3298
▁inn	-3299
▁section	-3300
irm	-3301
▁Of	-3302
▁Govern	-3303
▁teaching	-3304
▁Park	-3305
▁largest	-3306
▁contribut	-3307
wise	-3308
▁mom	-3309
▁obt	-3310
▁purpose	-3311
▁game	-3312
▁har	-3313
▁24	-3314
▁mill	-3315
▁nearly	-3316
▁cru	-3317
mission	-3318
lection	-3319
▁private	-3320
▁analy	-3321
▁ones	-3322
▁Cong	-3323
▁agre	-3324
▁accur	-3325
▁stay	-3326
iber	-3327
▁south	-3328
▁application	-3329
rogen	-3330
ils	-3331
▁write	-3332
rael	-3333
oring	-3334
▁influence	-3335
▁got	-3336
▁remains	-3337
vant	-3338
▁Then	-3339
▁adults	-3340
▁River	-3341
▁ang	-3342
▁decision	-3343
▁situation	-3344
▁(20	-3345
▁hands	-3346
olar	-3347
▁software	-3348
bol	-3349
▁fast	-3350
▁federal	-3351
ologies	-3352
▁miles	-3353
▁values	-3354
▁religious	-3355
ields	-3356
▁Canada	-3357
▁season	-3358
sect	-3359
▁block	-3360
▁Dis	-3361
▁rain	-3362
▁strateg	-3363
rote	-3364
aid	-3365
▁England	-3366
▁length	-3367
▁Serv	-3368
▁goal	-3369
pper	-3370
▁fill	-3371
▁lines	-3372
inct	-3373
▁establish	-3374
▁exact	-3375
▁Sw	-3376
▁located	-3377
alt	-3378
▁images	-3379
▁beaut	-3380
▁features	-3381
▁agricult	-3382
▁Washington	-3383
▁capac	-3384
nown	-3385
hens	-3386
iles	-3387
▁coast	-3388
▁Associ	-3389
▁Sim	-3390
▁remain	-3391
▁except	-3392
▁4.	-3393
▁custom	-3394
omet	-3395
▁conse	-3396
izations	-3397
▁summer	-3398
▁Ec	-3399
▁Chinese	-3400
estic	-3401
itect	-3402
life	-3403
▁adop	-3404
see	-3405
▁himself	-3406
▁weeks	-3407
▁shall	-3408
ira	-3409
▁places	-3410
▁requires	-3411
▁enjoy	-3412
▁tests	-3413
▁cool	-3414
▁born	-3415
▁reach	-3416
arian	-3417
▁respect	-3418
▁quant	-3419
▁dead	-3420
▁Education	-3421
▁Fin	-3422
▁rates	-3423
▁wa	-3424
▁William	-3425
▁decl	-3426
rag	-3427
▁rare	-3428
In	-3429
ovember	-3430
cohol	-3431
▁People	-3432
▁vict	-3433
▁dry	-3434
▁efforts	-3435
▁*	-3436
▁father	-3437
cember	-3438
▁transl	-3439
▁basis	-3440
ension	-3441
▁See	-3442
▁prec	-3443
▁stru	-3444
▁ep	-3445
▁becomes	-3446
▁financial	-3447
ondon	-3448
▁center	-3449
aul	-3450
▁sustain	-3451
▁command	-3452
fort	-3453
▁citiz	-3454
▁sn	-3455
ext	-3456
issions	-3457
▁Day	-3458
imin	-3459
▁Trans	-3460
ider	-3461
▁property	-3462
▁egg	-3463
▁surround	-3464
17	-3465
ama	-3466
”.	-3467
▁January	-3468
▁tur	-3469
▁Red	-3470
▁Feb	-3471
▁mole	-3472
idents	-3473
▁sites	-3474
▁0.	-3475
atur	-3476
▁devices	-3477
▁eyes	-3478
▁importance	-3479
iece	-3480
ault	-3481
▁demand	-3482
▁Techn	-3483
▁Over	-3484
▁saw	-3485
▁Israel	-3486
▁king	-3487
oud	-3488
▁Bi	-3489
oke	-3490
resh	-3491
ceed	-3492
▁City	-3493
▁died	-3494
▁rapid	-3495
▁website	-3496
▁bul	-3497
▁ult	-3498
▁nothing	-3499
▁High	-3500
lin	-3501
▁Just	-3502
alled	-3503
-0	-3504
yp	-3505
▁base	-3506
18	-3507
▁waste	-3508
PA	-3509
▁appe	-3510
▁accom	-3511
▁speed	-3512
▁appropriate	-3513
▁mention	-3514
▁communication	-3515
udd	-3516
▁device	-3517
▁mid	-3518
cles	-3519
▁cou	-3520
▁hous	-3521
▁Use	-3522
▁constit	-3523
▁Fort	-3524
▁costs	-3525
It	-3526
▁IS	-3527
EN	-3528
vest	-3529
▁legal	-3530
▁anything	-3531
▁commer	-3532
▁forces	-3533
▁tit	-3534
▁respond	-3535
ipment	-3536
▁September	-3537
▁table	-3538
▁October	-3539
entially	-3540
▁Journal	-3541
ech	-3542
▁der	-3543
ham	-3544
▁hope	-3545
▁:	-3546
▁Each	-3547
▁cam	-3548
▁objects	-3549
▁bacteria	-3550
▁San	-3551
▁recently	-3552
▁Val	-3553
▁responsible	-3554
▁Arch	-3555
▁solution	-3556
rig	-3557
▁projects	-3558
▁techniques	-3559
▁beyond	-3560
water	-3561
ocr	-3562
come	-3563
▁eating	-3564
year	-3565
▁Commun	-3566
edia	-3567
▁monitor	-3568
itis	-3569
imal	-3570
▁son	-3571
▁gives	-3572
▁adj	-3573
ica	-3574
▁Another	-3575
iar	-3576
raw	-3577
▁everything	-3578
▁applications	-3579
ications	-3580
▁Vir	-3581
mosp	-3582
▁veh	-3583
▁Church	-3584
▁testing	-3585
▁Mod	-3586
iat	-3587
▁Water	-3588
▁processes	-3589
▁anti	-3590
▁diabetes	-3591
▁typically	-3592
▁Che	-3593
ingu	-3594
▁friends	-3595
izes	-3596
▁creating	-3597
▁molec	-3598
▁followed	-3599
▁ten	-3600
apter	-3601
▁adapt	-3602
▁older	-3603
▁continued	-3604
▁ice	-3605
▁middle	-3606
▁laws	-3607
▁construction	-3608
IT	-3609
▁gradu	-3610
▁trade	-3611
▁digital	-3612
▁teacher	-3613
▁final	-3614
▁cele	-3615
▁Once	-3616
▁controll	-3617
▁November	-3618
▁therapy	-3619
▁fuel	-3620
▁web	-3621
▁December	-3622
ixed	-3623
▁practices	-3624
▁193	-3625
▁examples	-3626
▁depend	-3627
aters	-3628
▁expected	-3629
ford	-3630
▁cultural	-3631
▁former	-3632
-19	-3633
isl	-3634
▁court	-3635
head	-3636
▁autom	-3637
▁date	-3638
enge	-3639
▁Law	-3640
▁cold	-3641
▁guid	-3642
▁benefit	-3643
▁providing	-3644
▁System	-3645
▁Black	-3646
▁East	-3647
▁economy	-3648
anish	-3649
▁sugar	-3650
ky	-3651
anese	-3652
);	-3653
▁seek	-3654
▁und	-3655
▁reasons	-3656
▁County	-3657
▁billion	-3658
edom	-3659
emy	-3660
▁genetic	-3661
▁advant	-3662
▁smaller	-3663
▁London	-3664
▁wrote	-3665
▁pregn	-3666
▁receive	-3667
mar	-3668
▁file	-3669
▁code	-3670
▁Coun	-3671
ocks	-3672
▁General	-3673
▁effort	-3674
▁screen	-3675
▁Society	-3676
▁completely	-3677
▁successful	-3678
▁choose	-3679
aled	-3680
itable	-3681
wor	-3682
oe	-3683
▁breat	-3684
▁beg	-3685
ester	-3686
amb	-3687
▁destro	-3688
▁planet	-3689
▁Prof	-3690
▁goes	-3691
▁location	-3692
▁approx	-3693
ought	-3694
▁Sur	-3695
ees	-3696
▁Social	-3697
▁rules	-3698
▁currently	-3699
▁experien	-3700
ospital	-3701
▁trying	-3702
airs	-3703
ocol	-3704
ony	-3705
▁neigh	-3706
▁winter	-3707
ico	-3708
ED	-3709
▁named	-3710
80	-3711
▁Tod	-3712
fl	-3713
▁user	-3714
▁connect	-3715
▁birds	-3716
▁predict	-3717
▁interesting	-3718
▁affected	-3719
ellig	-3720
60	-3721
▁occurs	-3722
mitted	-3723
▁organization	-3724
▁standards	-3725
▁opportunity	-3726
rab	-3727
▁eight	-3728
▁drugs	-3729
rieved	-3730
▁stage	-3731
ribute	-3732
▁instr	-3733
▁won	-3734
▁vill	-3735
hest	-3736
▁den	-3737
ogen	-3738
▁earlier	-3739
▁pet	-3740
▁degree	-3741
▁DNA	-3742
gypt	-3743
▁Under	-3744
▁leave	-3745
▁models	-3746
▁Pat	-3747
▁Program	-3748
vert	-3749
▁discovered	-3750
▁collection	-3751
▁member	-3752
▁behavi	-3753
▁ast	-3754
▁conflic	-3755
40	-3756
▁sch	-3757
▁maintain	-3758
▁shape	-3759
▁poly	-3760
▁allowed	-3761
▁exposure	-3762
▁electr	-3763
▁constant	-3764
▁hon	-3765
▁yourself	-3766
▁Don	-3767
lam	-3768
▁occup	-3769
▁rule	-3770
AC	-3771
▁unc	-3772
▁hyp	-3773
ively	-3774
▁equipment	-3775
▁Thus	-3776
aving	-3777
▁via	-3778
▁deb	-3779
▁scale	-3780
▁House	-3781
▁Prot	-3782
▁max	-3783
▁placed	-3784
ords	-3785
hemat	-3786
▁Inter	-3787
aur	-3788
▁deal	-3789
ruary	-3790
▁formed	-3791
▁Australia	-3792
▁users	-3793
▁60	-3794
▁commonly	-3795
load	-3796
ula	-3797
▁recommend	-3798
▁sect	-3799
",	-3800
▁strength	-3801
▁wond	-3802
▁weather	-3803
▁21	-3804
unch	-3805
▁cook	-3806
men	-3807
bl	-3808
▁applied	-3809
▁purch	-3810
▁historical	-3811
ios	-3812
ners	-3813
▁corn	-3814
▁visual	-3815
▁church	-3816
▁measures	-3817
▁track	-3818
▁gave	-3819
▁fair	-3820
▁swe	-3821
wide	-3822
irection	-3823
▁teach	-3824
▁Rel	-3825
pan	-3826
▁coming	-3827
▁195	-3828
25	-3829
rest	-3830
off	-3831
▁Cour	-3832
iences	-3833
iful	-3834
iers	-3835
▁steps	-3836
▁Germany	-3837
▁Aut	-3838
▁pow	-3839
▁road	-3840
▁Roman	-3841
icate	-3842
▁didn	-3843
▁reduced	-3844
▁Mex	-3845
▁teeth	-3846
odes	-3847
▁majority	-3848
ements	-3849
EC	-3850
ensity	-3851
▁rich	-3852
▁David	-3853
▁Japan	-3854
▁mis	-3855
▁Cur	-3856
▁exec	-3857
▁atmosp	-3858
▁virt	-3859
ara	-3860
▁commit	-3861
▁note	-3862
▁professional	-3863
▁tox	-3864
que	-3865
new	-3866
phas	-3867
▁overall	-3868
▁isn	-3869
oration	-3870
▁tou	-3871
▁Egypt	-3872
▁perfect	-3873
▁fruit	-3874
▁categ	-3875
▁illust	-3876
known	-3877
▁enter	-3878
▁identified	-3879
AL	-3880
▁showed	-3881
ference	-3882
▁tele	-3883
enty	-3884
orge	-3885
▁Environment	-3886
▁Green	-3887
▁philos	-3888
▁assign	-3889
oted	-3890
▁river	-3891
▁powerful	-3892
▁acqu	-3893
itch	-3894
urg	-3895
encies	-3896
▁Vol	-3897
▁Medic	-3898
▁peace	-3899
▁relatively	-3900
pret	-3901
▁Br	-3902
▁Ir	-3903
▁version	-3904
▁fully	-3905
uff	-3906
co	-3907
▁illness	-3908
umn	-3909
▁Ass	-3910
▁Let	-3911
▁piece	-3912
▁gold	-3913
▁display	-3914
▁breast	-3915
▁repe	-3916
▁status	-3917
aced	-3918
▁context	-3919
▁worked	-3920
▁Today	-3921
▁UN	-3922
ev	-3923
▁appears	-3924
▁alcohol	-3925
▁Jewish	-3926
▁choice	-3927
ibly	-3928
▁mut	-3929
rees	-3930
▁rob	-3931
▁increases	-3932
▁symbol	-3933
▁Inst	-3934
gery	-3935
▁names	-3936
▁gene	-3937
▁Retrieved	-3938
▁bank	-3939
rition	-3940
▁stories	-3941
hab	-3942
▁belief	-3943
▁Congress	-3944
can	-3945
omb	-3946
▁presence	-3947
▁element	-3948
▁enh	-3949
▁limit	-3950
▁Internet	-3951
▁joint	-3952
▁architect	-3953
craft	-3954
▁February	-3955
iable	-3956
▁cities	-3957
▁properties	-3958
▁Ang	-3959
▁Av	-3960
▁remember	-3961
▁Children	-3962
▁ball	-3963
▁situ	-3964
west	-3965
mark	-3966
▁expand	-3967
▁baby	-3968
▁moving	-3969
rief	-3970
▁Ro	-3971
▁mob	-3972
▁actions	-3973
▁Phil	-3974
▁initi	-3975
▁construct	-3976
▁Council	-3977
▁moment	-3978
▁attract	-3979
▁compar	-3980
iny	-3981
ynam	-3982
▁TH	-3983
related	-3984
▁strugg	-3985
▁Every	-3986
▁figure	-3987
▁giving	-3988
▁changed	-3989
▁worth	-3990
aign	-3991
▁Association	-3992
inated	-3993
▁capacity	-3994
▁fresh	-3995
▁pp	-3996
▁efficient	-3997
▁Union	-3998
▁assist	-3999
▁acad	-4000
ste	-4001
▁unit	-4002
ken	-4003
▁transfer	-4004
rupt	-4005
▁Japanese	-4006
▁Ob	-4007
▁mission	-4008
sec	-4009
osy	-4010
▁offers	-4011
▁patterns	-4012
▁running	-4013
iety	-4014
▁mig	-4015
resp	-4016
▁Mich	-4017
▁asse	-4018
▁picture	-4019
bre	-4020
▁citizens	-4021
▁forward	-4022
▁factor	-4023
ald	-4024
▁findings	-4025
-4	-4026
▁Colle	-4027
▁existing	-4028
▁educational	-4029
house	-4030
▁female	-4031
▁distance	-4032
asion	-4033
▁signs	-4034
▁machine	-4035
▁surpr	-4036
▁Human	-4037
▁believed	-4038
▁dro	-4039
▁immune	-4040
▁journal	-4041
▁foreign	-4042
▁insect	-4043
▁James	-4044
”,	-4045
▁Mic	-4046
▁Food	-4047
▁Western	-4048
▁mouth	-4049
▁incor	-4050
lar	-4051
▁fert	-4052
▁opportunities	-4053
▁thousands	-4054
▁functions	-4055
urance	-4056
▁regions	-4057
▁learned	-4058
▁equal	-4059
▁details	-4060
aste	-4061
▁kid	-4062
icip	-4063
▁lat	-4064
▁direction	-4065
▁vo	-4066
▁survey	-4067
▁observ	-4068
▁tub	-4069
OS	-4070
▁blue	-4071
▁truth	-4072
▁France	-4073
▁instance	-4074
▁eventually	-4075
▁huge	-4076
▁defined	-4077
▁tissue	-4078
▁staff	-4079
▁pick	-4080
II	-4081
▁office	-4082
▁Mor	-4083
abilities	-4084
▁president	-4085
▁Di	-4086
▁separate	-4087
oved	-4088
▁consequ	-4089
▁reports	-4090
▁nuclear	-4091
ternal	-4092
▁nutri	-4093
aint	-4094
omas	-4095
▁2010	-4096
▁dat	-4097
▁rat	-4098
▁vision	-4099
22	-4100
ero	-4101
▁assum	-4102
▁Students	-4103
▁contract	-4104
atin	-4105
nes	-4106
iring	-4107
▁suggests	-4108
▁seven	-4109
hors	-4110
▁income	-4111
▁5.	-4112
▁insp	-4113
▁antib	-4114
▁famous	-4115
ographic	-4116
▁bound	-4117
▁Bel	-4118
▁weak	-4119
▁Web	-4120
▁garden	-4121
cop	-4122
lor	-4123
▁+	-4124
▁qual	-4125
▁wrong	-4126
▁explain	-4127
▁mal	-4128
era	-4129
▁Sub	-4130
▁2012	-4131
▁box	-4132
▁native	-4133
▁watch	-4134
▁sexual	-4135
▁muscle	-4136
▁commercial	-4137
enth	-4138
▁ing	-4139
iant	-4140
pped	-4141
ologist	-4142
St	-4143
▁evalu	-4144
▁Pal	-4145
▁divid	-4146
▁copy	-4147
▁destroy	-4148
▁alt	-4149
▁disorder	-4150
▁Dec	-4151
▁warm	-4152
lim	-4153
▁immediately	-4154
tee	-4155
▁vitamin	-4156
rows	-4157
▁detect	-4158
▁leaders	-4159
▁map	-4160
▁spring	-4161
▁frequ	-4162
▁star	-4163
▁technologies	-4164
ifically	-4165
▁friend	-4166
▁challenges	-4167
DA	-4168
▁task	-4169
▁sac	-4170
igen	-4171
isation	-4172
wards	-4173
cast	-4174
▁innov	-4175
▁apply	-4176
▁plans	-4177
iment	-4178
gency	-4179
▁milk	-4180
▁cro	-4181
▁UK	-4182
▁fit	-4183
▁approximately	-4184
▁party	-4185
▁favor	-4186
▁absor	-4187
▁#	-4188
▁aim	-4189
rick	-4190
orage	-4191
▁Mary	-4192
▁stim	-4193
ygen	-4194
ogle	-4195
▁emissions	-4196
▁organizations	-4197
▁classroom	-4198
▁compre	-4199
▁structures	-4200
▁exhib	-4201
▁Work	-4202
▁carried	-4203
▁faith	-4204
▁cry	-4205
▁board	-4206
▁reference	-4207
▁distribution	-4208
▁price	-4209
▁highest	-4210
▁challenge	-4211
▁hair	-4212
icated	-4213
▁guide	-4214
▁strategies	-4215
This	-4216
▁components	-4217
▁moved	-4218
▁phen	-4219
▁Government	-4220
antic	-4221
▁190	-4222
yd	-4223
eces	-4224
70	-4225
▁effic	-4226
Wh	-4227
▁legisl	-4228
▁emphas	-4229
▁resistance	-4230
▁consumption	-4231
▁extremely	-4232
ris	-4233
▁Lord	-4234
▁Tur	-4235
▁style	-4236
▁celebr	-4237
▁medicine	-4238
▁balance	-4239
order	-4240
▁complic	-4241
▁Two	-4242
▁treated	-4243
▁populations	-4244
▁actual	-4245
▁observed	-4246
▁cand	-4247
▁College	-4248
▁bodies	-4249
▁options	-4250
▁ves	-4251
▁excess	-4252
▁tradition	-4253
hetic	-4254
▁gain	-4255
▁opin	-4256
▁park	-4257
ares	-4258
▁contrast	-4259
▁generation	-4260
▁notes	-4261
▁film	-4262
▁heavy	-4263
▁collabor	-4264
▁slight	-4265
▁disorders	-4266
▁Rem	-4267
▁estimated	-4268
part	-4269
▁urban	-4270
▁planning	-4271
▁Sam	-4272
▁Net	-4273
▁fig	-4274
ida	-4275
▁records	-4276
90	-4277
▁Bra	-4278
▁presented	-4279
▁Organ	-4280
▁Off	-4281
▁alternative	-4282
▁industrial	-4283
▁explore	-4284
▁bran	-4285
▁god	-4286
▁stream	-4287
▁Found	-4288
sequent	-4289
▁spect	-4290
▁Mark	-4291
▁depression	-4292
▁Plan	-4293
rome	-4294
▁mer	-4295
▁electricity	-4296
change	-4297
key	-4298
▁Paul	-4299
▁cra	-4300
▁parent	-4301
▁feature	-4302
▁22	-4303
▁topic	-4304
▁George	-4305
▁Rev	-4306
....	-4307
ulf	-4308
iding	-4309
▁Republic	-4310
EM	-4311
▁ign	-4312
▁goals	-4313
▁23	-4314
▁turned	-4315
ped	-4316
▁clearly	-4317
oma	-4318
▁Sun	-4319
cers	-4320
▁experiences	-4321
▁homes	-4322
▁clinical	-4323
apers	-4324
▁introduced	-4325
▁Air	-4326
▁2011	-4327
porary	-4328
cip	-4329
▁NAS	-4330
ession	-4331
▁male	-4332
▁conv	-4333
▁serve	-4334
▁Museum	-4335
▁Ev	-4336
▁letter	-4337
▁load	-4338
▁household	-4339
▁(3	-4340
▁lived	-4341
▁literature	-4342
▁vary	-4343
unction	-4344
▁soci	-4345
▁easier	-4346
▁grass	-4347
▁bone	-4348
▁novel	-4349
▁freedom	-4350
▁connected	-4351
▁conducted	-4352
▁noted	-4353
SA	-4354
▁ocean	-4355
▁operations	-4356
▁killed	-4357
▁decisions	-4358
▁Tra	-4359
▁release	-4360
care	-4361
elines	-4362
▁reality	-4363
bed	-4364
▁graph	-4365
▁resource	-4366
ophy	-4367
▁interpret	-4368
▁pul	-4369
ander	-4370
▁buildings	-4371
▁Mal	-4372
▁Therefore	-4373
▁frequently	-4374
ilit	-4375
▁significantly	-4376
do	-4377
zz	-4378
▁Using	-4379
▁numerous	-4380
ss	-4381
▁aspects	-4382
▁Its	-4383
▁Well	-4384
▁Further	-4385
▁iron	-4386
▁186	-4387
▁discussion	-4388
crib	-4389
▁widely	-4390
▁independent	-4391
▁Phys	-4392
▁battle	-4393
lick	-4394
▁fields	-4395
▁Fore	-4396
stitution	-4397
▁carry	-4398
▁setting	-4399
▁experiment	-4400
cont	-4401
otes	-4402
▁combination	-4403
▁save	-4404
ET	-4405
▁items	-4406
▁bottom	-4407
▁agg	-4408
▁hear	-4409
▁connection	-4410
erate	-4411
▁store	-4412
▁Development	-4413
▁Like	-4414
▁island	-4415
ype	-4416
▁intellig	-4417
▁gets	-4418
▁whom	-4419
▁Hen	-4420
▁anyone	-4421
▁starting	-4422
▁Spanish	-4423
▁bed	-4424
▁rot	-4425
▁Dem	-4426
▁Port	-4427
Ch	-4428
▁expression	-4429
▁ST	-4430
▁Greek	-4431
23	-4432
▁ship	-4433
▁Mount	-4434
▁plastic	-4435
roup	-4436
▁annual	-4437
▁cycle	-4438
▁About	-4439
▁Rober	-4440
▁drive	-4441
▁participants	-4442
▁tour	-4443
▁temperatures	-4444
▁layer	-4445
▁esc	-4446
oting	-4447
▁campaign	-4448
▁grant	-4449
▁chronic	-4450
ously	-4451
ressive	-4452
▁trib	-4453
▁upper	-4454
▁requirements	-4455
▁Cath	-4456
▁vessel	-4457
▁Test	-4458
▁Project	-4459
bal	-4460
▁policies	-4461
▁physic	-4462
▁remove	-4463
▁2,	-4464
▁Post	-4465
anging	-4466
▁covered	-4467
rane	-4468
rant	-4469
▁La	-4470
▁Mr	-4471
▁causing	-4472
▁divers	-4473
▁beautiful	-4474
▁glass	-4475
ago	-4476
▁speech	-4477
raction	-4478
▁Som	-4479
AM	-4480
▁Mars	-4481
ortion	-4482
▁univers	-4483
▁territ	-4484
▁creation	-4485
onic	-4486
▁changing	-4487
▁NASA	-4488
▁tim	-4489
▁output	-4490
uted	-4491
▁Bro	-4492
▁shap	-4493
▁Both	-4494
▁northern	-4495
▁metal	-4496
▁technique	-4497
▁authors	-4498
▁minor	-4499
icial	-4500
▁performed	-4501
▁finding	-4502
ria	-4503
▁reprodu	-4504
▁oxygen	-4505
▁util	-4506
▁Sen	-4507
▁Mat	-4508
▁nor	-4509
oul	-4510
essor	-4511
▁helped	-4512
▁meat	-4513
▁meeting	-4514
▁sand	-4515
ressed	-4516
atically	-4517
-5	-4518
▁isol	-4519
▁Budd	-4520
orial	-4521
▁determined	-4522
:1	-4523
▁hol	-4524
ping	-4525
char	-4526
▁flood	-4527
tical	-4528
▁resulting	-4529
21	-4530
▁organic	-4531
▁pi	-4532
▁sample	-4533
▁recommended	-4534
▁Hel	-4535
▁Island	-4536
▁distinct	-4537
▁surgery	-4538
▁degrees	-4539
▁Bas	-4540
▁wanted	-4541
▁referred	-4542
▁Met	-4543
▁tum	-4544
▁ready	-4545
▁violence	-4546
▁risks	-4547
uit	-4548
▁unf	-4549
78	-4550
▁reb	-4551
works	-4552
och	-4553
anger	-4554
▁remov	-4555
▁belong	-4556
▁root	-4557
othes	-4558
erences	-4559
respond	-4560
▁round	-4561
▁youth	-4562
▁trig	-4563
▁assessment	-4564
▁core	-4565
▁fine	-4566
▁Second	-4567
oll	-4568
▁genes	-4569
▁radio	-4570
▁served	-4571
▁conservation	-4572
▁80	-4573
▁Rich	-4574
▁happens	-4575
▁Def	-4576
▁prefer	-4577
▁waters	-4578
▁storage	-4579
▁sem	-4580
▁Spe	-4581
▁counter	-4582
▁principles	-4583
▁regarding	-4584
ias	-4585
reland	-4586
asks	-4587
▁Life	-4588
▁comprehens	-4589
inate	-4590
▁Acad	-4591
ishing	-4592
▁religion	-4593
▁White	-4594
▁relationships	-4595
▁exactly	-4596
▁mathemat	-4597
▁upd	-4598
RE	-4599
▁Direct	-4600
met	-4601
200	-4602
▁statement	-4603
▁click	-4604
▁feeling	-4605
▁Old	-4606
isher	-4607
▁please	-4608
▁arm	-4609
▁Je	-4610
▁(199	-4611
▁dram	-4612
riage	-4613
▁previously	-4614
▁buy	-4615
▁describe	-4616
roph	-4617
▁Mart	-4618
▁Ser	-4619
▁scen	-4620
▁batter	-4621
▁excell	-4622
▁heard	-4623
cipl	-4624
▁characteristics	-4625
▁Tex	-4626
▁Islam	-4627
▁internal	-4628
▁circum	-4629
▁ded	-4630
▁stra	-4631
▁credit	-4632
▁mel	-4633
▁Fre	-4634
berg	-4635
oyal	-4636
cript	-4637
CC	-4638
▁removed	-4639
▁volunt	-4640
oo	-4641
PS	-4642
iveness	-4643
▁sav	-4644
▁Court	-4645
ception	-4646
▁decided	-4647
▁infections	-4648
▁mostly	-4649
▁radiation	-4650
▁cast	-4651
▁southern	-4652
▁solid	-4653
▁lett	-4654
▁Medical	-4655
▁failure	-4656
▁involve	-4657
itz	-4658
▁hour	-4659
▁initial	-4660
▁Thomas	-4661
▁square	-4662
▁concl	-4663
▁Virgin	-4664
▁background	-4665
lease	-4666
▁Ireland	-4667
▁motion	-4668
▁pret	-4669
ortunately	-4670
▁Up	-4671
atform	-4672
aughter	-4673
▁vul	-4674
▁linked	-4675
▁Britain	-4676
▁alg	-4677
▁proposed	-4678
▁Asia	-4679
▁Treat	-4680
▁experienced	-4681
ructure	-4682
▁reducing	-4683
▁interested	-4684
▁Miss	-4685
▁Medicine	-4686
rog	-4687
▁mentioned	-4688
▁Jews	-4689
ulating	-4690
▁properly	-4691
▁Ber	-4692
-8	-4693
▁Ben	-4694
▁articles	-4695
▁race	-4696
▁Sal	-4697
rm	-4698
osystem	-4699
▁dogs	-4700
5%	-4701
▁replace	-4702
▁meant	-4703
▁email	-4704
▁kept	-4705
▁aid	-4706
bi	-4707
▁classes	-4708
▁obvious	-4709
▁26	-4710
▁trend	-4711
ategy	-4712
▁saying	-4713
▁lic	-4714
▁units	-4715
▁synt	-4716
▁volume	-4717
▁Cle	-4718
▁189	-4719
▁prepared	-4720
▁pal	-4721
▁expert	-4722
▁solutions	-4723
▁involves	-4724
▁2013	-4725
▁injury	-4726
▁2009	-4727
▁Civil	-4728
ii	-4729
▁exposed	-4730
za	-4731
▁strategy	-4732
ributed	-4733
▁pric	-4734
▁mist	-4735
▁brother	-4736
▁clos	-4737
▁landsc	-4738
▁6.	-4739
▁advantage	-4740
▁leads	-4741
▁die	-4742
▁advanced	-4743
▁coal	-4744
uls	-4745
▁finally	-4746
▁institutions	-4747
leg	-4748
▁eggs	-4749
▁28	-4750
▁transform	-4751
▁lung	-4752
▁(18	-4753
▁effectively	-4754
rains	-4755
▁reaction	-4756
▁tooth	-4757
▁reached	-4758
▁pages	-4759
▁dri	-4760
▁anxiety	-4761
▁option	-4762
▁elimin	-4763
▁conflict	-4764
iverse	-4765
▁remained	-4766
▁official	-4767
acific	-4768
▁spot	-4769
▁2008	-4770
▁identity	-4771
rum	-4772
▁charge	-4773
▁thick	-4774
▁lib	-4775
▁Service	-4776
eties	-4777
▁song	-4778
▁amounts	-4779
▁relevant	-4780
well	-4781
▁sort	-4782
▁east	-4783
▁experts	-4784
▁Arab	-4785
▁morning	-4786
▁News	-4787
▁chemicals	-4788
▁incorpor	-4789
▁Central	-4790
▁gender	-4791
▁hearing	-4792
▁depending	-4793
▁academic	-4794
▁coord	-4795
▁pip	-4796
vision	-4797
-6	-4798
lements	-4799
board	-4800
▁inflamm	-4801
AD	-4802
kin	-4803
▁bill	-4804
iling	-4805
▁wealth	-4806
ags	-4807
▁Mass	-4808
▁Space	-4809
▁conclud	-4810
▁suppl	-4811
rian	-4812
▁Elect	-4813
uration	-4814
▁Information	-4815
▁cere	-4816
▁hospital	-4817
force	-4818
▁atmosphere	-4819
▁secret	-4820
▁Op	-4821
▁forced	-4822
▁invent	-4823
▁Fol	-4824
▁correspond	-4825
▁Lou	-4826
▁processing	-4827
▁vegetables	-4828
▁input	-4829
▁farmers	-4830
▁Russian	-4831
▁install	-4832
bits	-4833
▁pollution	-4834
▁discover	-4835
▁Women	-4836
▁manufacture	-4837
▁90	-4838
oper	-4839
▁pieces	-4840
▁continues	-4841
ifying	-4842
akers	-4843
▁Atl	-4844
ht	-4845
▁supported	-4846
▁adjust	-4847
▁Energy	-4848
▁Que	-4849
▁2007	-4850
▁professor	-4851
▁Kore	-4852
▁hunt	-4853
▁helping	-4854
ij	-4855
▁jour	-4856
eline	-4857
rence	-4858
US	-4859
▁Class	-4860
▁multi	-4861
▁Commission	-4862
▁completed	-4863
▁grand	-4864
icit	-4865
▁Mexico	-4866
▁operation	-4867
▁manner	-4868
▁motor	-4869
ndrome	-4870
▁profession	-4871
▁toxic	-4872
▁army	-4873
▁Histor	-4874
▁Jer	-4875
standing	-4876
▁extensive	-4877
▁looks	-4878
▁70	-4879
uing	-4880
▁Make	-4881
▁consult	-4882
▁centuries	-4883
▁Mac	-4884
▁yellow	-4885
▁concepts	-4886
▁manage	-4887
▁Bay	-4888
astern	-4889
▁pun	-4890
▁flowers	-4891
▁Dist	-4892
pat	-4893
▁datab	-4894
▁Any	-4895
▁essay	-4896
▁links	-4897
▁definition	-4898
▁Technology	-4899
iatric	-4900
▁wonder	-4901
▁emotional	-4902
ams	-4903
place	-4904
▁persons	-4905
▁Through	-4906
▁concerns	-4907
▁phenomen	-4908
ormal	-4909
▁sufficient	-4910
▁leader	-4911
▁fort	-4912
alle	-4913
▁Common	-4914
▁appoint	-4915
▁phase	-4916
eles	-4917
▁intended	-4918
▁tro	-4919
▁diagnosis	-4920
ya	-4921
▁notice	-4922
roke	-4923
▁Flor	-4924
rete	-4925
ishes	-4926
▁allowing	-4927
▁storm	-4928
▁occurred	-4929
▁begins	-4930
24	-4931
▁trial	-4932
▁trou	-4933
enced	-4934
ework	-4935
▁Get	-4936
arrow	-4937
▁Texas	-4938
ael	-4939
eal	-4940
▁Learning	-4941
▁taught	-4942
itors	-4943
▁horm	-4944
▁authority	-4945
▁recorded	-4946
ounced	-4947
▁Forthe	-4948
▁thr	-4949
▁station	-4950
ears	-4951
▁Such	-4952
▁nav	-4953
▁foss	-4954
mat	-4955
▁191	-4956
▁signal	-4957
▁raised	-4958
oxide	-4959
▁nit	-4960
▁comfort	-4961
▁Supp	-4962
▁27	-4963
▁Cam	-4964
▁offered	-4965
▁seeds	-4966
▁lesson	-4967
▁mainly	-4968
▁electrical	-4969
▁Step	-4970
▁drinking	-4971
▁procedure	-4972
▁primarily	-4973
▁encourage	-4974
▁technical	-4975
▁Army	-4976
zing	-4977
vis	-4978
▁seed	-4979
▁largely	-4980
ixt	-4981
▁frequency	-4982
▁renew	-4983
ossible	-4984
onomic	-4985
▁paint	-4986
▁bright	-4987
▁Out	-4988
verty	-4989
▁vital	-4990
▁vulner	-4991
▁shared	-4992
▁Mil	-4993
▁indicate	-4994
▁improved	-4995
▁brief	-4996
aturally	-4997
▁poverty	-4998
ado	-4999
otic	-5000
▁Data	-5001
▁blog	-5002
▁facts	-5003
▁wife	-5004
▁THE	-5005
▁returned	-5006
▁fib	-5007
oking	-5008
▁Those	-5009
▁kinds	-5010
▁formation	-5011
▁engineering	-5012
▁police	-5013
olars	-5014
▁prison	-5015
▁showing	-5016
▁cris	-5017
▁languages	-5018
▁platform	-5019
▁bond	-5020
iday	-5021
▁master	-5022
▁Instead	-5023
▁sustainable	-5024
▁comment	-5025
osite	-5026
▁despite	-5027
nic	-5028
RO	-5029
▁salt	-5030
▁Nor	-5031
▁explan	-5032
▁Stand	-5033
ari	-5034
▁CD	-5035
▁ped	-5036
▁letters	-5037
aker	-5038
▁ideal	-5039
▁collected	-5040
▁stem	-5041
▁purposes	-5042
▁Cop	-5043
▁felt	-5044
▁syn	-5045
▁reduction	-5046
rier	-5047
▁revolution	-5048
▁Fam	-5049
▁awareness	-5050
▁advice	-5051
▁rand	-5052
▁Bible	-5053
comes	-5054
going	-5055
▁efficiency	-5056
olute	-5057
▁Yet	-5058
EL	-5059
▁snow	-5060
RI	-5061
osen	-5062
▁straight	-5063
▁maximum	-5064
▁habitat	-5065
▁Conf	-5066
▁conver	-5067
col	-5068
▁resist	-5069
▁Mem	-5070
▁emergency	-5071
▁AD	-5072
▁Russia	-5073
▁perman	-5074
▁certainly	-5075
band	-5076
▁jobs	-5077
▁188	-5078
rations	-5079
omin	-5080
▁Wind	-5081
▁particles	-5082
▁Pacific	-5083
▁bra	-5084
▁Ste	-5085
▁Robert	-5086
lig	-5087
▁random	-5088
▁grade	-5089
▁Jose	-5090
▁diss	-5091
▁responsibility	-5092
unk	-5093
▁Irish	-5094
rust	-5095
itter	-5096
26	-5097
▁sector	-5098
▁neighbor	-5099
▁Sum	-5100
▁explains	-5101
▁Stat	-5102
▁send	-5103
▁muscles	-5104
▁samples	-5105
▁height	-5106
rates	-5107
cription	-5108
▁existence	-5109
ocal	-5110
▁spl	-5111
▁contribute	-5112
uable	-5113
▁bird	-5114
▁subjects	-5115
▁greatest	-5116
ville	-5117
▁agricultural	-5118
▁AN	-5119
▁Latin	-5120
▁mere	-5121
▁Charles	-5122
▁suggested	-5123
▁looked	-5124
▁focused	-5125
▁Dise	-5126
2)	-5127
▁specifically	-5128
▁Catholic	-5129
▁wet	-5130
add	-5131
utive	-5132
▁situations	-5133
inn	-5134
oughly	-5135
▁Fe	-5136
▁protected	-5137
▁Smith	-5138
▁Note	-5139
▁Wild	-5140
▁chief	-5141
▁dynam	-5142
▁consequences	-5143
▁vent	-5144
enses	-5145
▁Henry	-5146
arter	-5147
gl	-5148
cest	-5149
▁motiv	-5150
▁advance	-5151
▁grad	-5152
▁stars	-5153
▁detailed	-5154
▁rural	-5155
▁otherwise	-5156
zy	-5157
▁onto	-5158
▁happened	-5159
▁minimum	-5160
▁bow	-5161
▁sounds	-5162
▁Despite	-5163
▁excellent	-5164
▁km	-5165
▁Bet	-5166
▁pros	-5167
▁treatments	-5168
▁Good	-5169
BN	-5170
chers	-5171
iced	-5172
▁nations	-5173
▁fif	-5174
othing	-5175
▁faster	-5176
AP	-5177
▁bud	-5178
▁mix	-5179
▁divided	-5180
▁Mont	-5181
▁voice	-5182
▁impacts	-5183
▁Before	-5184
ested	-5185
resents	-5186
▁Sov	-5187
▁interests	-5188
▁lik	-5189
▁sche	-5190
▁Google	-5191
▁hundreds	-5192
▁played	-5193
othe	-5194
▁discrim	-5195
▁2000	-5196
▁Land	-5197
▁Environmental	-5198
igenous	-5199
▁familiar	-5200
rich	-5201
reci	-5202
▁Studies	-5203
▁thoughts	-5204
▁governments	-5205
▁operating	-5206
▁consists	-5207
▁refers	-5208
▁controlled	-5209
van	-5210
▁recognized	-5211
▁surrounding	-5212
▁ecosystem	-5213
tion	-5214
▁reform	-5215
▁monitoring	-5216
▁kil	-5217
▁appeared	-5218
▁satis	-5219
rams	-5220
anges	-5221
▁slightly	-5222
TM	-5223
▁BC	-5224
▁roll	-5225
▁Emp	-5226
▁cert	-5227
▁Foundation	-5228
king	-5229
▁potentially	-5230
ample	-5231
▁sin	-5232
▁paid	-5233
▁approaches	-5234
▁knew	-5235
▁apparent	-5236
▁column	-5237
onomy	-5238
▁studied	-5239
▁Expl	-5240
▁domestic	-5241
▁Federal	-5242
what	-5243
▁Pub	-5244
▁spend	-5245
▁keeping	-5246
-20	-5247
▁firm	-5248
▁Rights	-5249
▁depth	-5250
ague	-5251
▁western	-5252
▁measured	-5253
▁Bre	-5254
▁Review	-5255
ipped	-5256
▁title	-5257
▁mort	-5258
▁disapp	-5259
cium	-5260
▁Nature	-5261
▁aren	-5262
▁career	-5263
▁Sea	-5264
▁Prov	-5265
name	-5266
▁Middle	-5267
▁attacks	-5268
▁typical	-5269
▁sed	-5270
▁Jud	-5271
▁topics	-5272
▁hyper	-5273
29	-5274
▁stone	-5275
point	-5276
▁containing	-5277
▁Franc	-5278
▁Del	-5279
iled	-5280
▁Where	-5281
▁substant	-5282
▁allerg	-5283
active	-5284
stood	-5285
▁represents	-5286
▁pray	-5287
body	-5288
ta	-5289
▁gar	-5290
ails	-5291
▁Att	-5292
▁arms	-5293
5)	-5294
▁Sl	-5295
ulin	-5296
▁Constitution	-5297
▁Lake	-5298
▁fle	-5299
▁sen	-5300
▁tried	-5301
▁<	-5302
▁discovery	-5303
5).	-5304
eters	-5305
▁contem	-5306
▁affects	-5307
tes	-5308
▁director	-5309
▁moist	-5310
BC	-5311
OT	-5312
▁convent	-5313
▁instruction	-5314
ny	-5315
▁walls	-5316
which	-5317
▁Id	-5318
field	-5319
▁couple	-5320
▁portion	-5321
▁continuous	-5322
roid	-5323
▁Columb	-5324
▁explained	-5325
equ	-5326
omy	-5327
▁flat	-5328
oral	-5329
▁abuse	-5330
▁metab	-5331
▁liver	-5332
▁facilities	-5333
▁double	-5334
ship	-5335
▁Sol	-5336
▁closely	-5337
▁external	-5338
▁wel	-5339
▁follows	-5340
?”	-5341
▁ju	-5342
▁goods	-5343
▁nerv	-5344
ras	-5345
▁documents	-5346
itage	-5347
osa	-5348
▁crisis	-5349
▁rapidly	-5350
gal	-5351
▁crops	-5352
itness	-5353
▁du	-5354
▁Virginia	-5355
atever	-5356
▁Carol	-5357
▁investment	-5358
▁>	-5359
ellect	-5360
▁Company	-5361
▁proteins	-5362
inger	-5363
ION	-5364
lers	-5365
▁accurate	-5366
▁views	-5367
asure	-5368
▁Alex	-5369
▁helpful	-5370
▁parties	-5371
▁lose	-5372
iate	-5373
nel	-5374
▁component	-5375
▁marine	-5376
usive	-5377
istan	-5378
▁7.	-5379
olf	-5380
▁rail	-5381
▁Control	-5382
▁valid	-5383
lowing	-5384
▁Nav	-5385
▁periods	-5386
▁Please	-5387
▁ages	-5388
▁Only	-5389
▁neut	-5390
▁Canadian	-5391
▁Tem	-5392
28	-5393
27	-5394
aria	-5395
aks	-5396
down	-5397
▁village	-5398
rastructure	-5399
ye	-5400
eria	-5401
▁files	-5402
▁haz	-5403
▁concerned	-5404
▁nutrients	-5405
▁stated	-5406
alse	-5407
▁grown	-5408
▁justice	-5409
▁subsequent	-5410
▁tested	-5411
▁visible	-5412
▁Wil	-5413
▁dial	-5414
▁selected	-5415
▁movements	-5416
▁Ap	-5417
fill	-5418
▁29	-5419
racy	-5420
alian	-5421
inding	-5422
▁vehicle	-5423
▁myth	-5424
▁Cy	-5425
arp	-5426
▁vaccine	-5427
ascular	-5428
▁Pers	-5429
▁10.	-5430
▁Library	-5431
500	-5432
with	-5433
▁Long	-5434
▁weap	-5435
▁oral	-5436
▁sides	-5437
gment	-5438
▁chann	-5439
TS	-5440
▁Louis	-5441
▁tasks	-5442
▁concentration	-5443
▁naturally	-5444
celer	-5445
▁mit	-5446
▁immun	-5447
6).	-5448
▁distingu	-5449
▁Florida	-5450
▁depos	-5451
▁substance	-5452
▁circumst	-5453
▁Professor	-5454
▁Last	-5455
▁od	-5456
▁employees	-5457
rey	-5458
▁Ham	-5459
▁IN	-5460
▁Who	-5461
ING	-5462
▁Power	-5463
▁(4	-5464
.;	-5465
▁stret	-5466
▁depends	-5467
▁elev	-5468
▁funding	-5469
▁Home	-5470
▁Gra	-5471
umin	-5472
hi	-5473
▁advoc	-5474
▁accompl	-5475
▁residents	-5476
1)	-5477
▁regional	-5478
▁fertil	-5479
▁colors	-5480
ancing	-5481
▁moral	-5482
▁pictures	-5483
▁prices	-5484
ota	-5485
▁Leg	-5486
ocratic	-5487
ml	-5488
▁mamm	-5489
iance	-5490
▁Office	-5491
▁deliver	-5492
▁Saf	-5493
▁originally	-5494
▁tips	-5495
▁narrow	-5496
.|	-5497
▁pil	-5498
ctic	-5499
▁https	-5500
▁simpl	-5501
▁phone	-5502
▁chol	-5503
▁medium	-5504
road	-5505
▁medications	-5506
▁adding	-5507
hma	-5508
▁Exp	-5509
▁Group	-5510
▁moon	-5511
umber	-5512
▁pregnancy	-5513
▁cardi	-5514
▁immig	-5515
33	-5516
rep	-5517
pal	-5518
▁Phot	-5519
▁185	-5520
CO	-5521
▁Tor	-5522
▁formal	-5523
▁Rad	-5524
▁hit	-5525
▁nutrition	-5526
quate	-5527
▁therm	-5528
▁impossible	-5529
▁suffering	-5530
▁Have	-5531
▁Commit	-5532
▁Inf	-5533
▁millions	-5534
ificial	-5535
▁Ox	-5536
▁Labor	-5537
▁laun	-5538
▁Ann	-5539
▁chart	-5540
▁houses	-5541
▁pure	-5542
▁ISBN	-5543
pass	-5544
usal	-5545
▁opinion	-5546
▁Figure	-5547
▁band	-5548
▁pig	-5549
▁latest	-5550
▁recy	-5551
-7	-5552
▁touch	-5553
▁Keep	-5554
▁conscious	-5555
▁35	-5556
▁frag	-5557
anta	-5558
▁obtained	-5559
▁Div	-5560
inent	-5561
▁recon	-5562
▁Ca	-5563
▁capable	-5564
ns	-5565
▁procedures	-5566
dden	-5567
▁accepted	-5568
▁expensive	-5569
▁diam	-5570
ario	-5571
▁latter	-5572
▁defic	-5573
isp	-5574
▁precise	-5575
▁roots	-5576
mic	-5577
▁introduction	-5578
▁apart	-5579
▁crucial	-5580
▁Management	-5581
▁Global	-5582
▁Australian	-5583
▁poet	-5584
▁arrang	-5585
▁brown	-5586
▁sets	-5587
▁interview	-5588
▁recognize	-5589
▁diversity	-5590
▁narr	-5591
ST	-5592
▁3,	-5593
▁Vis	-5594
▁pump	-5595
▁gun	-5596
▁smart	-5597
▁outcomes	-5598
▁calls	-5599
▁prevention	-5600
▁fruits	-5601
▁absolute	-5602
▁Though	-5603
▁remark	-5604
▁leadership	-5605
▁tow	-5606
▁thin	-5607
▁restrict	-5608
▁principle	-5609
▁Engine	-5610
▁ingred	-5611
▁dut	-5612
agues	-5613
▁harvest	-5614
fall	-5615
obe	-5616
▁raise	-5617
▁lands	-5618
▁exchange	-5619
▁tiny	-5620
▁unlike	-5621
win	-5622
’.	-5623
edy	-5624
DF	-5625
state	-5626
▁regularly	-5627
▁museum	-5628
▁troops	-5629
▁figures	-5630
▁decrease	-5631
▁closed	-5632
oster	-5633
▁Writ	-5634
▁deaths	-5635
▁nan	-5636
▁drop	-5637
▁respective	-5638
long	-5639
▁Cancer	-5640
▁ancest	-5641
rans	-5642
atters	-5643
▁agriculture	-5644
▁Micro	-5645
▁Gold	-5646
▁describes	-5647
▁horse	-5648
▁Mo	-5649
▁talking	-5650
▁Finally	-5651
▁sudden	-5652
▁Soviet	-5653
▁era	-5654
▁pretty	-5655
▁stored	-5656
▁internet	-5657
▁fell	-5658
▁opened	-5659
▁dust	-5660
ibilities	-5661
ding	-5662
▁Fact	-5663
alysis	-5664
▁warming	-5665
▁Pan	-5666
clop	-5667
▁comprehensive	-5668
▁Dan	-5669
▁secure	-5670
▁Lu	-5671
anguage	-5672
▁Sym	-5673
▁computers	-5674
▁normally	-5675
▁possibility	-5676
pping	-5677
idden	-5678
liament	-5679
▁Take	-5680
▁chapter	-5681
▁doctors	-5682
▁Know	-5683
▁extract	-5684
MS	-5685
iated	-5686
▁Natural	-5687
cope	-5688
▁assemb	-5689
ese	-5690
inations	-5691
▁driving	-5692
asive	-5693
▁possibly	-5694
▁traffic	-5695
▁valuable	-5696
▁bones	-5697
▁stock	-5698
▁recovery	-5699
ini	-5700
▁aw	-5701
indu	-5702
▁sky	-5703
arant	-5704
▁wire	-5705
▁excl	-5706
▁sick	-5707
▁wildlife	-5708
▁Nations	-5709
▁secondary	-5710
▁phr	-5711
▁slowly	-5712
▁regist	-5713
▁appearance	-5714
▁administration	-5715
▁intake	-5716
▁Ext	-5717
▁Peter	-5718
▁suffer	-5719
ifies	-5720
▁suc	-5721
▁syndrome	-5722
▁appreci	-5723
▁soldiers	-5724
osph	-5725
▁satell	-5726
▁insurance	-5727
▁Early	-5728
▁ble	-5729
▁flight	-5730
▁Gal	-5731
▁corpor	-5732
▁inches	-5733
omes	-5734
▁understood	-5735
▁scholars	-5736
ona	-5737
▁Mill	-5738
▁agencies	-5739
ingly	-5740
▁marriage	-5741
4).	-5742
eper	-5743
rid	-5744
▁survival	-5745
▁guidelines	-5746
▁candid	-5747
▁producing	-5748
▁constitution	-5749
▁adopted	-5750
imer	-5751
mas	-5752
▁prepare	-5753
▁sensitive	-5754
tenance	-5755
ston	-5756
________	-5757
▁massive	-5758
vironments	-5759
▁Whe	-5760
].	-5761
inet	-5762
eer	-5763
▁187	-5764
▁san	-5765
▁agreement	-5766
▁Joseph	-5767
▁unless	-5768
▁digest	-5769
rants	-5770
▁worse	-5771
▁newsp	-5772
▁param	-5773
▁win	-5774
▁incl	-5775
▁speaking	-5776
▁Time	-5777
▁businesses	-5778
urd	-5779
itan	-5780
▁Lab	-5781
▁database	-5782
hist	-5783
ffee	-5784
▁facilit	-5785
▁Mag	-5786
▁entirely	-5787
▁generate	-5788
▁equival	-5789
▁Northern	-5790
free	-5791
▁www	-5792
▁Southern	-5793
▁repeated	-5794
▁ban	-5795
▁intelligence	-5796
▁infrastructure	-5797
▁intellect	-5798
▁agree	-5799
osal	-5800
stream	-5801
▁plate	-5802
▁listed	-5803
▁failed	-5804
▁Design	-5805
▁Jack	-5806
▁universe	-5807
▁Cult	-5808
▁daughter	-5809
agers	-5810
▁revealed	-5811
▁Report	-5812
ava	-5813
45	-5814
pet	-5815
omach	-5816
▁2020	-5817
▁expressed	-5818
▁protocol	-5819
▁inject	-5820
▁Chic	-5821
▁imper	-5822
▁perce	-5823
▁toler	-5824
aser	-5825
▁indeed	-5826
▁twice	-5827
ato	-5828
▁decline	-5829
▁framework	-5830
▁managed	-5831
LE	-5832
▁wave	-5833
▁vote	-5834
▁Study	-5835
▁experiments	-5836
▁mountain	-5837
▁gather	-5838
rine	-5839
▁sentence	-5840
▁tal	-5841
▁Det	-5842
▁Pri	-5843
cks	-5844
▁worldwide	-5845
▁rul	-5846
asp	-5847
▁possess	-5848
war	-5849
▁rub	-5850
▁reject	-5851
▁AC	-5852
▁decade	-5853
ogue	-5854
▁acts	-5855
▁tail	-5856
▁landscape	-5857
zen	-5858
pic	-5859
▁description	-5860
▁hus	-5861
▁networks	-5862
ita	-5863
▁300	-5864
▁Academy	-5865
▁Sk	-5866
▁survive	-5867
▁Exper	-5868
▁label	-5869
▁Vict	-5870
▁push	-5871
▁inflammation	-5872
ansion	-5873
esterol	-5874
▁minim	-5875
▁tun	-5876
kes	-5877
itionally	-5878
▁struggle	-5879
▁wear	-5880
▁assistance	-5881
mun	-5882
▁Among	-5883
urb	-5884
▁Committee	-5885
sts	-5886
olve	-5887
▁district	-5888
▁answers	-5889
pected	-5890
igation	-5891
▁Ill	-5892
▁Learn	-5893
▁medication	-5894
▁wid	-5895
ache	-5896
faces	-5897
icide	-5898
▁remaining	-5899
▁Viet	-5900
100	-5901
▁mobile	-5902
ooth	-5903
cling	-5904
▁unknown	-5905
▁vehicles	-5906
▁gal	-5907
anda	-5908
orrow	-5909
▁electronic	-5910
▁authorities	-5911
▁Mad	-5912
▁selection	-5913
▁index	-5914
▁enhance	-5915
▁diverse	-5916
▁Click	-5917
▁cloud	-5918
ca	-5919
▁insects	-5920
▁shut	-5921
▁Italy	-5922
If	-5923
▁transmission	-5924
▁Cap	-5925
▁wants	-5926
▁format	-5927
▁prem	-5928
normal	-5929
▁confir	-5930
▁window	-5931
▁photograph	-5932
▁sell	-5933
▁improving	-5934
▁Ma	-5935
▁calcium	-5936
▁lifest	-5937
▁Conn	-5938
▁forests	-5939
ki	-5940
▁marked	-5941
▁Hall	-5942
▁afford	-5943
▁Eth	-5944
▁creates	-5945
iform	-5946
▁destroyed	-5947
6)	-5948
▁laboratory	-5949
tage	-5950
▁organized	-5951
ogy	-5952
▁Bur	-5953
.’	-5954
▁circumstances	-5955
▁uns	-5956
erals	-5957
ropical	-5958
▁End	-5959
▁tells	-5960
orter	-5961
▁sports	-5962
elled	-5963
▁Diff	-5964
ada	-5965
ocracy	-5966
ront	-5967
▁Sometimes	-5968
▁Climate	-5969
▁budget	-5970
▁error	-5971
ora	-5972
▁Kh	-5973
▁environments	-5974
▁gall	-5975
▁edge	-5976
▁neuro	-5977
▁critic	-5978
▁founded	-5979
luding	-5980
▁filled	-5981
▁Clin	-5982
▁suitable	-5983
▁greatly	-5984
▁Michael	-5985
▁extended	-5986
▁acceler	-5987
▁choices	-5988
rors	-5989
▁agency	-5990
▁starts	-5991
▁opening	-5992
▁readers	-5993
▁accounts	-5994
▁abund	-5995
▁fly	-5996
▁broken	-5997
ka	-5998
▁discipl	-5999
▁ax	-6000
-9	-6001
Americ	-6002
7).	-6003
▁pull	-6004
▁catch	-6005
▁server	-6006
born	-6007
▁chain	-6008
inder	-6009
▁stages	-6010
fe	-6011
organ	-6012
▁cars	-6013
▁thor	-6014
▁PC	-6015
level	-6016
▁aqu	-6017
hemical	-6018
▁aircraft	-6019
▁Rob	-6020
▁Free	-6021
▁antibiot	-6022
▁Spec	-6023
▁Camp	-6024
▁obtain	-6025
▁ath	-6026
▁Care	-6027
▁ships	-6028
▁Paris	-6029
▁Rome	-6030
▁generated	-6031
▁injuries	-6032
▁supplement	-6033
▁500	-6034
icians	-6035
apping	-6036
▁1990	-6037
▁foundation	-6038
tle	-6039
▁happy	-6040
▁fossil	-6041
orce	-6042
iability	-6043
ded	-6044
▁sweet	-6045
▁supplies	-6046
▁derived	-6047
▁roof	-6048
▁Cre	-6049
▁USA	-6050
▁Richard	-6051
▁mos	-6052
38	-6053
aci	-6054
▁routine	-6055
no	-6056
▁wish	-6057
▁Ter	-6058
▁shell	-6059
▁hem	-6060
inson	-6061
▁thousand	-6062
▁Empire	-6063
▁OF	-6064
35	-6065
▁subs	-6066
▁compr	-6067
▁fewer	-6068
▁waves	-6069
▁din	-6070
inction	-6071
▁plays	-6072
▁sight	-6073
▁manufacturing	-6074
ican	-6075
▁implementation	-6076
▁spr	-6077
▁fixed	-6078
▁184	-6079
inking	-6080
ctive	-6081
▁bear	-6082
▁paralle	-6083
▁permanent	-6084
▁zone	-6085
▁Valley	-6086
▁seeing	-6087
▁stomach	-6088
▁domin	-6089
▁represented	-6090
▁truly	-6091
▁harmful	-6092
ua	-6093
▁alle	-6094
▁pu	-6095
▁younger	-6096
▁colleagues	-6097
▁Top	-6098
▁standing	-6099
▁desire	-6100
▁45	-6101
▁behaviour	-6102
▁kidney	-6103
▁III	-6104
▁AS	-6105
▁inner	-6106
▁earthqu	-6107
▁prepar	-6108
la	-6109
▁inhab	-6110
▁successfully	-6111
▁engage	-6112
▁grav	-6113
▁vessels	-6114
▁shift	-6115
ube	-6116
▁journey	-6117
▁Oh	-6118
▁decide	-6119
▁locations	-6120
▁replaced	-6121
sey	-6122
▁door	-6123
▁remote	-6124
HO	-6125
iology	-6126
UR	-6127
▁lots	-6128
▁limits	-6129
nership	-6130
▁Pop	-6131
bert	-6132
▁immediate	-6133
▁opposite	-6134
▁indicates	-6135
bridge	-6136
▁false	-6137
▁crop	-6138
burg	-6139
2).	-6140
▁sharing	-6141
▁healthcare	-6142
mary	-6143
▁mechanism	-6144
▁cultiv	-6145
▁IP	-6146
▁drain	-6147
▁Penn	-6148
▁Color	-6149
▁tea	-6150
▁sequence	-6151
▁Spain	-6152
itative	-6153
▁Street	-6154
ipping	-6155
▁dioxide	-6156
▁Sign	-6157
▁reader	-6158
▁enable	-6159
▁employment	-6160
▁county	-6161
▁dental	-6162
lets	-6163
irty	-6164
▁gone	-6165
▁refuge	-6166
▁unable	-6167
ymph	-6168
nam	-6169
last	-6170
▁electron	-6171
▁overl	-6172
▁1:	-6173
▁carefully	-6174
1).	-6175
▁acids	-6176
▁listen	-6177
▁Dig	-6178
ashion	-6179
erent	-6180
▁fab	-6181
▁clust	-6182
▁eastern	-6183
9).	-6184
▁||	-6185
gent	-6186
throp	-6187
ena	-6188
▁chick	-6189
▁supports	-6190
▁consistent	-6191
▁powers	-6192
▁organisms	-6193
▁consumers	-6194
▁PM	-6195
▁institution	-6196
75	-6197
▁issued	-6198
▁interaction	-6199
▁script	-6200
▁Mer	-6201
▁Disease	-6202
icon	-6203
▁Administ	-6204
▁difficulty	-6205
3)	-6206
▁signals	-6207
heast	-6208
▁Bank	-6209
isk	-6210
▁8.	-6211
▁reserv	-6212
▁closer	-6213
▁Ess	-6214
CS	-6215
DP	-6216
▁supposed	-6217
▁married	-6218
▁optim	-6219
called	-6220
aped	-6221
▁professionals	-6222
▁leaf	-6223
▁Form	-6224
▁stroke	-6225
▁Current	-6226
▁ourselves	-6227
ala	-6228
rus	-6229
▁Ref	-6230
erior	-6231
▁walking	-6232
▁Chicago	-6233
▁unus	-6234
▁therap	-6235
▁maintenance	-6236
▁knows	-6237
hand	-6238
etime	-6239
▁grew	-6240
▁Wik	-6241
▁defe	-6242
▁join	-6243
▁arrived	-6244
orith	-6245
▁sod	-6246
▁neck	-6247
▁List	-6248
antly	-6249
▁intervention	-6250
quit	-6251
▁conventional	-6252
▁funds	-6253
▁Security	-6254
▁beneficial	-6255
▁instrument	-6256
▁necessarily	-6257
utch	-6258
▁solve	-6259
▁hydrogen	-6260
stone	-6261
acing	-6262
▁administr	-6263
stein	-6264
▁twenty	-6265
36	-6266
▁shot	-6267
3).	-6268
What	-6269
izer	-6270
▁cos	-6271
▁chosen	-6272
▁ends	-6273
▁prompt	-6274
▁Haw	-6275
▁Board	-6276
▁philosophy	-6277
▁dedicated	-6278
zed	-6279
▁Look	-6280
▁steel	-6281
▁Agricult	-6282
eers	-6283
7)	-6284
▁Party	-6285
▁Str	-6286
▁accum	-6287
zil	-6288
▁Royal	-6289
▁responses	-6290
▁joined	-6291
▁carb	-6292
As	-6293
▁Cat	-6294
phone	-6295
▁Gard	-6296
▁architecture	-6297
▁astr	-6298
▁purchase	-6299
▁attached	-6300
▁flag	-6301
▁border	-6302
▁stands	-6303
cknow	-6304
▁occasion	-6305
▁Ocean	-6306
▁Sciences	-6307
ivery	-6308
▁handle	-6309
▁molecules	-6310
under	-6311
▁ultimately	-6312
iration	-6313
▁Three	-6314
4)	-6315
umes	-6316
▁Bab	-6317
▁rising	-6318
▁Italian	-6319
▁Wood	-6320
cribed	-6321
cyclop	-6322
▁lies	-6323
azing	-6324
▁warning	-6325
▁cholesterol	-6326
▁cultures	-6327
▁density	-6328
▁fighting	-6329
IL	-6330
fortunately	-6331
▁boost	-6332
▁turns	-6333
▁comments	-6334
▁surve	-6335
spec	-6336
▁epid	-6337
▁resulted	-6338
▁housing	-6339
▁supporting	-6340
ifications	-6341
▁Scott	-6342
▁composition	-6343
▁Times	-6344
ictionary	-6345
▁rank	-6346
▁Creat	-6347
tery	-6348
▁chrom	-6349
▁circuit	-6350
▁drawing	-6351
▁debate	-6352
orous	-6353
▁Bul	-6354
ola	-6355
▁election	-6356
car	-6357
▁Check	-6358
pes	-6359
▁mild	-6360
eck	-6361
▁biggest	-6362
hyth	-6363
▁coffee	-6364
▁Nut	-6365
ih	-6366
▁cards	-6367
▁Frank	-6368
▁pra	-6369
▁Teac	-6370
▁mixed	-6371
▁yield	-6372
flow	-6373
▁4,	-6374
▁horiz	-6375
▁communicate	-6376
wing	-6377
▁bread	-6378
gans	-6379
’,	-6380
▁emotions	-6381
▁doll	-6382
▁cart	-6383
gu	-6384
▁enemy	-6385
▁Indians	-6386
▁witness	-6387
ums	-6388
▁Native	-6389
▁territory	-6390
agon	-6391
▁exists	-6392
▁taste	-6393
▁ethnic	-6394
athe	-6395
▁comparison	-6396
irds	-6397
rovers	-6398
▁regulations	-6399
▁willing	-6400
▁Vit	-6401
▁voc	-6402
esis	-6403
▁discrimination	-6404
99	-6405
▁aer	-6406
▁usage	-6407
▁tall	-6408
then	-6409
▁battery	-6410
▁transportation	-6411
▁inhib	-6412
▁politics	-6413
▁magnetic	-6414
▁Researchers	-6415
xts	-6416
fish	-6417
omic	-6418
▁vulnerable	-6419
▁writer	-6420
BS	-6421
▁Den	-6422
▁prove	-6423
▁matters	-6424
▁persist	-6425
▁Chapter	-6426
▁reinf	-6427
▁participate	-6428
▁cryst	-6429
▁myster	-6430
▁2006	-6431
▁gluc	-6432
▁behaviors	-6433
eenth	-6434
▁explo	-6435
▁observations	-6436
▁eld	-6437
▁nerve	-6438
▁equivalent	-6439
▁smoke	-6440
▁butter	-6441
ocy	-6442
▁Revolution	-6443
onym	-6444
▁negot	-6445
▁regul	-6446
inity	-6447
▁Does	-6448
▁AI	-6449
▁Martin	-6450
▁whatever	-6451
▁colour	-6452
▁Article	-6453
aud	-6454
▁flav	-6455
sue	-6456
▁Back	-6457
▁percentage	-6458
▁explanation	-6459
▁Equ	-6460
▁Main	-6461
▁noise	-6462
▁instruments	-6463
▁Pet	-6464
▁university	-6465
▁centre	-6466
▁download	-6467
▁hero	-6468
▁nearby	-6469
▁guarant	-6470
net	-6471
▁Py	-6472
▁contained	-6473
▁36	-6474
▁lit	-6475
▁Access	-6476
word	-6477
▁highlight	-6478
▁Find	-6479
▁ratio	-6480
▁stable	-6481
ighter	-6482
▁relax	-6483
EP	-6484
▁ran	-6485
▁teen	-6486
pread	-6487
▁request	-6488
▁cutting	-6489
▁domain	-6490
▁Pract	-6491
▁Sever	-6492
▁Moreover	-6493
▁mice	-6494
uh	-6495
rd	-6496
oman	-6497
teen	-6498
▁layers	-6499
cher	-6500
ctor	-6501
cture	-6502
▁mechanisms	-6503
▁Non	-6504
▁wasn	-6505
▁brand	-6506
▁acknow	-6507
ployment	-6508
▁resolution	-6509
▁memb	-6510
▁traum	-6511
how	-6512
▁demonstrated	-6513
▁orbit	-6514
▁relation	-6515
▁Carolina	-6516
▁raw	-6517
▁forth	-6518
▁pregnant	-6519
een	-6520
avery	-6521
▁trials	-6522
▁whereas	-6523
oom	-6524
▁Cast	-6525
▁connections	-6526
▁scene	-6527
kins	-6528
/20	-6529
▁Similar	-6530
▁lifestyle	-6531
▁breathing	-6532
ented	-6533
▁Unfortunately	-6534
idity	-6535
▁sail	-6536
▁compounds	-6537
▁Hy	-6538
▁Furthermore	-6539
▁©	-6540
▁sections	-6541
▁concrete	-6542
ait	-6543
▁thy	-6544
▁Georg	-6545
peror	-6546
▁pool	-6547
▁Family	-6548
▁crim	-6549
▁award	-6550
▁trained	-6551
▁spok	-6552
▁rid	-6553
▁generations	-6554
▁MD	-6555
▁Comput	-6556
bour	-6557
ugh	-6558
otion	-6559
▁manif	-6560
▁Quest	-6561
▁variable	-6562
▁transition	-6563
▁shop	-6564
▁contamin	-6565
▁legs	-6566
▁Big	-6567
idespread	-6568
illing	-6569
▁habits	-6570
▁examine	-6571
▁accident	-6572
▁Ins	-6573
▁owners	-6574
▁Kingdom	-6575
▁employed	-6576
▁none	-6577
▁prev	-6578
▁capture	-6579
▁Columbia	-6580
abul	-6581
▁Guide	-6582
▁algorith	-6583
▁customers	-6584
▁tons	-6585
▁hypothes	-6586
▁fiber	-6587
etics	-6588
▁reactions	-6589
▁pron	-6590
ups	-6591
▁agreed	-6592
▁Special	-6593
▁Effect	-6594
▁camera	-6595
▁Table	-6596
▁gap	-6597
▁delay	-6598
8).	-6599
ey	-6600
▁Age	-6601
itudes	-6602
inating	-6603
▁presentation	-6604
mes	-6605
▁demonstrate	-6606
▁Men	-6607
OL	-6608
riers	-6609
▁define	-6610
▁estimate	-6611
▁independence	-6612
▁painting	-6613
outs	-6614
▁preval	-6615
▁feeding	-6616
▁ille	-6617
hav	-6618
▁fasc	-6619
▁Lar	-6620
▁succeed	-6621
▁islands	-6622
abled	-6623
▁string	-6624
▁Plant	-6625
▁Gr	-6626
▁Sing	-6627
▁committed	-6628
▁Brazil	-6629
▁Face	-6630
▁blocks	-6631
▁holds	-6632
▁2005	-6633
ureau	-6634
▁tract	-6635
print	-6636
emia	-6637
▁destruction	-6638
▁·	-6639
▁ahead	-6640
▁reven	-6641
while	-6642
▁circle	-6643
▁cats	-6644
▁Prop	-6645
▁recognition	-6646
▁entered	-6647
▁intellectual	-6648
▁Four	-6649
▁coastal	-6650
▁Author	-6651
▁electro	-6652
▁Start	-6653
iah	-6654
cular	-6655
▁Holy	-6656
▁veter	-6657
that	-6658
▁Typ	-6659
such	-6660
▁voltage	-6661
plant	-6662
stract	-6663
▁fa	-6664
▁runs	-6665
▁participation	-6666
▁legislation	-6667
sen	-6668
ifts	-6669
▁feedback	-6670
▁prohib	-6671
▁dollars	-6672
▁maps	-6673
You	-6674
hop	-6675
▁greenhouse	-6676
▁shel	-6677
▁machines	-6678
▁diagnosed	-6679
▁Language	-6680
▁trip	-6681
▁cup	-6682
▁conclusion	-6683
▁mand	-6684
▁hydro	-6685
▁somewhat	-6686
▁match	-6687
▁rivers	-6688
▁neither	-6689
▁meters	-6690
▁interactions	-6691
▁Orig	-6692
▁evaluation	-6693
▁asthma	-6694
▁association	-6695
▁bridge	-6696
▁ru	-6697
▁Fund	-6698
▁orient	-6699
▁constructed	-6700
scale	-6701
▁launched	-6702
▁beliefs	-6703
▁mode	-6704
▁crime	-6705
▁Jo	-6706
▁partners	-6707
OC	-6708
▁Victor	-6709
▁papers	-6710
▁arrest	-6711
▁declared	-6712
▁psychological	-6713
▁manip	-6714
▁fract	-6715
onia	-6716
but	-6717
▁Open	-6718
▁Atlantic	-6719
▁improvement	-6720
▁Dar	-6721
heric	-6722
There	-6723
▁holding	-6724
▁burning	-6725
struction	-6726
▁drawn	-6727
▁entry	-6728
▁passage	-6729
▁Additionally	-6730
▁sole	-6731
▁Word	-6732
▁mood	-6733
▁ended	-6734
▁route	-6735
aked	-6736
▁positions	-6737
aph	-6738
▁Change	-6739
▁1980	-6740
bles	-6741
▁adoles	-6742
▁biod	-6743
ourage	-6744
▁texts	-6745
top	-6746
▁danger	-6747
▁sacr	-6748
▁confidence	-6749
▁alter	-6750
igned	-6751
▁expansion	-6752
hesis	-6753
▁estimates	-6754
earing	-6755
Is	-6756
▁Bus	-6757
▁doi	-6758
▁fever	-6759
▁husband	-6760
ften	-6761
▁players	-6762
eless	-6763
▁physics	-6764
▁relief	-6765
▁fabric	-6766
bur	-6767
▁involving	-6768
▁Eastern	-6769
weight	-6770
▁ongoing	-6771
▁micros	-6772
▁volcan	-6773
itely	-6774
▁operate	-6775
▁delivery	-6776
▁integrated	-6777
itivity	-6778
gov	-6779
usions	-6780
orph	-6781
▁tissues	-6782
▁everyday	-6783
▁spaces	-6784
orses	-6785
▁Mean	-6786
▁undert	-6787
▁molecular	-6788
▁1/	-6789
▁Resources	-6790
▁widespread	-6791
▁artificial	-6792
▁Exam	-6793
▁functional	-6794
▁photo	-6795
▁Services	-6796
arsh	-6797
▁publication	-6798
▁Lead	-6799
▁victims	-6800
▁Never	-6801
▁insulin	-6802
▁perm	-6803
▁rice	-6804
▁disaster	-6805
▁historic	-6806
▁nest	-6807
▁depart	-6808
▁sheet	-6809
-18	-6810
produ	-6811
▁Method	-6812
▁maintaining	-6813
▁criminal	-6814
LA	-6815
▁fu	-6816
▁Mel	-6817
▁Network	-6818
asty	-6819
▁realize	-6820
umps	-6821
rary	-6822
▁flo	-6823
▁parallel	-6824
▁forget	-6825
▁covers	-6826
▁defend	-6827
▁Next	-6828
▁Year	-6829
▁accessible	-6830
▁zero	-6831
▁defense	-6832
▁AP	-6833
▁tank	-6834
▁rocks	-6835
▁spending	-6836
▁smoking	-6837
▁2016	-6838
she	-6839
▁neur	-6840
▁frame	-6841
▁claimed	-6842
▁(198	-6843
▁consumer	-6844
▁boy	-6845
▁dimens	-6846
▁Sat	-6847
▁Heb	-6848
39	-6849
eren	-6850
liest	-6851
ibl	-6852
ella	-6853
▁Less	-6854
▁swim	-6855
▁debt	-6856
isdom	-6857
34	-6858
ishment	-6859
▁Du	-6860
andon	-6861
▁industries	-6862
▁Low	-6863
▁brings	-6864
tic	-6865
▁Adv	-6866
▁Bill	-6867
▁theories	-6868
▁2015	-6869
▁150	-6870
▁Young	-6871
▁Tre	-6872
▁Iran	-6873
▁markets	-6874
▁pair	-6875
▁merely	-6876
▁soul	-6877
▁Grand	-6878
▁1970	-6879
rowing	-6880
▁recept	-6881
▁Wall	-6882
asters	-6883
xual	-6884
▁pup	-6885
▁Zeal	-6886
▁Agency	-6887
osion	-6888
oples	-6889
▁controvers	-6890
▁division	-6891
▁receiving	-6892
▁composed	-6893
▁pounds	-6894
▁compens	-6895
uts	-6896
awn	-6897
ude	-6898
▁192	-6899
iratory	-6900
▁Secret	-6901
▁Type	-6902
▁controls	-6903
▁mac	-6904
▁oblig	-6905
▁fro	-6906
▁smooth	-6907
▁reliable	-6908
▁putting	-6909
▁crew	-6910
8)	-6911
▁repair	-6912
▁approved	-6913
igan	-6914
▁rig	-6915
UN	-6916
heimer	-6917
▁Director	-6918
ether	-6919
▁Scot	-6920
irt	-6921
He	-6922
▁shad	-6923
oln	-6924
▁poison	-6925
▁minerals	-6926
▁panel	-6927
▁Several	-6928
▁ske	-6929
▁department	-6930
▁significance	-6931
▁strongly	-6932
▁viruses	-6933
▁Cho	-6934
▁Kar	-6935
▁trouble	-6936
rating	-6937
▁honor	-6938
▁loved	-6939
▁MS	-6940
▁Muslim	-6941
▁rarely	-6942
▁tick	-6943
▁enforce	-6944
▁sought	-6945
▁messages	-6946
▁moisture	-6947
▁challenging	-6948
▁conven	-6949
▁objective	-6950
▁Ver	-6951
▁announced	-6952
▁categories	-6953
IA	-6954
oston	-6955
hips	-6956
▁Moon	-6957
▁Organization	-6958
▁outbre	-6959
▁fashion	-6960
▁Asian	-6961
▁concer	-6962
gs	-6963
ano	-6964
▁mold	-6965
▁programming	-6966
▁inher	-6967
▁artists	-6968
▁Sil	-6969
▁Jac	-6970
▁agents	-6971
▁turning	-6972
▁distributed	-6973
▁Ven	-6974
▁Christmas	-6975
▁Oxford	-6976
▁centers	-6977
cel	-6978
▁defect	-6979
▁Hill	-6980
▁Bu	-6981
▁engaged	-6982
▁settings	-6983
▁exercises	-6984
yles	-6985
▁banks	-6986
▁Down	-6987
▁asking	-6988
▁Coast	-6989
▁minute	-6990
▁Ur	-6991
▁beings	-6992
▁chest	-6993
▁organs	-6994
▁Star	-6995
▁400	-6996
▁furn	-6997
▁breath	-6998
▁contemporary	-6999
/0	-7000
▁indicated	-7001
anc	-7002
▁Forest	-7003
▁Zealand	-7004
isters	-7005
▁embry	-7006
▁Pot	-7007
▁facility	-7008
▁2:	-7009
▁partner	-7010
raq	-7011
▁elected	-7012
▁glucose	-7013
▁coc	-7014
herent	-7015
▁females	-7016
▁Sar	-7017
▁designs	-7018
▁meal	-7019
▁signed	-7020
▁Jeff	-7021
IG	-7022
▁writers	-7023
▁Yes	-7024
▁serving	-7025
operation	-7026
▁bio	-7027
IP	-7028
▁mathematics	-7029
▁intense	-7030
▁measurements	-7031
▁mining	-7032
ohyd	-7033
▁theme	-7034
▁considerable	-7035
▁transp	-7036
▁tight	-7037
▁assume	-7038
▁evil	-7039
ipedia	-7040
rite	-7041
abulary	-7042
▁fourth	-7043
isco	-7044
▁substances	-7045
▁thanks	-7046
▁installed	-7047
▁officers	-7048
▁Pen	-7049
Al	-7050
otyp	-7051
hent	-7052
▁Super	-7053
▁Naz	-7054
ocation	-7055
IR	-7056
▁moves	-7057
▁rely	-7058
▁category	-7059
▁archae	-7060
▁Est	-7061
va	-7062
▁stre	-7063
▁babies	-7064
▁31	-7065
-10	-7066
▁Er	-7067
▁proportion	-7068
▁Kenn	-7069
▁fault	-7070
aska	-7071
ixture	-7072
▁seeking	-7073
▁bringing	-7074
▁Polic	-7075
gers	-7076
mers	-7077
▁visitors	-7078
▁outcome	-7079
▁constantly	-7080
▁Source	-7081
▁opposed	-7082
▁District	-7083
▁strict	-7084
▁poem	-7085
▁escape	-7086
▁tut	-7087
▁guidance	-7088
▁Tim	-7089
omp	-7090
▁captured	-7091
▁plane	-7092
▁lake	-7093
▁Mah	-7094
▁Perhaps	-7095
▁Key	-7096
orders	-7097
ritis	-7098
▁sharp	-7099
▁phenomenon	-7100
▁beauty	-7101
▁mineral	-7102
▁wait	-7103
▁ring	-7104
▁180	-7105
▁arts	-7106
▁Father	-7107
▁planned	-7108
▁pharm	-7109
▁confirmed	-7110
▁adequate	-7111
▁proof	-7112
▁Edward	-7113
▁passing	-7114
▁evaluate	-7115
▁nitrogen	-7116
greg	-7117
▁Mult	-7118
▁maintained	-7119
▁hur	-7120
▁favorite	-7121
▁statistics	-7122
cons	-7123
▁gram	-7124
▁resident	-7125
▁combat	-7126
▁dependent	-7127
▁vs	-7128
adder	-7129
▁fairly	-7130
ushed	-7131
▁dent	-7132
angers	-7133
▁Community	-7134
▁hole	-7135
▁Page	-7136
▁crow	-7137
making	-7138
▁virtual	-7139
iox	-7140
▁Sund	-7141
▁abandon	-7142
▁weapons	-7143
▁facing	-7144
▁equally	-7145
▁launch	-7146
▁recommendations	-7147
▁ingredients	-7148
▁physician	-7149
▁Windows	-7150
37	-7151
▁withd	-7152
▁roughly	-7153
▁2014	-7154
▁photos	-7155
▁nervous	-7156
▁kilomet	-7157
▁plus	-7158
▁implications	-7159
ivered	-7160
rooms	-7161
▁jump	-7162
▁principal	-7163
airy	-7164
▁partnership	-7165
▁Liter	-7166
▁infect	-7167
▁vac	-7168
▁wound	-7169
▁Indust	-7170
▁Sup	-7171
55	-7172
▁galax	-7173
▁interpretation	-7174
▁neighborhood	-7175
▁mm	-7176
rav	-7177
▁Light	-7178
▁complicated	-7179
itual	-7180
▁encouraged	-7181
RA	-7182
▁compare	-7183
▁ordered	-7184
▁proved	-7185
lym	-7186
▁theore	-7187
▁clothing	-7188
▁2017	-7189
▁accuracy	-7190
▁Gar	-7191
CD	-7192
▁Korea	-7193
▁empt	-7194
ventions	-7195
▁males	-7196
▁Cell	-7197
▁Christians	-7198
▁Online	-7199
▁offering	-7200
▁32	-7201
▁Force	-7202
▁edition	-7203
▁breeding	-7204
American	-7205
▁renewable	-7206
reek	-7207
cyclopedia	-7208
dule	-7209
▁mosquit	-7210
▁traditions	-7211
▁Lib	-7212
▁9.	-7213
▁ment	-7214
icted	-7215
▁Nov	-7216
▁1960	-7217
▁attempts	-7218
▁shock	-7219
▁Po	-7220
▁insert	-7221
▁aims	-7222
erty	-7223
▁temple	-7224
▁remind	-7225
▁imagine	-7226
▁cav	-7227
▁careful	-7228
including	-7229
▁branches	-7230
Ph	-7231
▁IV	-7232
▁Alz	-7233
▁autism	-7234
▁forg	-7235
▁Without	-7236
▁Conservation	-7237
▁TV	-7238
lishing	-7239
▁gradually	-7240
ishop	-7241
▁dischar	-7242
▁microb	-7243
ounter	-7244
▁Facebook	-7245
▁slavery	-7246
▁finished	-7247
▁examination	-7248
incoln	-7249
▁Ident	-7250
▁cm	-7251
▁adm	-7252
▁essentially	-7253
esides	-7254
▁unusual	-7255
onds	-7256
▁cod	-7257
vin	-7258
▁Cross	-7259
▁advert	-7260
ograp	-7261
hyd	-7262
bra	-7263
▁AND	-7264
▁surfaces	-7265
▁targets	-7266
▁seconds	-7267
▁overw	-7268
fts	-7269
▁assigned	-7270
▁owner	-7271
10.	-7272
▁meth	-7273
▁fishing	-7274
▁heating	-7275
▁satellite	-7276
▁lie	-7277
▁maybe	-7278
▁Centre	-7279
ima	-7280
UT	-7281
apse	-7282
▁gained	-7283
▁plenty	-7284
▁deeper	-7285
▁Sir	-7286
▁rose	-7287
▁Mos	-7288
▁influenced	-7289
▁cash	-7290
▁flour	-7291
theless	-7292
▁abnormal	-7293
▁Iraq	-7294
▁Dou	-7295
▁dates	-7296
▁radical	-7297
▁roles	-7298
uset	-7299
▁effectiveness	-7300
example	-7301
ricts	-7302
▁terror	-7303
▁athlet	-7304
▁artist	-7305
▁Modern	-7306
▁phosph	-7307
▁Ott	-7308
Ar	-7309
▁shapes	-7310
▁pestic	-7311
▁respectively	-7312
sis	-7313
alm	-7314
32	-7315
▁informed	-7316
▁reduces	-7317
vard	-7318
9)	-7319
▁Polit	-7320
▁incred	-7321
▁implemented	-7322
▁dealing	-7323
▁suffered	-7324
▁collaboration	-7325
▁Dev	-7326
▁laid	-7327
etary	-7328
▁knowing	-7329
▁blind	-7330
▁Alzheimer	-7331
▁session	-7332
oir	-7333
iest	-7334
▁lymph	-7335
▁Introdu	-7336
▁television	-7337
▁stronger	-7338
▁commission	-7339
▁ye	-7340
▁mountains	-7341
iral	-7342
▁desired	-7343
▁Boston	-7344
▁granted	-7345
▁bath	-7346
▁EU	-7347
▁nur	-7348
▁Rock	-7349
▁concerning	-7350
ani	-7351
▁Avoid	-7352
onn	-7353
▁Administration	-7354
achuset	-7355
▁preventing	-7356
▁Copy	-7357
oids	-7358
▁surprising	-7359
▁drought	-7360
achusetts	-7361
oured	-7362
▁criteria	-7363
prof	-7364
semb	-7365
▁structural	-7366
▁cab	-7367
ercury	-7368
▁Which	-7369
▁statements	-7370
▁Section	-7371
▁quarter	-7372
▁delivered	-7373
▁metabol	-7374
▁mechanical	-7375
▁Whether	-7376
rous	-7377
▁nose	-7378
▁preparation	-7379
%)	-7380
ading	-7381
▁satisf	-7382
▁scar	-7383
▁threats	-7384
raining	-7385
▁presents	-7386
yal	-7387
▁proven	-7388
▁planets	-7389
▁uncertain	-7390
▁Card	-7391
ters	-7392
▁Prevention	-7393
▁jur	-7394
▁acres	-7395
agram	-7396
▁Reading	-7397
▁corner	-7398
alls	-7399
aired	-7400
RC	-7401
▁Heart	-7402
▁usual	-7403
▁union	-7404
▁cooking	-7405
▁modified	-7406
ruption	-7407
▁removal	-7408
ulpt	-7409
▁Trad	-7410
▁demands	-7411
oves	-7412
▁earliest	-7413
osh	-7414
▁excessive	-7415
▁fed	-7416
▁beans	-7417
▁stead	-7418
▁horses	-7419
▁superior	-7420
▁decor	-7421
▁paras	-7422
IM	-7423
▁compound	-7424
health	-7425
An	-7426
▁2004	-7427
▁fest	-7428
▁peak	-7429
▁adds	-7430
▁marks	-7431
▁sitting	-7432
44	-7433
bec	-7434
oric	-7435
aded	-7436
▁stimul	-7437
▁isolated	-7438
▁screening	-7439
pling	-7440
▁falls	-7441
istical	-7442
▁gro	-7443
rape	-7444
▁angle	-7445
▁considering	-7446
▁roads	-7447
▁Treatment	-7448
html	-7449
▁Hebrew	-7450
ady	-7451
▁Sand	-7452
▁Lincoln	-7453
htt	-7454
▁Minister	-7455
▁dose	-7456
▁item	-7457
▁AM	-7458
roat	-7459
▁5,	-7460
▁epis	-7461
65	-7462
▁DC	-7463
ommod	-7464
▁filter	-7465
▁difficulties	-7466
▁settlement	-7467
▁translation	-7468
▁investigation	-7469
▁newly	-7470
▁conference	-7471
ounce	-7472
▁attitude	-7473
▁finds	-7474
▁permission	-7475
abil	-7476
iner	-7477
▁variables	-7478
▁observe	-7479
▁dys	-7480
▁examined	-7481
▁farming	-7482
▁scientist	-7483
▁senior	-7484
▁Arctic	-7485
▁printed	-7486
▁caught	-7487
▁scan	-7488
lvan	-7489
▁branch	-7490
▁fer	-7491
▁Massachusetts	-7492
df	-7493
▁teams	-7494
▁Indeed	-7495
▁universal	-7496
sm	-7497
▁sport	-7498
erman	-7499
▁Ask	-7500
▁Try	-7501
ogether	-7502
▁flower	-7503
▁happening	-7504
otton	-7505
unicip	-7506
itals	-7507
▁concluded	-7508
▁irrit	-7509
▁sunlight	-7510
▁outer	-7511
bar	-7512
▁identification	-7513
▁Georgia	-7514
▁varieties	-7515
▁accompan	-7516
▁provider	-7517
illed	-7518
▁acute	-7519
amins	-7520
▁measurement	-7521
▁intent	-7522
▁conqu	-7523
▁(5	-7524
▁towns	-7525
▁visited	-7526
▁rect	-7527
▁bigger	-7528
eness	-7529
rolled	-7530
▁Dutch	-7531
▁regulation	-7532
▁Pur	-7533
thritis	-7534
▁hazard	-7535
▁absence	-7536
▁Media	-7537
▁stuff	-7538
▁Fire	-7539
▁clar	-7540
▁intest	-7541
▁directed	-7542
from	-7543
▁score	-7544
▁emphasis	-7545
▁Portug	-7546
irus	-7547
▁errors	-7548
▁recover	-7549
▁heads	-7550
▁inspect	-7551
iana	-7552
▁rhyth	-7553
ioxid	-7554
▁editor	-7555
▁healing	-7556
SS	-7557
▁Protection	-7558
▁pref	-7559
▁cham	-7560
▁Books	-7561
▁spectrum	-7562
▁sales	-7563
▁py	-7564
▁Coll	-7565
▁driven	-7566
▁Corn	-7567
▁giant	-7568
▁stores	-7569
ovascular	-7570
ulty	-7571
arters	-7572
▁Person	-7573
▁flows	-7574
elfare	-7575
▁faced	-7576
▁Solar	-7577
▁inspired	-7578
▁substantial	-7579
▁Works	-7580
▁unw	-7581
▁tube	-7582
▁reveal	-7583
▁trigger	-7584
▁Jul	-7585
real	-7586
▁serves	-7587
▁windows	-7588
asant	-7589
▁enorm	-7590
▁reward	-7591
▁characterized	-7592
?"	-7593
:10.	-7594
▁slaves	-7595
▁Being	-7596
▁interpre	-7597
▁2003	-7598
▁guard	-7599
▁amazing	-7600
▁contribution	-7601
ults	-7602
▁outl	-7603
▁Again	-7604
sylvan	-7605
iture	-7606
rained	-7607
▁counsel	-7608
azon	-7609
▁variation	-7610
▁bomb	-7611
▁advantages	-7612
▁Pass	-7613
▁focuses	-7614
▁^	-7615
▁conj	-7616
ucky	-7617
▁Hor	-7618
▁copper	-7619
▁initially	-7620
OM	-7621
ogs	-7622
▁fix	-7623
▁breed	-7624
▁switch	-7625
▁van	-7626
rin	-7627
▁Resp	-7628
agraph	-7629
▁;	-7630
▁prominent	-7631
▁)	-7632
iva	-7633
AA	-7634
▁peoples	-7635
night	-7636
oving	-7637
▁analys	-7638
▁cattle	-7639
▁Hand	-7640
▁Having	-7641
▁Following	-7642
▁Swed	-7643
▁ritual	-7644
▁aged	-7645
▁mothers	-7646
igue	-7647
▁complications	-7648
%.	-7649
essions	-7650
▁uniform	-7651
▁tropical	-7652
ami	-7653
▁argue	-7654
▁Ut	-7655
▁Remember	-7656
eli	-7657
iary	-7658
irth	-7659
▁Vitamin	-7660
▁Tom	-7661
▁bees	-7662
▁wheat	-7663
▁detection	-7664
▁courts	-7665
▁Lo	-7666
▁Point	-7667
HA	-7668
itarian	-7669
▁conserv	-7670
▁boat	-7671
ega	-7672
▁videos	-7673
New	-7674
▁Init	-7675
▁taxes	-7676
ptions	-7677
▁Ped	-7678
trans	-7679
▁strengthen	-7680
rance	-7681
▁View	-7682
ilation	-7683
orted	-7684
▁regarded	-7685
▁probability	-7686
66	-7687
▁Battle	-7688
▁communications	-7689
dis	-7690
▁ov	-7691
angle	-7692
▁musical	-7693
▁fatty	-7694
▁Michigan	-7695
atial	-7696
uits	-7697
▁chlor	-7698
▁preced	-7699
ounder	-7700
▁audio	-7701
▁exception	-7702
▁inhabit	-7703
▁representation	-7704
neys	-7705
▁tumor	-7706
▁eliminate	-7707
▁202	-7708
▁grid	-7709
ultane	-7710
rency	-7711
otherapy	-7712
▁Ohio	-7713
▁infant	-7714
▁innovation	-7715
CE	-7716
▁37	-7717
▁anywhere	-7718
▁AL	-7719
▁disturb	-7720
▁Johnson	-7721
olving	-7722
▁supplements	-7723
▁pin	-7724
▁perception	-7725
▁Mater	-7726
▁calling	-7727
yer	-7728
ieval	-7729
▁extend	-7730
▁stations	-7731
▁intensity	-7732
▁Queen	-7733
▁38	-7734
soft	-7735
quir	-7736
▁consideration	-7737
▁grain	-7738
▁worst	-7739
oli	-7740
▁writes	-7741
▁Ari	-7742
▁holes	-7743
▁occurring	-7744
▁respiratory	-7745
▁heavily	-7746
▁copyright	-7747
48	-7748
▁uncom	-7749
▁array	-7750
▁fra	-7751
▁victim	-7752
▁royal	-7753
▁Imp	-7754
▁Incre	-7755
▁accommod	-7756
▁plot	-7757
▁indigenous	-7758
▁Ep	-7759
▁Supreme	-7760
▁carbohyd	-7761
▁disabilities	-7762
asts	-7763
▁1950	-7764
rene	-7765
▁threatened	-7766
rot	-7767
ansas	-7768
▁Unlike	-7769
▁mortality	-7770
▁panels	-7771
▁Ken	-7772
▁rational	-7773
▁polar	-7774
▁contributed	-7775
▁correl	-7776
illa	-7777
▁illegal	-7778
▁batt	-7779
▁democracy	-7780
bing	-7781
▁Safety	-7782
▁fung	-7783
▁dietary	-7784
occ	-7785
▁oldest	-7786
▁Francisco	-7787
▁decreased	-7788
ymes	-7789
▁Pennsylvan	-7790
▁Far	-7791
▁Later	-7792
▁automatically	-7793
haust	-7794
century	-7795
▁McC	-7796
▁Head	-7797
▁slave	-7798
▁disrupt	-7799
aming	-7800
▁Alexander	-7801
▁Ly	-7802
roud	-7803
Un	-7804
▁trends	-7805
95	-7806
acco	-7807
▁lens	-7808
▁alive	-7809
▁province	-7810
▁expanded	-7811
igate	-7812
▁commitment	-7813
just	-7814
athered	-7815
▁honey	-7816
▁pointed	-7817
▁treating	-7818
▁learners	-7819
▁config	-7820
▁Cambridge	-7821
▁ceremon	-7822
▁reaching	-7823
▁Santa	-7824
angered	-7825
▁Vietnam	-7826
▁rab	-7827
▁confident	-7828
▁providers	-7829
▁Did	-7830
class	-7831
▁client	-7832
▁phrase	-7833
atively	-7834
▁exped	-7835
▁Convention	-7836
▁hence	-7837
riend	-7838
▁diameter	-7839
eor	-7840
▁consume	-7841
▁imaging	-7842
▁dance	-7843
▁opposition	-7844
▁Eliz	-7845
▁les	-7846
abeth	-7847
plete	-7848
▁Analysis	-7849
mod	-7850
nov	-7851
▁strike	-7852
▁hormone	-7853
isted	-7854
▁Gulf	-7855
aka	-7856
aus	-7857
ette	-7858
▁coverage	-7859
▁Contin	-7860
▁advent	-7861
▁forming	-7862
coming	-7863
▁processed	-7864
▁laser	-7865
▁Obs	-7866
▁cooling	-7867
brid	-7868
▁measuring	-7869
aws	-7870
oming	-7871
▁dism	-7872
▁silver	-7873
▁Business	-7874
▁Hospital	-7875
▁profit	-7876
reated	-7877
▁fisher	-7878
▁channel	-7879
▁overcome	-7880
una	-7881
▁Hum	-7882
▁bless	-7883
des	-7884
erly	-7885
▁1,000	-7886
allow	-7887
▁nice	-7888
▁desert	-7889
▁concentrations	-7890
har	-7891
31	-7892
rection	-7893
▁girl	-7894
▁gut	-7895
▁flying	-7896
▁Little	-7897
▁Spring	-7898
▁objectives	-7899
▁Assess	-7900
▁viewed	-7901
▁initiative	-7902
▁protecting	-7903
▁Lee	-7904
▁observation	-7905
▁losses	-7906
▁tribes	-7907
▁player	-7908
▁seat	-7909
▁Model	-7910
HD	-7911
itory	-7912
▁turb	-7913
rat	-7914
▁ordinary	-7915
▁thereby	-7916
▁researcher	-7917
▁ton	-7918
▁literary	-7919
omed	-7920
▁charged	-7921
▁comprom	-7922
▁households	-7923
VID	-7924
▁conce	-7925
▁worship	-7926
▁literacy	-7927
▁moderate	-7928
▁racial	-7929
▁relie	-7930
▁interactive	-7931
77	-7932
▁wisdom	-7933
▁vocabulary	-7934
▁Lin	-7935
▁beat	-7936
▁tor	-7937
▁interface	-7938
▁Policy	-7939
▁nurs	-7940
▁earthquake	-7941
▁elsewhere	-7942
▁clim	-7943
▁crown	-7944
▁Right	-7945
▁separated	-7946
▁Os	-7947
ao	-7948
▁vibr	-7949
▁identifying	-7950
action	-7951
edu	-7952
anned	-7953
▁neutral	-7954
',	-7955
▁evening	-7956
▁insight	-7957
▁believes	-7958
gra	-7959
adel	-7960
▁mixture	-7961
hus	-7962
effect	-7963
▁agent	-7964
▁dynamic	-7965
▁covering	-7966
▁Oper	-7967
▁sculpt	-7968
▁Division	-7969
CR	-7970
otal	-7971
▁Due	-7972
▁cleaning	-7973
▁comfortable	-7974
▁versions	-7975
▁Pennsylvania	-7976
▁fulfill	-7977
otype	-7978
▁hidden	-7979
tra	-7980
▁authent	-7981
▁formula	-7982
▁Christianity	-7983
▁Bal	-7984
▁stopped	-7985
icy	-7986
ener	-7987
▁Los	-7988
▁Palest	-7989
▁descript	-7990
▁Capt	-7991
ENT	-7992
▁experiencing	-7993
▁34	-7994
▁2012.	-7995
ruit	-7996
▁Math	-7997
amine	-7998
▁plain	-7999
▁printing	-8000
ustain	-8001
▁updated	-8002
▁Wildlife	-8003
▁stability	-8004
▁Sunday	-8005
ura	-8006
▁container	-8007
▁regardless	-8008
▁abilities	-8009
▁ampl	-8010
▁chemistry	-8011
▁3:	-8012
▁Islamic	-8013
▁mouse	-8014
▁confirm	-8015
mm	-8016
▁2002	-8017
door	-8018
zyme	-8019
archy	-8020
▁Colorado	-8021
green	-8022
cia	-8023
▁suscept	-8024
▁Engineering	-8025
▁Rh	-8026
▁detected	-8027
CT	-8028
bell	-8029
▁hardware	-8030
▁interior	-8031
▁decay	-8032
lete	-8033
▁£	-8034
▁officer	-8035
▁listening	-8036
▁Set	-8037
▁Max	-8038
▁grounds	-8039
▁overwhel	-8040
▁heaven	-8041
▁weakness	-8042
▁mine	-8043
▁engineers	-8044
▁appointed	-8045
▁om	-8046
▁Economic	-8047
▁48	-8048
▁Building	-8049
▁Copyright	-8050
rapeut	-8051
▁Major	-8052
▁correctly	-8053
▁lights	-8054
▁abdom	-8055
▁Road	-8056
▁recip	-8057
▁degrad	-8058
▁Conference	-8059
▁fo	-8060
▁programme	-8061
▁newspaper	-8062
▁farms	-8063
▁dramatic	-8064
▁65	-8065
▁orders	-8066
▁meals	-8067
▁settled	-8068
▁2010.	-8069
▁affecting	-8070
ailable	-8071
▁functioning	-8072
ayer	-8073
▁Him	-8074
▁mathematical	-8075
▁Senate	-8076
▁Connect	-8077
▁Way	-8078
▁susp	-8079
▁Survey	-8080
enger	-8081
forest	-8082
endment	-8083
▁CP	-8084
▁gases	-8085
▁educators	-8086
▁enables	-8087
▁antibiotics	-8088
:||	-8089
▁reporting	-8090
esthetic	-8091
anged	-8092
▁(1)	-8093
icing	-8094
istant	-8095
▁manufacturers	-8096
▁cort	-8097
▁explicit	-8098
▁flash	-8099
▁biodiversity	-8100
▁parad	-8101
▁argued	-8102
▁2001	-8103
▁attach	-8104
▁tables	-8105
▁alph	-8106
▁spoken	-8107
▁assets	-8108
▁ecological	-8109
▁bag	-8110
▁judge	-8111
ostic	-8112
▁streets	-8113
----	-8114
elve	-8115
▁Systems	-8116
▁Music	-8117
▁Scotland	-8118
ographical	-8119
ogenic	-8120
▁75	-8121
rical	-8122
▁Drug	-8123
▁fires	-8124
ritional	-8125
▁Circ	-8126
▁6,	-8127
▁brows	-8128
odies	-8129
▁Based	-8130
▁characteristic	-8131
▁buried	-8132
iological	-8133
▁narrative	-8134
▁antioxid	-8135
▁mur	-8136
▁smell	-8137
OW	-8138
arks	-8139
▁Mond	-8140
asma	-8141
How	-8142
▁hunting	-8143
press	-8144
▁libr	-8145
▁districts	-8146
acks	-8147
▁Parliament	-8148
▁technological	-8149
acts	-8150
▁Hom	-8151
▁eru	-8152
▁mir	-8153
ifice	-8154
▁improvements	-8155
▁protective	-8156
▁wine	-8157
▁logic	-8158
▁Ok	-8159
▁vel	-8160
▁Digital	-8161
▁1930	-8162
▁Impro	-8163
▁swit	-8164
oga	-8165
▁owned	-8166
ptic	-8167
.).	-8168
HS	-8169
TP	-8170
▁schedule	-8171
▁Often	-8172
▁killing	-8173
EF	-8174
uten	-8175
▁proceed	-8176
▁Encyclopedia	-8177
AB	-8178
▁drag	-8179
▁Justice	-8180
▁acquired	-8181
▁fellow	-8182
▁Tri	-8183
▁preserve	-8184
▁disability	-8185
▁substit	-8186
urches	-8187
▁committee	-8188
▁Consider	-8189
▁Var	-8190
agen	-8191
▁embra	-8192
▁medicines	-8193
▁craft	-8194
iments	-8195
▁Laboratory	-8196
▁aimed	-8197
▁cancers	-8198
▁Ol	-8199
atal	-8200
lims	-8201
▁faces	-8202
▁lists	-8203
holders	-8204
▁harder	-8205
rem	-8206
▁brush	-8207
▁interf	-8208
▁advis	-8209
▁assumed	-8210
▁humanity	-8211
▁chair	-8212
▁exciting	-8213
▁simultane	-8214
▁entit	-8215
▁Invest	-8216
76	-8217
▁sensitivity	-8218
usalem	-8219
▁habitats	-8220
▁incident	-8221
▁establishment	-8222
▁innovative	-8223
pled	-8224
aren	-8225
▁perceived	-8226
▁resc	-8227
▁Still	-8228
▁Thanks	-8229
▁adolesc	-8230
Go	-8231
▁TO	-8232
ba	-8233
▁sched	-8234
icious	-8235
▁stake	-8236
▁chromos	-8237
▁Small	-8238
▁sentences	-8239
▁begun	-8240
▁wheel	-8241
▁EPA	-8242
iop	-8243
▁temporary	-8244
-15	-8245
▁Week	-8246
▁tempor	-8247
▁emerging	-8248
ontal	-8249
▁surge	-8250
apor	-8251
▁kingdom	-8252
▁exploration	-8253
▁shoot	-8254
▁1920	-8255
▁Ast	-8256
▁sad	-8257
▁Agriculture	-8258
▁ES	-8259
▁Islands	-8260
▁notion	-8261
▁deficiency	-8262
▁Pak	-8263
▁lowest	-8264
▁Peace	-8265
▁duty	-8266
And	-8267
▁bare	-8268
▁provin	-8269
▁grains	-8270
▁Physical	-8271
▁thermal	-8272
)|	-8273
▁directions	-8274
▁resid	-8275
utation	-8276
aya	-8277
▁nutrient	-8278
▁exhaust	-8279
▁equation	-8280
▁interventions	-8281
▁photographs	-8282
▁lungs	-8283
▁availability	-8284
▁existed	-8285
▁Crit	-8286
▁wonderful	-8287
▁germ	-8288
▁creatures	-8289
▁fing	-8290
def	-8291
▁reasonable	-8292
▁executive	-8293
▁tong	-8294
▁Elizabeth	-8295
▁membrane	-8296
▁emotion	-8297
▁Call	-8298
▁scheme	-8299
],	-8300
writ	-8301
▁lip	-8302
▁raising	-8303
▁Biology	-8304
▁personality	-8305
▁manifest	-8306
▁Rest	-8307
▁Develop	-8308
gence	-8309
tw	-8310
ecess	-8311
▁societies	-8312
▁vegetation	-8313
Gen	-8314
▁astronom	-8315
lu	-8316
▁strain	-8317
▁behavioral	-8318
▁Mess	-8319
▁Moses	-8320
gress	-8321
▁wage	-8322
▁fur	-8323
▁regime	-8324
▁club	-8325
▁minds	-8326
98	-8327
icular	-8328
▁Independ	-8329
ocolate	-8330
▁enormous	-8331
omatic	-8332
For	-8333
They	-8334
▁sevent	-8335
▁Egyptian	-8336
When	-8337
▁Standard	-8338
▁Testament	-8339
▁gravity	-8340
▁Harvard	-8341
▁adapted	-8342
apes	-8343
urning	-8344
▁migration	-8345
ema	-8346
▁fatigue	-8347
▁waiting	-8348
▁Stan	-8349
▁irrig	-8350
ricted	-8351
▁paragraph	-8352
-12	-8353
▁introduce	-8354
▁button	-8355
▁Ministry	-8356
▁tens	-8357
!”	-8358
▁33	-8359
▁spray	-8360
▁entertain	-8361
▁sizes	-8362
▁7,	-8363
▁Aff	-8364
▁deeply	-8365
inks	-8366
▁contributions	-8367
▁cas	-8368
▁Nob	-8369
▁Saint	-8370
gical	-8371
▁Within	-8372
▁consumed	-8373
▁lifetime	-8374
mann	-8375
▁split	-8376
uan	-8377
▁cyber	-8378
▁universities	-8379
▁entering	-8380
bean	-8381
▁af	-8382
▁unex	-8383
▁managing	-8384
▁Friday	-8385
▁boundaries	-8386
raham	-8387
▁ethical	-8388
▁adverse	-8389
▁vertical	-8390
▁labour	-8391
▁priority	-8392
▁Symptoms	-8393
▁Wikipedia	-8394
text	-8395
▁driver	-8396
▁fought	-8397
▁performing	-8398
▁Olym	-8399
▁Wal	-8400
isd	-8401
")	-8402
▁pion	-8403
▁investigate	-8404
▁empty	-8405
46	-8406
DS	-8407
▁Poly	-8408
▁assert	-8409
▁extension	-8410
▁Offic	-8411
▁consciousness	-8412
▁vitamins	-8413
▁keeps	-8414
▁promise	-8415
▁hun	-8416
▁guess	-8417
▁Jerusalem	-8418
▁120	-8419
▁Kids	-8420
▁Obama	-8421
▁planting	-8422
▁physically	-8423
▁saved	-8424
▁actively	-8425
▁heritage	-8426
▁Van	-8427
▁arguments	-8428
▁convert	-8429
▁Ak	-8430
BT	-8431
vi	-8432
▁achievement	-8433
▁losing	-8434
▁Given	-8435
ranean	-8436
▁wouldn	-8437
▁dense	-8438
▁aging	-8439
▁violent	-8440
▁psychology	-8441
▁inequ	-8442
▁virtually	-8443
▁gods	-8444
▁poetry	-8445
EA	-8446
ugg	-8447
▁Put	-8448
▁shaped	-8449
▁evident	-8450
▁cure	-8451
▁council	-8452
▁IT	-8453
▁myself	-8454
kind	-8455
▁asc	-8456
rint	-8457
▁Place	-8458
▁focusing	-8459
▁promoting	-8460
▁corresponding	-8461
▁ranging	-8462
eath	-8463
zer	-8464
bel	-8465
▁quantity	-8466
icity	-8467
▁Fred	-8468
ashes	-8469
▁verb	-8470
ailed	-8471
ifted	-8472
▁Between	-8473
▁8,	-8474
▁oxid	-8475
▁remarkable	-8476
NS	-8477
▁abstract	-8478
onal	-8479
earch	-8480
▁enterpr	-8481
aret	-8482
▁Spirit	-8483
▁telling	-8484
ouds	-8485
orig	-8486
▁victory	-8487
▁10,	-8488
Ex	-8489
▁occas	-8490
▁descend	-8491
▁(6	-8492
▁SS	-8493
ceans	-8494
operative	-8495
▁Conc	-8496
▁urine	-8497
▁Turk	-8498
amination	-8499
▁variations	-8500
▁parameters	-8501
▁Const	-8502
nut	-8503
▁earn	-8504
▁vaccines	-8505
ador	-8506
▁accord	-8507
▁colonies	-8508
▁Historical	-8509
▁analyze	-8510
▁classical	-8511
▁Writing	-8512
arn	-8513
▁Mur	-8514
▁draft	-8515
etal	-8516
▁songs	-8517
▁painful	-8518
EO	-8519
▁convey	-8520
▁Move	-8521
▁movie	-8522
agan	-8523
▁shore	-8524
stration	-8525
▁holiday	-8526
▁requirement	-8527
▁wider	-8528
▁finish	-8529
▁sustainability	-8530
▁anger	-8531
▁pit	-8532
acent	-8533
▁geomet	-8534
▁quiet	-8535
jo	-8536
▁trace	-8537
▁Hawai	-8538
▁chances	-8539
▁RNA	-8540
▁classified	-8541
▁continuing	-8542
ati	-8543
▁acknowled	-8544
▁CH	-8545
copy	-8546
▁Blue	-8547
▁haven	-8548
zymes	-8549
uscript	-8550
▁Mach	-8551
▁dominant	-8552
▁BM	-8553
opher	-8554
▁elections	-8555
▁expectations	-8556
▁Ve	-8557
cho	-8558
▁marketing	-8559
rob	-8560
▁collective	-8561
EE	-8562
▁literally	-8563
▁attribut	-8564
▁Third	-8565
▁marg	-8566
▁fuels	-8567
▁apparently	-8568
▁Field	-8569
▁acting	-8570
▁celebrated	-8571
rh	-8572
▁Amazon	-8573
▁Fair	-8574
thon	-8575
▁stood	-8576
▁Daniel	-8577
▁sou	-8578
▁cotton	-8579
▁restoration	-8580
▁propag	-8581
▁manager	-8582
idal	-8583
▁spoke	-8584
▁summary	-8585
47	-8586
adelph	-8587
▁cardiovascular	-8588
foot	-8589
▁cow	-8590
▁equality	-8591
▁hypothesis	-8592
▁vot	-8593
▁hall	-8594
▁wars	-8595
dr	-8596
▁finger	-8597
IF	-8598
▁accompanied	-8599
▁dropped	-8600
awa	-8601
'.	-8602
▁reserved	-8603
▁Jacob	-8604
http	-8605
▁qualities	-8606
▁Much	-8607
▁Es	-8608
▁posts	-8609
Med	-8610
fol	-8611
▁Ice	-8612
uum	-8613
▁coat	-8614
▁(2)	-8615
▁gathered	-8616
▁pill	-8617
▁Cost	-8618
▁herb	-8619
▁preferred	-8620
▁cord	-8621
▁Relig	-8622
▁determining	-8623
▁stones	-8624
▁Dictionary	-8625
▁clock	-8626
▁Marine	-8627
▁mg	-8628
▁anticip	-8629
endar	-8630
▁websites	-8631
▁suicide	-8632
fast	-8633
alities	-8634
▁tom	-8635
hire	-8636
▁Town	-8637
▁welfare	-8638
▁1)	-8639
▁exhibit	-8640
▁asp	-8641
▁reverse	-8642
▁symbols	-8643
▁tone	-8644
onents	-8645
▁Gener	-8646
▁transmitted	-8647
iblical	-8648
▁Secretary	-8649
▁Navy	-8650
▁Gall	-8651
▁passion	-8652
eping	-8653
▁Bureau	-8654
icts	-8655
▁privile	-8656
▁quantum	-8657
hea	-8658
▁2011.	-8659
▁seriously	-8660
▁chose	-8661
▁DO	-8662
▁scores	-8663
LC	-8664
▁Pu	-8665
▁gift	-8666
▁loose	-8667
▁references	-8668
▁Help	-8669
umer	-8670
▁styles	-8671
▁Corps	-8672
▁compos	-8673
▁representative	-8674
oto	-8675
▁bears	-8676
▁Monday	-8677
issance	-8678
▁Heritage	-8679
▁fats	-8680
▁ensuring	-8681
▁opinions	-8682
.'	-8683
berry	-8684
▁Interest	-8685
▁discussions	-8686
▁hosp	-8687
▁noticed	-8688
▁restrictions	-8689
▁gent	-8690
▁funded	-8691
▁municip	-8692
plo	-8693
adelphia	-8694
▁Farm	-8695
▁CA	-8696
▁returns	-8697
▁integration	-8698
▁soph	-8699
▁Pakistan	-8700
▁sees	-8701
▁profile	-8702
icking	-8703
▁targeted	-8704
▁dress	-8705
rox	-8706
▁Muslims	-8707
borne	-8708
▁colonial	-8709
▁expertise	-8710
ospel	-8711
▁planted	-8712
▁convin	-8713
▁films	-8714
▁feels	-8715
▁trauma	-8716
olt	-8717
▁Emer	-8718
▁Norm	-8719
▁duration	-8720
▁Mid	-8721
▁colony	-8722
host	-8723
▁eleph	-8724
▁unlikely	-8725
eras	-8726
▁suspect	-8727
▁applying	-8728
▁Confed	-8729
▁strategic	-8730
▁MA	-8731
▁fir	-8732
▁Support	-8733
▁Bang	-8734
▁lock	-8735
▁tack	-8736
imp	-8737
▁classic	-8738
▁Behav	-8739
▁unp	-8740
▁traits	-8741
▁particle	-8742
▁herself	-8743
sembly	-8744
▁engines	-8745
▁converted	-8746
ician	-8747
▁pollut	-8748
▁Century	-8749
mond	-8750
▁Ell	-8751
▁Chem	-8752
▁watching	-8753
made	-8754
▁nom	-8755
▁tip	-8756
▁wat	-8757
uther	-8758
▁encount	-8759
▁bacterial	-8760
▁aggressive	-8761
▁Blood	-8762
▁dairy	-8763
▁sessions	-8764
▁MP	-8765
obile	-8766
▁obst	-8767
▁reaches	-8768
▁Andrew	-8769
ila	-8770
rue	-8771
lights	-8772
▁dict	-8773
▁ul	-8774
anted	-8775
▁curve	-8776
▁personnel	-8777
▁prescribed	-8778
▁Philipp	-8779
rix	-8780
▁spinal	-8781
▁sodium	-8782
▁involvement	-8783
▁capabilities	-8784
▁developments	-8785
▁ft	-8786
▁indirect	-8787
world	-8788
▁Cr	-8789
▁mature	-8790
erts	-8791
▁occupied	-8792
▁reflected	-8793
▁cann	-8794
▁happiness	-8795
▁volunteers	-8796
▁engagement	-8797
▁safely	-8798
▁cooperation	-8799
▁blow	-8800
▁("	-8801
▁customer	-8802
▁suit	-8803
▁celebrate	-8804
zo	-8805
thew	-8806
▁Process	-8807
▁invasion	-8808
▁tab	-8809
▁restore	-8810
▁Examples	-8811
▁forecast	-8812
▁Kennedy	-8813
▁ears	-8814
▁Doc	-8815
child	-8816
liance	-8817
issipp	-8818
▁resistant	-8819
▁cul	-8820
▁Abraham	-8821
▁devast	-8822
▁annually	-8823
86	-8824
▁pel	-8825
▁Pope	-8826
▁mammals	-8827
%,	-8828
▁subt	-8829
ivest	-8830
▁folk	-8831
▁Colon	-8832
▁armed	-8833
zes	-8834
▁Near	-8835
▁Wed	-8836
▁electrons	-8837
▁productivity	-8838
▁Diet	-8839
▁origins	-8840
49	-8841
▁contents	-8842
▁definitely	-8843
▁Understanding	-8844
▁utility	-8845
▁ownership	-8846
ethe	-8847
▁associate	-8848
words	-8849
▁visits	-8850
▁Ha	-8851
▁ecosystems	-8852
▁unn	-8853
▁withdraw	-8854
▁intention	-8855
▁Cub	-8856
▁reign	-8857
▁neurons	-8858
uity	-8859
▁tob	-8860
▁realized	-8861
▁Hence	-8862
▁calculated	-8863
agnetic	-8864
▁teles	-8865
EG	-8866
▁COVID	-8867
▁subsid	-8868
79	-8869
▁hat	-8870
▁resil	-8871
▁sensors	-8872
▁removing	-8873
▁Princi	-8874
▁adopt	-8875
▁mes	-8876
▁enthus	-8877
▁computing	-8878
▁Hard	-8879
▁gast	-8880
▁linear	-8881
▁Fil	-8882
▁scope	-8883
▁refused	-8884
▁streams	-8885
▁Adam	-8886
▁sons	-8887
▁Pain	-8888
▁Turkey	-8889
▁pH	-8890
▁wearing	-8891
cal	-8892
▁facilitate	-8893
▁2)	-8894
▁buff	-8895
iterranean	-8896
ynasty	-8897
▁villages	-8898
▁Local	-8899
▁beach	-8900
emb	-8901
▁robot	-8902
▁Chief	-8903
ourse	-8904
▁sacred	-8905
▁recording	-8906
▁spacecraft	-8907
▁breaking	-8908
▁zones	-8909
ologically	-8910
▁Arts	-8911
neum	-8912
▁recre	-8913
▁specified	-8914
▁Die	-8915
▁gardens	-8916
▁transferred	-8917
▁2009.	-8918
outheast	-8919
ementia	-8920
▁weigh	-8921
leton	-8922
▁cited	-8923
▁sciences	-8924
▁Rail	-8925
▁Rab	-8926
ocated	-8927
▁Problem	-8928
ometer	-8929
▁Should	-8930
▁Action	-8931
▁nutritional	-8932
But	-8933
wan	-8934
▁teens	-8935
▁ven	-8936
▁pace	-8937
▁thread	-8938
enh	-8939
▁ram	-8940
▁CT	-8941
▁prayer	-8942
aware	-8943
▁develops	-8944
emies	-8945
▁cub	-8946
▁attractive	-8947
▁drinks	-8948
run	-8949
lected	-8950
▁Rather	-8951
▁Similarly	-8952
▁Mississipp	-8953
ouses	-8954
▁magnitude	-8955
▁prisoners	-8956
▁$1	-8957
▁enzyme	-8958
▁logical	-8959
terior	-8960
▁Greece	-8961
▁ID	-8962
▁11,	-8963
▁tact	-8964
▁metals	-8965
▁circulation	-8966
rapeutic	-8967
▁Angeles	-8968
▁1999	-8969
▁dies	-8970
▁doub	-8971
▁FDA	-8972
▁Lim	-8973
▁cheap	-8974
▁module	-8975
▁enjoyed	-8976
▁strange	-8977
▁infants	-8978
▁NO	-8979
▁displayed	-8980
▁everywhere	-8981
88	-8982
▁drivers	-8983
▁graduate	-8984
▁enforcement	-8985
▁Code	-8986
▁sediment	-8987
shaped	-8988
▁prey	-8989
▁shorter	-8990
regon	-8991
▁orange	-8992
▁inhabitants	-8993
eries	-8994
▁ease	-8995
▁Level	-8996
▁Introduction	-8997
▁attempted	-8998
▁rac	-8999
▁friendly	-9000
▁surprise	-9001
▁vig	-9002
▁couldn	-9003
▁Hit	-9004
▁55	-9005
▁Tit	-9006
▁Mot	-9007
lock	-9008
▁Lew	-9009
▁privacy	-9010
play	-9011
▁OS	-9012
enda	-9013
▁Antar	-9014
TH	-9015
▁Self	-9016
▁uncle	-9017
▁Dub	-9018
advant	-9019
▁Computer	-9020
▁disk	-9021
▁Buddh	-9022
▁purchased	-9023
▁row	-9024
▁Philadelphia	-9025
▁spots	-9026
CA	-9027
ali	-9028
lan	-9029
▁Temple	-9030
▁advances	-9031
▁replacement	-9032
▁basically	-9033
▁tobacco	-9034
duction	-9035
▁handling	-9036
ighth	-9037
inois	-9038
▁manual	-9039
▁suddenly	-9040
gien	-9041
▁default	-9042
eting	-9043
▁bleeding	-9044
urrent	-9045
▁limitations	-9046
▁varies	-9047
▁exploring	-9048
▁Marc	-9049
▁malaria	-9050
fulness	-9051
▁Clinical	-9052
▁worker	-9053
▁Mi	-9054
▁compost	-9055
▁juice	-9056
ifer	-9057
▁beneath	-9058
▁~	-9059
▁Ide	-9060
▁spin	-9061
▁documented	-9062
▁controlling	-9063
▁(“	-9064
▁differ	-9065
Sh	-9066
rub	-9067
▁Fish	-9068
▁GDP	-9069
▁Hem	-9070
▁Print	-9071
▁ruled	-9072
▁encounter	-9073
▁clay	-9074
▁joints	-9075
▁identical	-9076
ifier	-9077
▁emerged	-9078
dd	-9079
▁15,	-9080
▁Area	-9081
▁atoms	-9082
▁trem	-9083
▁integr	-9084
▁recycling	-9085
izers	-9086
UL	-9087
▁estate	-9088
▁distant	-9089
stic	-9090
ipe	-9091
▁joy	-9092
uality	-9093
▁entitled	-9094
▁minority	-9095
▁Mediterranean	-9096
▁Dam	-9097
▁paying	-9098
▁reveals	-9099
box	-9100
irable	-9101
▁addiction	-9102
▁amino	-9103
mentation	-9104
▁deposits	-9105
▁clothes	-9106
▁churches	-9107
▁translated	-9108
▁restaur	-9109
▁Hyd	-9110
▁Ram	-9111
▁Different	-9112
ivestock	-9113
▁Working	-9114
▁batteries	-9115
bury	-9116
▁peer	-9117
▁bullying	-9118
▁sleeping	-9119
On	-9120
▁absolutely	-9121
▁establishing	-9122
iations	-9123
iger	-9124
▁saving	-9125
▁varied	-9126
▁prime	-9127
▁Ancient	-9128
▁representing	-9129
▁borrow	-9130
▁burden	-9131
▁pets	-9132
▁Creek	-9133
▁Univers	-9134
▁9,	-9135
pers	-9136
exp	-9137
mal	-9138
▁Ren	-9139
▁Hindu	-9140
▁AR	-9141
▁underground	-9142
▁unem	-9143
▁Unt	-9144
▁Teachers	-9145
▁discipline	-9146
▁legit	-9147
▁divine	-9148
▁allergic	-9149
▁prox	-9150
▁Trust	-9151
▁readily	-9152
cin	-9153
section	-9154
▁throat	-9155
▁meaningful	-9156
▁Trade	-9157
through	-9158
western	-9159
▁painted	-9160
▁currency	-9161
▁shed	-9162
▁dipl	-9163
▁pilot	-9164
specific	-9165
▁Risk	-9166
▁sending	-9167
▁choosing	-9168
▁paintings	-9169
▁penal	-9170
▁landing	-9171
▁Mississippi	-9172
▁pert	-9173
▁sale	-9174
cut	-9175
▁grades	-9176
ela	-9177
▁deploy	-9178
▁empire	-9179
▁sister	-9180
▁Sus	-9181
▁gly	-9182
▁instances	-9183
▁reproductive	-9184
▁atmospheric	-9185
pdf	-9186
pos	-9187
▁Oregon	-9188
▁incent	-9189
▁invention	-9190
▁preserved	-9191
MP	-9192
actions	-9193
▁cough	-9194
GE	-9195
bris	-9196
ropri	-9197
▁Best	-9198
cul	-9199
▁12,	-9200
▁Son	-9201
▁faculty	-9202
▁Turn	-9203
▁chicken	-9204
▁dil	-9205
▁auto	-9206
▁wal	-9207
▁registered	-9208
▁4:	-9209
▁complexity	-9210
CP	-9211
▁protest	-9212
▁complement	-9213
▁tort	-9214
▁vegetable	-9215
▁Commons	-9216
▁wise	-9217
▁Think	-9218
▁Neu	-9219
▁Nic	-9220
Pro	-9221
▁provision	-9222
▁Kent	-9223
▁assembly	-9224
▁clients	-9225
ogens	-9226
▁lecture	-9227
▁ash	-9228
▁ol	-9229
▁Log	-9230
▁profound	-9231
▁pand	-9232
regular	-9233
▁precisely	-9234
▁possibilities	-9235
▁appeal	-9236
▁gate	-9237
ologic	-9238
▁conversion	-9239
▁dating	-9240
▁Watch	-9241
▁reflection	-9242
ateral	-9243
▁fifth	-9244
asm	-9245
▁Diabetes	-9246
power	-9247
▁scenario	-9248
▁Indones	-9249
▁pairs	-9250
quiry	-9251
after	-9252
▁Clean	-9253
▁balanced	-9254
▁cable	-9255
▁mira	-9256
▁codes	-9257
▁humidity	-9258
▁shr	-9259
▁rays	-9260
▁buying	-9261
▁applies	-9262
▁Ah	-9263
▁distinction	-9264
▁Corpor	-9265
▁overview	-9266
▁SP	-9267
▁semi	-9268
▁ending	-9269
▁barrier	-9270
apped	-9271
▁Mexican	-9272
oked	-9273
▁biom	-9274
▁deer	-9275
▁tag	-9276
▁perf	-9277
▁surgical	-9278
▁rh	-9279
▁abol	-9280
▁prevalence	-9281
▁39	-9282
▁hopes	-9283
▁reef	-9284
▁package	-9285
▁Indigenous	-9286
Cl	-9287
thod	-9288
type	-9289
aneous	-9290
▁Map	-9291
▁intr	-9292
▁spatial	-9293
▁genome	-9294
▁bonds	-9295
▁NOT	-9296
▁posted	-9297
▁dimin	-9298
ker	-9299
gments	-9300
▁distinguish	-9301
▁Neg	-9302
▁Jr	-9303
▁wooden	-9304
ophical	-9305
▁Origin	-9306
▁enzymes	-9307
function	-9308
▁lawn	-9309
▁invasive	-9310
▁Import	-9311
▁lun	-9312
▁Scientific	-9313
books	-9314
▁cellular	-9315
▁Jon	-9316
▁maxim	-9317
▁Station	-9318
▁outbreak	-9319
scrib	-9320
▁encl	-9321
▁inev	-9322
▁breaks	-9323
▁analyzed	-9324
.),	-9325
▁totally	-9326
▁wing	-9327
▁Korean	-9328
▁ultimate	-9329
aven	-9330
▁absorb	-9331
mail	-9332
▁2018	-9333
▁export	-9334
▁span	-9335
ricks	-9336
▁accomplish	-9337
▁practition	-9338
▁12.	-9339
▁merch	-9340
▁specialist	-9341
▁Beg	-9342
▁Illinois	-9343
▁candidates	-9344
▁tends	-9345
▁Prom	-9346
▁copies	-9347
▁revenue	-9348
▁Occ	-9349
▁Real	-9350
▁tongue	-9351
▁pleasure	-9352
ga	-9353
ilst	-9354
▁mail	-9355
ivation	-9356
▁tap	-9357
▁powder	-9358
▁illnesses	-9359
▁perfectly	-9360
▁Contact	-9361
▁Microsoft	-9362
▁Jackson	-9363
▁certific	-9364
2),	-9365
▁surrounded	-9366
▁arise	-9367
▁Individual	-9368
▁sensor	-9369
▁barriers	-9370
oven	-9371
▁kilometers	-9372
▁Volume	-9373
di	-9374
RNA	-9375
ocket	-9376
▁Squ	-9377
▁ancestors	-9378
▁persu	-9379
vation	-9380
▁spons	-9381
▁requiring	-9382
▁competitive	-9383
▁Teaching	-9384
▁satisfact	-9385
mble	-9386
▁hal	-9387
▁survived	-9388
▁2019	-9389
▁Text	-9390
▁noun	-9391
▁Fer	-9392
▁Twitter	-9393
▁Altern	-9394
▁Schools	-9395
▁Others	-9396
▁passes	-9397
▁liberal	-9398
▁license	-9399
▁align	-9400
▁initiatives	-9401
opes	-9402
▁inherent	-9403
▁Ariz	-9404
claim	-9405
▁hormones	-9406
▁2012,	-9407
▁penet	-9408
▁vector	-9409
▁Ont	-9410
▁acceptable	-9411
▁Li	-9412
▁arter	-9413
dep	-9414
▁perpet	-9415
▁jurisd	-9416
▁holy	-9417
▁Sustain	-9418
▁Hig	-9419
▁productive	-9420
CH	-9421
▁globe	-9422
▁manuscript	-9423
▁Assembly	-9424
▁sug	-9425
ols	-9426
▁Tay	-9427
▁UV	-9428
▁Fed	-9429
▁scholar	-9430
oca	-9431
ictions	-9432
▁judgment	-9433
▁statistical	-9434
aved	-9435
▁treaty	-9436
▁till	-9437
▁Enter	-9438
▁chocolate	-9439
BI	-9440
rons	-9441
▁Applic	-9442
▁compass	-9443
▁metabolism	-9444
▁separation	-9445
▁meetings	-9446
▁disag	-9447
▁600	-9448
▁Alaska	-9449
ais	-9450
▁incidence	-9451
elly	-9452
▁↑	-9453
acial	-9454
gener	-9455
▁optical	-9456
43	-9457
▁sulf	-9458
▁bought	-9459
▁Story	-9460
▁endangered	-9461
▁Charl	-9462
atus	-9463
▁nuts	-9464
▁Prince	-9465
illance	-9466
▁fan	-9467
▁legend	-9468
▁Buddha	-9469
▁allergies	-9470
friend	-9471
quis	-9472
▁Short	-9473
▁Product	-9474
▁tension	-9475
▁Wilson	-9476
▁occasionally	-9477
icating	-9478
▁Object	-9479
▁administrative	-9480
MA	-9481
▁Sn	-9482
▁savings	-9483
▁influences	-9484
▁puts	-9485
▁Guard	-9486
▁lighting	-9487
▁Aud	-9488
▁transplant	-9489
▁designated	-9490
▁cran	-9491
▁minimal	-9492
▁accurately	-9493
No	-9494
rose	-9495
amps	-9496
▁salmon	-9497
▁arrival	-9498
▁solving	-9499
▁Kn	-9500
▁Sleep	-9501
ouri	-9502
ipher	-9503
▁dramatically	-9504
▁Ford	-9505
▁hospitals	-9506
▁fascinating	-9507
▁surveys	-9508
▁preparing	-9509
▁shoes	-9510
▁inh	-9511
▁Bern	-9512
assium	-9513
▁morph	-9514
▁contributing	-9515
QL	-9516
▁978	-9517
urable	-9518
▁immigrants	-9519
▁orientation	-9520
▁minimize	-9521
▁seal	-9522
▁prosper	-9523
▁Philos	-9524
▁Emperor	-9525
▁Jefferson	-9526
▁specialized	-9527
plate	-9528
▁thirty	-9529
▁attributed	-9530
eem	-9531
▁Proper	-9532
Sp	-9533
▁brothers	-9534
▁Ult	-9535
▁Cook	-9536
▁payment	-9537
▁swelling	-9538
worth	-9539
▁Image	-9540
▁hybrid	-9541
▁outdoor	-9542
▁regulate	-9543
▁pesticides	-9544
▁2010,	-9545
▁bottle	-9546
▁lob	-9547
BM	-9548
)||	-9549
ashed	-9550
▁workplace	-9551
▁broke	-9552
▁assignment	-9553
ideo	-9554
▁Tool	-9555
▁CS	-9556
▁calm	-9557
▁medieval	-9558
best	-9559
▁rooms	-9560
▁lakes	-9561
▁Bol	-9562
▁combine	-9563
▁varying	-9564
▁blank	-9565
▁addresses	-9566
▁1000	-9567
▁themes	-9568
engers	-9569
▁confusion	-9570
▁surprised	-9571
▁channels	-9572
erving	-9573
▁Nevertheless	-9574
▁scr	-9575
▁exclud	-9576
sor	-9577
▁cycles	-9578
▁honest	-9579
▁athletes	-9580
▁viral	-9581
▁resemb	-9582
angel	-9583
enti	-9584
▁twelve	-9585
▁cuts	-9586
OD	-9587
▁hier	-9588
▁Meanwhile	-9589
▁restricted	-9590
▁winds	-9591
▁Garden	-9592
▁continent	-9593
▁PhD	-9594
▁cream	-9595
▁theoretical	-9596
▁1998	-9597
▁whales	-9598
▁reasoning	-9599
▁1.5	-9600
▁Club	-9601
▁clouds	-9602
▁relate	-9603
1–	-9604
▁embed	-9605
▁Redu	-9606
ught	-9607
▁extraord	-9608
▁gest	-9609
▁constrain	-9610
raine	-9611
oons	-9612
▁11.	-9613
▁Integ	-9614
amil	-9615
OP	-9616
▁pupils	-9617
▁reflects	-9618
▁Mrs	-9619
▁alarm	-9620
▁Hitler	-9621
▁operated	-9622
▁democratic	-9623
▁debris	-9624
▁candidate	-9625
▁favour	-9626
▁citizen	-9627
▁178	-9628
▁Hunt	-9629
▁minister	-9630
ika	-9631
▁calculate	-9632
▁addressing	-9633
▁neighb	-9634
▁Student	-9635
flu	-9636
▁lingu	-9637
oler	-9638
▁rent	-9639
▁bell	-9640
isations	-9641
▁proposal	-9642
▁patent	-9643
▁250	-9644
▁vice	-9645
attered	-9646
▁tumors	-9647
▁spreading	-9648
▁ion	-9649
▁Present	-9650
▁offices	-9651
▁consequence	-9652
▁aside	-9653
rible	-9654
inch	-9655
▁libraries	-9656
▁Future	-9657
1:	-9658
▁prol	-9659
ochond	-9660
▁managers	-9661
acles	-9662
▁Oil	-9663
▁oste	-9664
▁Master	-9665
▁robust	-9666
▁vom	-9667
▁nodes	-9668
▁10,000	-9669
▁Bush	-9670
athan	-9671
▁collecting	-9672
page	-9673
▁?	-9674
nesota	-9675
▁sheep	-9676
▁conclusions	-9677
▁flexibility	-9678
▁alternatives	-9679
▁priest	-9680
▁exhibition	-9681
▁50%	-9682
▁%	-9683
▁schem	-9684
▁fraction	-9685
▁receives	-9686
agle	-9687
ocity	-9688
▁camps	-9689
▁divide	-9690
▁Arizona	-9691
▁predicted	-9692
▁efficiently	-9693
▁wings	-9694
▁Line	-9695
▁oceans	-9696
▁tomat	-9697
profit	-9698
▁engineer	-9699
▁rainfall	-9700
dess	-9701
▁celeb	-9702
▁Arabic	-9703
See	-9704
▁Bot	-9705
▁Mind	-9706
▁Culture	-9707
▁busy	-9708
▁crimes	-9709
ATION	-9710
▁diets	-9711
▁optimal	-9712
▁Making	-9713
ctors	-9714
ulates	-9715
▁expanding	-9716
enza	-9717
▁Below	-9718
▁abundance	-9719
▁Ba	-9720
▁elementary	-9721
▁incom	-9722
ineteenth	-9723
▁diarr	-9724
ghan	-9725
rait	-9726
▁erect	-9727
▁adjacent	-9728
▁sectors	-9729
▁Prim	-9730
redit	-9731
▁consent	-9732
bow	-9733
▁14,	-9734
▁Six	-9735
▁Berlin	-9736
▁visiting	-9737
▁simultaneously	-9738
▁dimensions	-9739
▁describing	-9740
▁2013.	-9741
▁refugees	-9742
▁canal	-9743
isticated	-9744
▁knee	-9745
▁Tar	-9746
▁rough	-9747
▁tough	-9748
▁thyroid	-9749
▁ON	-9750
▁Hop	-9751
▁classification	-9752
▁Tenn	-9753
▁tendency	-9754
▁bee	-9755
ropol	-9756
▁elderly	-9757
▁register	-9758
phal	-9759
▁relating	-9760
▁memor	-9761
▁consisting	-9762
▁elevated	-9763
▁milit	-9764
▁workshe	-9765
▁Nutrition	-9766
▁encouraging	-9767
▁precip	-9768
▁Event	-9769
▁Script	-9770
fly	-9771
▁abandoned	-9772
ifting	-9773
date	-9774
56	-9775
reshold	-9776
▁ranges	-9777
▁Wales	-9778
▁partly	-9779
▁revers	-9780
ceptions	-9781
▁Isa	-9782
▁summar	-9783
acle	-9784
▁suggesting	-9785
rays	-9786
▁systematic	-9787
▁alert	-9788
▁dementia	-9789
pring	-9790
▁oils	-9791
▁179	-9792
▁hung	-9793
chain	-9794
▁cameras	-9795
!!	-9796
▁severity	-9797
▁representatives	-9798
erness	-9799
▁installation	-9800
thur	-9801
astics	-9802
han	-9803
▁Ty	-9804
▁charges	-9805
▁Mother	-9806
uclear	-9807
yes	-9808
elihood	-9809
mediate	-9810
▁therapies	-9811
▁wash	-9812
iosity	-9813
ivities	-9814
▁invented	-9815
▁Maryland	-9816
▁Hot	-9817
rowth	-9818
▁thank	-9819
▁Mountain	-9820
▁disadvant	-9821
orus	-9822
isting	-9823
▁Marsh	-9824
▁fibers	-9825
▁attitudes	-9826
▁discharge	-9827
▁irrigation	-9828
ubble	-9829
▁proud	-9830
▁susceptible	-9831
pert	-9832
▁crack	-9833
▁impair	-9834
duate	-9835
▁missions	-9836
▁altered	-9837
▁trail	-9838
▁speaker	-9839
▁selling	-9840
▁seasonal	-9841
▁vow	-9842
▁Standards	-9843
▁puzz	-9844
▁guarantee	-9845
even	-9846
▁amongst	-9847
isons	-9848
To	-9849
▁doors	-9850
▁swimming	-9851
▁Brain	-9852
▁Minnesota	-9853
▁duties	-9854
▁collections	-9855
▁mile	-9856
▁caps	-9857
▁cave	-9858
▁Williams	-9859
▁broadcast	-9860
▁Number	-9861
FS	-9862
▁3-	-9863
▁Talk	-9864
▁approval	-9865
ulsion	-9866
▁conflicts	-9867
enter	-9868
▁whenever	-9869
▁provisions	-9870
▁corporate	-9871
esium	-9872
▁width	-9873
oding	-9874
▁Five	-9875
▁incorporated	-9876
▁employee	-9877
▁bull	-9878
▁exceed	-9879
▁scales	-9880
▁Jones	-9881
▁weaken	-9882
bage	-9883
▁soils	-9884
▁reviewed	-9885
▁prevents	-9886
▁2007,	-9887
▁doses	-9888
▁Hay	-9889
▁allergy	-9890
abling	-9891
De	-9892
So	-9893
▁Assessment	-9894
▁Nation	-9895
also	-9896
▁Ash	-9897
▁Exerc	-9898
eling	-9899
▁livestock	-9900
▁Priv	-9901
▁sovere	-9902
▁cosm	-9903
pectives	-9904
▁Matthew	-9905
▁reputation	-9906
▁tower	-9907
▁Full	-9908
bul	-9909
▁pose	-9910
▁rod	-9911
▁Governor	-9912
plex	-9913
itic	-9914
itzer	-9915
▁ster	-9916
quality	-9917
▁fiction	-9918
▁physicians	-9919
owered	-9920
▁alongside	-9921
imm	-9922
▁struck	-9923
▁fingers	-9924
nea	-9925
spe	-9926
▁repeat	-9927
▁consistently	-9928
▁diagram	-9929
▁settlers	-9930
▁Issue	-9931
▁popularity	-9932
▁Walk	-9933
▁2008.	-9934
▁20,	-9935
▁bias	-9936
1/	-9937
▁turt	-9938
▁Iron	-9939
oult	-9940
commun	-9941
▁shade	-9942
▁gum	-9943
▁Theory	-9944
▁Paper	-9945
42	-9946
▁183	-9947
▁attended	-9948
▁hill	-9949
▁algae	-9950
▁argues	-9951
▁striking	-9952
▁containers	-9953
oline	-9954
▁entrance	-9955
▁retail	-9956
▁phones	-9957
▁dish	-9958
▁Thurs	-9959
tebr	-9960
itate	-9961
▁aster	-9962
▁awarded	-9963
▁confront	-9964
ois	-9965
omer	-9966
iders	-9967
▁affairs	-9968
▁likelihood	-9969
▁quantities	-9970
▁Fig	-9971
▁borders	-9972
III	-9973
▁eaten	-9974
▁pale	-9975
formed	-9976
Os	-9977
▁coron	-9978
▁Cit	-9979
▁Term	-9980
▁parks	-9981
▁succeeded	-9982
▁800	-9983
▁vag	-9984
▁weekly	-9985
▁motivation	-9986
▁prolong	-9987
▁adoption	-9988
orious	-9989
▁burned	-9990
▁phenomena	-9991
▁chamber	-9992
▁synthetic	-9993
reprene	-9994
▁Vi	-9995
imic	-9996
▁forever	-9997
▁Missouri	-9998
▁recall	-9999
▁algorithm	-10000
▁analyses	-10001
▁fertilizer	-10002
▁courage	-10003
▁Bh	-10004
▁NC	-10005
▁cluster	-10006
▁sympt	-10007
▁pipe	-10008
▁shelter	-10009
▁Questions	-10010
aine	-10011
copic	-10012
▁fluor	-10013
▁collapse	-10014
▁reinforce	-10015
▁Tro	-10016
ceeding	-10017
▁devoted	-10018
▁WW	-10019
unning	-10020
obic	-10021
▁Sud	-10022
gement	-10023
efficient	-10024
rass	-10025
▁Certain	-10026
▁Ontario	-10027
psy	-10028
inery	-10029
▁adolescents	-10030
.:	-10031
you	-10032
▁trading	-10033
▁Jim	-10034
▁metabolic	-10035
ji	-10036
▁dying	-10037
▁hygien	-10038
▁render	-10039
usively	-10040
.1	-10041
▁Jun	-10042
▁neural	-10043
▁Opp	-10044
ket	-10045
▁glaci	-10046
burn	-10047
▁inch	-10048
▁isolation	-10049
▁Exec	-10050
▁2008,	-10051
▁suggestions	-10052
▁dried	-10053
ods	-10054
▁SC	-10055
▁17,	-10056
▁Jersey	-10057
etically	-10058
▁civilization	-10059
▁Hab	-10060
author	-10061
▁Kansas	-10062
azz	-10063
▁Uk	-10064
▁Num	-10065
▁deliber	-10066
▁Aqu	-10067
▁Java	-10068
▁PDF	-10069
▁reci	-10070
▁mistakes	-10071
▁contaminated	-10072
▁Arm	-10073
▁Bell	-10074
▁Carl	-10075
▁pediatric	-10076
▁producers	-10077
▁inspiration	-10078
▁Tan	-10079
vy	-10080
apters	-10081
▁loud	-10082
▁Lat	-10083
▁repet	-10084
▁dialogue	-10085
▁5:	-10086
▁drives	-10087
▁dynamics	-10088
▁Need	-10089
▁grams	-10090
▁Unit	-10091
▁appreciate	-10092
rics	-10093
▁circles	-10094
▁ham	-10095
▁Satur	-10096
▁proport	-10097
▁valve	-10098
▁sophisticated	-10099
▁Carib	-10100
▁Training	-10101
▁mutations	-10102
▁Besides	-10103
▁stabil	-10104
▁earning	-10105
▁Chall	-10106
▁Darwin	-10107
ques	-10108
▁segment	-10109
▁contrad	-10110
▁injured	-10111
▁absorbed	-10112
▁46	-10113
▁excav	-10114
otten	-10115
▁Poland	-10116
istically	-10117
DL	-10118
▁symb	-10119
▁associations	-10120
▁spir	-10121
▁Democratic	-10122
rium	-10123
▁returning	-10124
onsin	-10125
▁(8	-10126
My	-10127
▁Until	-10128
▁glob	-10129
▁digestive	-10130
▁somewhere	-10131
▁Ray	-10132
▁constitutional	-10133
▁stere	-10134
▁therapeutic	-10135
aque	-10136
▁Tree	-10137
▁Lewis	-10138
▁throw	-10139
▁plasma	-10140
▁rhythm	-10141
▁GM	-10142
ocent	-10143
▁incorporate	-10144
ffe	-10145
igm	-10146
▁defects	-10147
▁remed	-10148
▁abundant	-10149
▁definitions	-10150
reement	-10151
▁routes	-10152
▁calendar	-10153
▁bat	-10154
▁punishment	-10155
▁employers	-10156
▁attributes	-10157
isconsin	-10158
ori	-10159
▁Has	-10160
▁irre	-10161
quently	-10162
olves	-10163
▁officially	-10164
▁Mes	-10165
▁predomin	-10166
arded	-10167
▁Practice	-10168
▁Sab	-10169
▁loan	-10170
▁Date	-10171
▁artistic	-10172
▁prevented	-10173
da	-10174
▁factory	-10175
96	-10176
sub	-10177
▁bags	-10178
▁stems	-10179
All	-10180
osaur	-10181
▁Brook	-10182
▁sacrifice	-10183
chnology	-10184
▁organism	-10185
iances	-10186
▁lasting	-10187
law	-10188
▁Case	-10189
▁regulatory	-10190
▁partial	-10191
▁18,	-10192
▁CDC	-10193
▁placing	-10194
TER	-10195
▁Ho	-10196
▁buck	-10197
▁2009,	-10198
▁voting	-10199
▁Az	-10200
▁42	-10201
▁nort	-10202
▁ow	-10203
▁Reserve	-10204
▁molecule	-10205
1),	-10206
olds	-10207
▁Captain	-10208
▁counties	-10209
▁founder	-10210
▁healthier	-10211
PR	-10212
wa	-10213
▁Protest	-10214
▁campus	-10215
▁shares	-10216
▁workshop	-10217
conn	-10218
▁plates	-10219
▁historians	-10220
▁cig	-10221
▁drops	-10222
Ed	-10223
▁confused	-10224
▁memories	-10225
▁CR	-10226
▁grammar	-10227
▁inflation	-10228
▁Death	-10229
▁misc	-10230
▁elig	-10231
emeter	-10232
▁infin	-10233
▁surviv	-10234
▁mercury	-10235
▁FA	-10236
▁fles	-10237
▁numer	-10238
▁Cro	-10239
▁Sav	-10240
▁2011,	-10241
▁achieving	-10242
▁Patients	-10243
▁compensation	-10244
▁arthritis	-10245
▁Order	-10246
▁Nap	-10247
▁edges	-10248
▁Thursday	-10249
–19	-10250
▁tied	-10251
▁acquire	-10252
uct	-10253
Ind	-10254
▁broader	-10255
▁Na	-10256
▁valley	-10257
▁Tues	-10258
▁Defin	-10259
original	-10260
▁Ord	-10261
nesday	-10262
▁Buddhist	-10263
▁situated	-10264
▁Anne	-10265
▁Front	-10266
▁PL	-10267
mented	-10268
▁educated	-10269
olid	-10270
▁partially	-10271
▁Ent	-10272
▁Available	-10273
▁developers	-10274
▁mask	-10275
▁peers	-10276
omal	-10277
▁bits	-10278
▁retain	-10279
infl	-10280
▁enhanced	-10281
▁Represent	-10282
▁bladder	-10283
▁Search	-10284
▁NY	-10285
ricane	-10286
▁attacked	-10287
74	-10288
▁irregular	-10289
▁refrig	-10290
▁finance	-10291
▁carbohydrates	-10292
▁investments	-10293
▁onset	-10294
uese	-10295
▁1900	-10296
▁Mathemat	-10297
▁freely	-10298
▁impressive	-10299
eller	-10300
300	-10301
▁accomplished	-10302
▁Ten	-10303
strate	-10304
about	-10305
utical	-10306
▁sew	-10307
▁contrary	-10308
vae	-10309
▁tracks	-10310
▁tribe	-10311
▁convenient	-10312
3),	-10313
▁parliament	-10314
▁integrity	-10315
▁PA	-10316
▁improves	-10317
▁fatal	-10318
▁murder	-10319
▁Hung	-10320
▁pine	-10321
▁strains	-10322
▁desk	-10323
▁evaluated	-10324
role	-10325
▁1997	-10326
▁Afghan	-10327
▁stretch	-10328
▁implementing	-10329
compass	-10330
▁publ	-10331
TA	-10332
▁Sher	-10333
▁permit	-10334
▁harsh	-10335
▁obser	-10336
feeding	-10337
▁boundary	-10338
elect	-10339
▁Benef	-10340
▁distinguished	-10341
raid	-10342
otypes	-10343
▁implies	-10344
▁directory	-10345
▁bron	-10346
▁pest	-10347
▁obviously	-10348
▁speakers	-10349
▁erosion	-10350
rels	-10351
▁Romans	-10352
▁horizontal	-10353
arium	-10354
▁assault	-10355
▁surre	-10356
▁timing	-10357
gregation	-10358
▁tolerance	-10359
▁absorption	-10360
▁connecting	-10361
▁residential	-10362
▁traditionally	-10363
▁Fac	-10364
▁2007.	-10365
▁infectious	-10366
▁enlar	-10367
▁independently	-10368
▁Sac	-10369
▁traveling	-10370
▁16,	-10371
▁welcome	-10372
▁platforms	-10373
▁Barb	-10374
vernment	-10375
▁excited	-10376
▁soy	-10377
▁Large	-10378
▁Sep	-10379
▁ethics	-10380
▁Leon	-10381
▁Wars	-10382
▁Syria	-10383
▁participating	-10384
erb	-10385
▁Dom	-10386
▁Maria	-10387
▁NG	-10388
▁rib	-10389
▁diagnostic	-10390
▁Cut	-10391
▁flavor	-10392
▁avoided	-10393
▁consuming	-10394
pany	-10395
▁axis	-10396
▁mini	-10397
hedral	-10398
▁contamination	-10399
Our	-10400
▁Enc	-10401
oa	-10402
▁Wisconsin	-10403
▁21,	-10404
sex	-10405
aning	-10406
▁wake	-10407
▁anthrop	-10408
▁NE	-10409
estone	-10410
▁1995	-10411
▁gray	-10412
▁firms	-10413
▁binding	-10414
▁historian	-10415
▁spine	-10416
UC	-10417
▁tanks	-10418
▁threshold	-10419
▁(10	-10420
▁Dun	-10421
▁NS	-10422
▁Hon	-10423
▁10%	-10424
▁13,	-10425
▁yes	-10426
▁arrive	-10427
▁Stephen	-10428
▁Philip	-10429
thal	-10430
▁aggreg	-10431
▁beds	-10432
▁inver	-10433
▁bot	-10434
▁Soft	-10435
arten	-10436
▁Linux	-10437
▁sequences	-10438
▁concentrated	-10439
▁intra	-10440
▁44	-10441
acher	-10442
▁Fram	-10443
▁defines	-10444
uine	-10445
▁aesthetic	-10446
▁worn	-10447
▁colored	-10448
jud	-10449
cribe	-10450
▁transformation	-10451
onin	-10452
▁indicating	-10453
▁LED	-10454
▁meteor	-10455
atoes	-10456
▁Statistics	-10457
▁Bow	-10458
▁Living	-10459
▁Guid	-10460
▁assistant	-10461
acon	-10462
▁Daily	-10463
▁permitted	-10464
aze	-10465
▁alumin	-10466
▁undergo	-10467
▁earned	-10468
▁pursue	-10469
ctu	-10470
sters	-10471
▁Han	-10472
▁grants	-10473
▁economics	-10474
fold	-10475
▁Jean	-10476
▁Create	-10477
▁expedition	-10478
▁governor	-10479
▁Basic	-10480
▁Germans	-10481
▁loop	-10482
inth	-10483
▁occupation	-10484
list	-10485
▁subsequently	-10486
▁promising	-10487
▁Davis	-10488
▁columns	-10489
▁struggling	-10490
85	-10491
vol	-10492
▁Urban	-10493
▁expressions	-10494
orer	-10495
▁rejected	-10496
▁unexpected	-10497
▁Sem	-10498
▁Essay	-10499
▁Follow	-10500
▁assessments	-10501
▁controversial	-10502
▁Bru	-10503
▁25,	-10504
▁von	-10505
entieth	-10506
zone	-10507
▁pink	-10508
ugs	-10509
arios	-10510
▁sensory	-10511
▁160	-10512
▁Centers	-10513
▁reinfor	-10514
▁Wednesday	-10515
▁attain	-10516
▁mud	-10517
▁13.	-10518
▁defeat	-10519
isphere	-10520
▁Republican	-10521
▁Animal	-10522
onald	-10523
▁thinks	-10524
▁equipped	-10525
▁Currently	-10526
▁Taylor	-10527
aceutical	-10528
▁ruling	-10529
Be	-10530
▁bills	-10531
▁1940	-10532
iy	-10533
▁lunch	-10534
▁Tuesday	-10535
upiter	-10536
▁pandemic	-10537
etch	-10538
▁Caribbean	-10539
▁seasons	-10540
iph	-10541
▁Freedom	-10542
▁newspapers	-10543
▁wax	-10544
▁atomic	-10545
▁celebration	-10546
stru	-10547
▁dollar	-10548
▁hardly	-10549
▁distribut	-10550
97	-10551
▁Physics	-10552
▁accordance	-10553
▁Fle	-10554
flies	-10555
▁qualified	-10556
▁muc	-10557
▁mi	-10558
▁avoiding	-10559
oded	-10560
▁surveillance	-10561
rared	-10562
▁washing	-10563
▁preservation	-10564
▁sheets	-10565
▁feather	-10566
▁43	-10567
aping	-10568
▁deadly	-10569
▁tracking	-10570
teenth	-10571
atories	-10572
▁resolve	-10573
▁demonstrates	-10574
income	-10575
economic	-10576
”)	-10577
▁Scholar	-10578
velength	-10579
▁Tib	-10580
effective	-10581
▁SA	-10582
imen	-10583
fire	-10584
akespe	-10585
▁gentle	-10586
▁Hispan	-10587
▁velocity	-10588
gged	-10589
LS	-10590
this	-10591
anium	-10592
▁Imper	-10593
▁shallow	-10594
▁homework	-10595
▁decreases	-10596
▁Belg	-10597
ecessary	-10598
▁multipl	-10599
▁radi	-10600
▁accidents	-10601
▁prescription	-10602
▁reservoir	-10603
▁Luther	-10604
▁enabled	-10605
▁Architect	-10606
▁defeated	-10607
▁assessed	-10608
▁doctrine	-10609
▁metres	-10610
▁`	-10611
▁thoroughly	-10612
names	-10613
▁cloth	-10614
▁Foreign	-10615
▁exch	-10616
ishers	-10617
owa	-10618
enna	-10619
▁keys	-10620
ja	-10621
▁Path	-10622
▁prospect	-10623
akespeare	-10624
ón	-10625
▁enemies	-10626
▁appointment	-10627
▁Allah	-10628
▁Balt	-10629
▁essays	-10630
▁Nether	-10631
▁Jane	-10632
ylon	-10633
▁Hur	-10634
▁dece	-10635
▁hide	-10636
▁mystery	-10637
anas	-10638
▁Name	-10639
▁swallow	-10640
▁Duke	-10641
icut	-10642
▁speeds	-10643
▁loyal	-10644
▁footprint	-10645
nia	-10646
▁admitted	-10647
▁potassium	-10648
▁rend	-10649
▁condem	-10650
▁Years	-10651
▁writings	-10652
▁thesis	-10653
▁Behavior	-10654
istent	-10655
▁transm	-10656
ooked	-10657
spring	-10658
▁shipping	-10659
▁sampling	-10660
rec	-10661
▁Species	-10662
▁importantly	-10663
▁2015.	-10664
▁pollen	-10665
▁Ger	-10666
antine	-10667
quarters	-10668
▁extinction	-10669
▁Chemical	-10670
▁deleg	-10671
▁designing	-10672
▁Write	-10673
▁Rand	-10674
▁pests	-10675
▁Cond	-10676
ammad	-10677
▁fate	-10678
▁catal	-10679
▁imperial	-10680
▁password	-10681
▁mirror	-10682
▁elabor	-10683
▁namely	-10684
▁wed	-10685
▁Rus	-10686
▁Psychology	-10687
▁predators	-10688
▁extraordinary	-10689
▁attracted	-10690
▁tourism	-10691
▁interfere	-10692
Le	-10693
▁bearing	-10694
▁gathering	-10695
▁rats	-10696
▁socio	-10697
▁submitted	-10698
iac	-10699
▁leak	-10700
ilitation	-10701
▁restored	-10702
.2	-10703
▁reviews	-10704
▁Gir	-10705
▁1800	-10706
▁portray	-10707
▁publications	-10708
▁Prime	-10709
▁Francis	-10710
▁influential	-10711
▁arc	-10712
▁march	-10713
▁scenes	-10714
uble	-10715
▁crust	-10716
▁straw	-10717
▁accompany	-10718
▁update	-10719
▁Samuel	-10720
▁geographic	-10721
▁arranged	-10722
▁Tax	-10723
▁Lower	-10724
▁hang	-10725
▁antibodies	-10726
▁genetics	-10727
▁CN	-10728
▁distract	-10729
warf	-10730
▁organisation	-10731
weet	-10732
Re	-10733
▁frequencies	-10734
▁liability	-10735
ceeds	-10736
▁utilized	-10737
eav	-10738
icked	-10739
▁fitness	-10740
▁wireless	-10741
▁referring	-10742
▁illustrated	-10743
▁unto	-10744
▁timber	-10745
▁Cold	-10746
▁talks	-10747
▁Photo	-10748
▁progressive	-10749
arer	-10750
▁accounting	-10751
▁recommends	-10752
▁Nat	-10753
▁Lind	-10754
▁Census	-10755
▁wages	-10756
▁discoveries	-10757
▁gran	-10758
▁pond	-10759
▁careg	-10760
▁displays	-10761
▁highlights	-10762
▁FOR	-10763
healthy	-10764
▁Rog	-10765
▁Depression	-10766
path	-10767
▁termin	-10768
▁PR	-10769
▁torn	-10770
sequently	-10771
▁Flow	-10772
▁Pay	-10773
▁discl	-10774
▁Nazi	-10775
▁outline	-10776
▁tremend	-10777
insula	-10778
▁Om	-10779
case	-10780
sk	-10781
▁spark	-10782
▁Portuguese	-10783
▁flooding	-10784
1%	-10785
apel	-10786
▁Opt	-10787
▁WHO	-10788
▁ignored	-10789
▁payments	-10790
▁reserves	-10791
onduct	-10792
▁Select	-10793
▁mutual	-10794
▁monthly	-10795
▁Educational	-10796
▁PMID	-10797
▁depr	-10798
▁skull	-10799
▁nursing	-10800
▁lying	-10801
pol	-10802
▁Additional	-10803
▁Recent	-10804
▁intensive	-10805
.||	-10806
emed	-10807
▁rises	-10808
▁bor	-10809
▁continuously	-10810
▁essence	-10811
▁»	-10812
opath	-10813
rades	-10814
▁overwhelming	-10815
▁brid	-10816
ranch	-10817
68	-10818
▁meter	-10819
rypt	-10820
vals	-10821
▁illustrate	-10822
▁dispers	-10823
▁notable	-10824
py	-10825
oultry	-10826
▁femin	-10827
▁prone	-10828
▁operational	-10829
uv	-10830
▁afraid	-10831
▁discom	-10832
▁Amendment	-10833
▁servers	-10834
ref	-10835
▁Thank	-10836
onymous	-10837
▁Greg	-10838
▁enact	-10839
▁Econom	-10840
▁conducting	-10841
▁alleged	-10842
▁nucleus	-10843
neg	-10844
▁Along	-10845
▁invited	-10846
aund	-10847
▁bite	-10848
▁determination	-10849
-200	-10850
▁execution	-10851
ronaut	-10852
▁crypt	-10853
▁Carbon	-10854
emor	-10855
▁commands	-10856
▁arrangement	-10857
▁Prob	-10858
▁Chile	-10859
▁calculations	-10860
ognition	-10861
73	-10862
▁Related	-10863
▁Movement	-10864
▁fertility	-10865
▁Camb	-10866
▁Marg	-10867
2-	-10868
arts	-10869
▁dominated	-10870
yo	-10871
▁Mand	-10872
▁immunity	-10873
chron	-10874
▁shouldn	-10875
▁transformed	-10876
▁dehyd	-10877
▁Rose	-10878
▁census	-10879
▁cyl	-10880
▁persistent	-10881
▁rom	-10882
FC	-10883
▁telephone	-10884
▁entreprene	-10885
▁Shakespeare	-10886
▁Jupiter	-10887
▁progression	-10888
▁arrested	-10889
▁explored	-10890
▁affordable	-10891
▁28,	-10892
ulous	-10893
uster	-10894
▁Harr	-10895
▁vine	-10896
▁labels	-10897
noon	-10898
▁Ethiop	-10899
rison	-10900
▁mosquito	-10901
eared	-10902
▁rear	-10903
▁gifts	-10904
▁rings	-10905
verages	-10906
▁strand	-10907
▁politicians	-10908
▁Fall	-10909
▁AB	-10910
▁McG	-10911
▁nineteenth	-10912
▁intelligent	-10913
64	-10914
▁Nep	-10915
▁fraud	-10916
▁Saturday	-10917
▁22,	-10918
▁partition	-10919
atre	-10920
▁AT	-10921
▁Kat	-10922
▁masses	-10923
▁territories	-10924
▁nick	-10925
▁reserve	-10926
▁prophe	-10927
RS	-10928
▁Month	-10929
▁prosec	-10930
othy	-10931
▁Python	-10932
▁boards	-10933
IST	-10934
orient	-10935
▁boxes	-10936
▁vomiting	-10937
▁coinc	-10938
▁golden	-10939
▁toxins	-10940
▁circular	-10941
▁comparing	-10942
▁grace	-10943
▁pneum	-10944
makers	-10945
berries	-10946
▁indoor	-10947
▁30,	-10948
▁inherited	-10949
auc	-10950
nals	-10951
▁ride	-10952
▁trick	-10953
▁dentist	-10954
▁epidemic	-10955
▁mobility	-10956
2:	-10957
▁bark	-10958
▁pushed	-10959
eld	-10960
▁manufacturer	-10961
▁embedded	-10962
▁catast	-10963
ropriate	-10964
▁exclusively	-10965
agery	-10966
▁behalf	-10967
▁bind	-10968
▁fifty	-10969
▁Malays	-10970
▁fallen	-10971
▁instant	-10972
▁steady	-10973
▁pathways	-10974
▁asks	-10975
▁rescue	-10976
▁64	-10977
pson	-10978
▁arbit	-10979
▁distinctive	-10980
▁browser	-10981
doors	-10982
▁relatives	-10983
▁gear	-10984
▁moments	-10985
Ps	-10986
▁hills	-10987
▁destination	-10988
▁mart	-10989
▁Evolution	-10990
▁sustained	-10991
▁nic	-10992
▁vaccination	-10993
▁Core	-10994
▁100%	-10995
▁Particip	-10996
▁chron	-10997
▁storms	-10998
▁suspected	-10999
▁Clark	-11000
▁cheese	-11001
▁fluids	-11002
▁hunger	-11003
▁sle	-11004
▁mapping	-11005
▁Therapy	-11006
▁Intellig	-11007
▁severely	-11008
▁completion	-11009
▁23,	-11010
▁Pow	-11011
▁UC	-11012
▁ho	-11013
▁Cra	-11014
▁injection	-11015
▁weapon	-11016
VD	-11017
▁Turkish	-11018
yard	-11019
orms	-11020
burgh	-11021
thodox	-11022
▁sel	-11023
▁Mountains	-11024
▁configuration	-11025
▁Miller	-11026
▁Materials	-11027
▁Yellow	-11028
▁adaptation	-11029
▁transmit	-11030
▁meditation	-11031
▁100,000	-11032
▁epidem	-11033
agger	-11034
▁anat	-11035
▁thorough	-11036
rophic	-11037
▁rehab	-11038
▁heal	-11039
▁”	-11040
cts	-11041
▁inade	-11042
▁dismiss	-11043
▁teaches	-11044
▁protects	-11045
▁hazardous	-11046
osexual	-11047
owners	-11048
At	-11049
aver	-11050
roleum	-11051
▁galaxy	-11052
▁promotes	-11053
imedia	-11054
▁unity	-11055
olecular	-11056
▁appet	-11057
aug	-11058
yan	-11059
illy	-11060
▁dangers	-11061
▁genuine	-11062
400	-11063
lyn	-11064
▁Rub	-11065
umental	-11066
▁diver	-11067
▁Example	-11068
▁acceptance	-11069
▁degradation	-11070
iens	-11071
icks	-11072
ysical	-11073
▁quote	-11074
▁Mental	-11075
▁disappear	-11076
grim	-11077
7%	-11078
hard	-11079
▁19,	-11080
▁frog	-11081
▁unemployment	-11082
▁casual	-11083
▁frozen	-11084
▁searching	-11085
Figure	-11086
pm	-11087
▁oxide	-11088
▁counterpart	-11089
Se	-11090
▁Inv	-11091
ivals	-11092
▁Polish	-11093
heastern	-11094
▁Sens	-11095
▁Industrial	-11096
PDF	-11097
▁metap	-11098
▁Connecticut	-11099
inflamm	-11100
▁battles	-11101
▁algorithms	-11102
▁Teacher	-11103
▁featured	-11104
▁criticism	-11105
▁followers	-11106
cor	-11107
▁Qur	-11108
▁Comb	-11109
▁Taking	-11110
▁Netherlands	-11111
▁Hu	-11112
▁presum	-11113
▁Electric	-11114
▁diarrhea	-11115
▁mitochond	-11116
acular	-11117
▁coordin	-11118
▁traveled	-11119
bestos	-11120
▁Alcohol	-11121
▁portions	-11122
▁odd	-11123
▁encompass	-11124
▁Bio	-11125
▁brill	-11126
orney	-11127
abetic	-11128
▁heter	-11129
▁opens	-11130
▁deterior	-11131
▁wavelength	-11132
ulture	-11133
iversary	-11134
▁empower	-11135
▁mistake	-11136
▁necessity	-11137
lah	-11138
▁kings	-11139
▁melan	-11140
▁Things	-11141
▁dinner	-11142
▁gains	-11143
▁Treaty	-11144
That	-11145
▁safer	-11146
▁Published	-11147
fil	-11148
▁hazards	-11149
▁Throughout	-11150
▁locally	-11151
,’	-11152
owed	-11153
▁overse	-11154
▁Usually	-11155
▁administered	-11156
uting	-11157
▁legacy	-11158
▁gaps	-11159
▁lateral	-11160
▁organize	-11161
ni	-11162
▁conservative	-11163
▁bulk	-11164
▁liberty	-11165
iley	-11166
▁2005,	-11167
▁participated	-11168
▁Bridge	-11169
▁encountered	-11170
omon	-11171
achel	-11172
▁Grade	-11173
itus	-11174
▁Victoria	-11175
▁Depending	-11176
▁3)	-11177
isible	-11178
natural	-11179
iki	-11180
▁artic	-11181
▁Love	-11182
▁tang	-11183
ergarten	-11184
▁Kim	-11185
▁scenarios	-11186
▁PH	-11187
bone	-11188
▁Index	-11189
▁Syn	-11190
▁kg	-11191
▁denied	-11192
▁pap	-11193
ulator	-11194
friendly	-11195
▁Ele	-11196
▁tape	-11197
▁declined	-11198
ollo	-11199
▁Buddhism	-11200
▁Executive	-11201
▁discomfort	-11202
▁philosophical	-11203
uns	-11204
ontin	-11205
▁organisations	-11206
89	-11207
▁larvae	-11208
▁thickness	-11209
rip	-11210
▁Lt	-11211
icides	-11212
▁1996	-11213
▁paths	-11214
▁encourages	-11215
▁alien	-11216
▁episode	-11217
!"	-11218
atile	-11219
ogram	-11220
▁compliance	-11221
fare	-11222
▁Hong	-11223
arest	-11224
grade	-11225
▁Indonesia	-11226
afe	-11227
▁Political	-11228
▁orn	-11229
▁votes	-11230
▁forb	-11231
▁filling	-11232
▁apps	-11233
ermat	-11234
▁volumes	-11235
▁Trib	-11236
▁furniture	-11237
▁Win	-11238
osaurs	-11239
▁coral	-11240
▁verse	-11241
▁utilize	-11242
▁advertising	-11243
▁panc	-11244
▁dow	-11245
arth	-11246
▁expend	-11247
▁picked	-11248
▁capability	-11249
▁hygiene	-11250
asses	-11251
▁repeatedly	-11252
▁empir	-11253
▁Bon	-11254
▁RE	-11255
▁Reference	-11256
▁Requ	-11257
▁classrooms	-11258
▁Period	-11259
▁cope	-11260
▁bes	-11261
▁Prior	-11262
yr	-11263
dated	-11264
▁ignore	-11265
▁Archives	-11266
front	-11267
▁tomb	-11268
▁Gh	-11269
▁2006.	-11270
iative	-11271
▁Dougl	-11272
cm	-11273
▁guns	-11274
▁murd	-11275
▁yeast	-11276
▁Bor	-11277
▁membership	-11278
▁originated	-11279
▁Bob	-11280
▁Tibet	-11281
▁immigration	-11282
▁Ban	-11283
.]	-11284
imony	-11285
iotic	-11286
▁educate	-11287
▁Lic	-11288
▁STEM	-11289
▁Corporation	-11290
▁Moh	-11291
actic	-11292
▁operators	-11293
▁possession	-11294
▁Golden	-11295
▁drainage	-11296
▁precision	-11297
▁ic	-11298
▁ber	-11299
▁hypert	-11300
▁accessed	-11301
▁loans	-11302
▁Generally	-11303
▁Knowledge	-11304
▁Pear	-11305
▁terminal	-11306
▁Titan	-11307
arians	-11308
▁modeling	-11309
▁Cru	-11310
▁occurrence	-11311
▁conjunction	-11312
generation	-11313
▁Ni	-11314
▁SO	-11315
eman	-11316
▁2006,	-11317
▁ought	-11318
▁poorly	-11319
▁Historic	-11320
▁rubber	-11321
▁warmer	-11322
opathy	-11323
▁49	-11324
cled	-11325
unci	-11326
▁2,000	-11327
▁Tennes	-11328
▁flowing	-11329
▁commander	-11330
▁fled	-11331
security	-11332
▁stimulate	-11333
3:	-11334
akh	-11335
▁Grant	-11336
▁Scottish	-11337
▁distances	-11338
!)	-11339
inian	-11340
▁artif	-11341
UD	-11342
sun	-11343
▁League	-11344
▁Apple	-11345
69	-11346
▁Bir	-11347
▁Command	-11348
▁marginal	-11349
▁investors	-11350
ilateral	-11351
41	-11352
▁Maybe	-11353
▁damages	-11354
▁Download	-11355
▁freshwater	-11356
▁electronics	-11357
aying	-11358
▁Tele	-11359
▁discussing	-11360
bro	-11361
uras	-11362
▁answered	-11363
▁node	-11364
who	-11365
▁titles	-11366
▁Healthy	-11367
▁impression	-11368
▁grey	-11369
▁symptom	-11370
▁nerves	-11371
▁reproduction	-11372
▁1994	-11373
▁Sweden	-11374
▁beet	-11375
▁Quality	-11376
▁ly	-11377
▁voters	-11378
enders	-11379
Bl	-11380
▁abroad	-11381
onics	-11382
▁emerge	-11383
hops	-11384
▁nurse	-11385
ressing	-11386
ographer	-11387
▁emission	-11388
▁extends	-11389
▁Monitor	-11390
▁colleges	-11391
▁tired	-11392
▁subtle	-11393
▁assumption	-11394
▁lift	-11395
▁jaw	-11396
▁kidneys	-11397
pus	-11398
wealth	-11399
▁synthesis	-11400
ECT	-11401
ancial	-11402
rology	-11403
oen	-11404
▁incredible	-11405
high	-11406
▁whale	-11407
▁Credit	-11408
izz	-11409
▁crossing	-11410
▁galaxies	-11411
iors	-11412
olas	-11413
▁Bulgar	-11414
▁economies	-11415
▁toys	-11416
asa	-11417
▁Diego	-11418
▁cooked	-11419
▁phases	-11420
▁Military	-11421
velt	-11422
▁Fat	-11423
▁anch	-11424
rell	-11425
▁Muh	-11426
▁Cham	-11427
iously	-11428
urated	-11429
▁guides	-11430
▁shoulder	-11431
▁secular	-11432
▁Lawrence	-11433
▁enabling	-11434
▁chapters	-11435
GS	-11436
▁solely	-11437
▁indicators	-11438
▁Whit	-11439
screen	-11440
▁viewing	-11441
inea	-11442
▁Very	-11443
non	-11444
▁pipes	-11445
▁yard	-11446
▁Parkinson	-11447
idae	-11448
thood	-11449
▁Declar	-11450
▁assumptions	-11451
▁seeks	-11452
▁Capital	-11453
▁digit	-11454
▁Austria	-11455
▁Flu	-11456
▁governance	-11457
orship	-11458
▁compat	-11459
▁(3)	-11460
▁inclusion	-11461
mia	-11462
▁rocket	-11463
▁Video	-11464
▁mounted	-11465
▁investigated	-11466
▁throne	-11467
▁fee	-11468
▁Site	-11469
shore	-11470
▁farmer	-11471
▁Results	-11472
▁vacuum	-11473
▁pressures	-11474
▁texture	-11475
▁incorrect	-11476
atching	-11477
orie	-11478
.5	-11479
hour	-11480
onent	-11481
▁wealthy	-11482
▁integral	-11483
▁Pediatric	-11484
▁24,	-11485
lings	-11486
▁adul	-11487
▁beta	-11488
▁pec	-11489
▁compassion	-11490
▁coordination	-11491
▁Archae	-11492
zan	-11493
asures	-11494
▁licensed	-11495
▁Domin	-11496
▁Pict	-11497
itored	-11498
▁absent	-11499
▁commod	-11500
▁Transport	-11501
▁inequality	-11502
▁Imperial	-11503
▁considerably	-11504
▁executed	-11505
▁conversations	-11506
▁Mission	-11507
▁graphic	-11508
pa	-11509
▁boats	-11510
▁poems	-11511
yt	-11512
▁Plants	-11513
▁categor	-11514
▁fleet	-11515
emetery	-11516
▁sau	-11517
▁Observ	-11518
▁beam	-11519
▁pupp	-11520
▁patch	-11521
▁wra	-11522
sized	-11523
▁contributes	-11524
▁Cape	-11525
▁submit	-11526
▁Pas	-11527
human	-11528
▁flesh	-11529
▁MIT	-11530
▁GH	-11531
essional	-11532
▁phrases	-11533
▁relieve	-11534
oni	-11535
ML	-11536
▁profits	-11537
▁bars	-11538
▁Creative	-11539
osphere	-11540
opt	-11541
▁epit	-11542
▁angry	-11543
▁Affairs	-11544
iro	-11545
▁Bad	-11546
heres	-11547
▁Eval	-11548
▁Facts	-11549
▁descendants	-11550
▁alphabet	-11551
IO	-11552
inton	-11553
▁Tennessee	-11554
▁cha	-11555
▁markers	-11556
▁indicator	-11557
**	-11558
▁por	-11559
▁Give	-11560
▁cardiac	-11561
▁explaining	-11562
▁Ru	-11563
▁stops	-11564
▁shield	-11565
▁determines	-11566
po	-11567
anna	-11568
▁passive	-11569
▁@	-11570
▁propos	-11571
▁genetically	-11572
Con	-11573
ilty	-11574
▁pulled	-11575
▁watershed	-11576
▁emperor	-11577
▁institutional	-11578
ilib	-11579
▁reads	-11580
▁Imag	-11581
▁Winter	-11582
▁transf	-11583
▁realistic	-11584
PV	-11585
igma	-11586
▁Denmark	-11587
▁Always	-11588
▁volcanic	-11589
▁Types	-11590
▁85	-11591
formance	-11592
▁pride	-11593
▁stakeholders	-11594
▁rotation	-11595
▁Prize	-11596
▁Overall	-11597
▁convention	-11598
▁fails	-11599
▁interpreted	-11600
▁(9	-11601
▁thrive	-11602
▁Was	-11603
▁settle	-11604
▁dispute	-11605
▁incidents	-11606
▁2016.	-11607
▁pole	-11608
▁passengers	-11609
▁Hell	-11610
▁Show	-11611
▁crash	-11612
igration	-11613
▁antibiotic	-11614
▁departments	-11615
▁descriptions	-11616
67	-11617
▁supplied	-11618
▁Tok	-11619
▁mutation	-11620
alin	-11621
▁recovered	-11622
▁horn	-11623
▁chains	-11624
DR	-11625
yers	-11626
▁purple	-11627
▁magnet	-11628
▁gay	-11629
phones	-11630
▁apple	-11631
▁Country	-11632
▁conclude	-11633
▁zinc	-11634
▁methane	-11635
▁atom	-11636
▁prolonged	-11637
▁substantially	-11638
3%	-11639
▁beef	-11640
▁obsc	-11641
▁decent	-11642
▁Zh	-11643
▁Ages	-11644
▁diagnose	-11645
keys	-11646
▁quad	-11647
▁Advanced	-11648
▁pathogens	-11649
▁lig	-11650
▁patri	-11651
▁festival	-11652
cow	-11653
▁cycl	-11654
▁harass	-11655
▁outdoors	-11656
▁afternoon	-11657
they	-11658
▁steep	-11659
risk	-11660
▁tubes	-11661
hr	-11662
▁Arthur	-11663
▁Protocol	-11664
▁uncertainty	-11665
▁Astr	-11666
▁Torah	-11667
▁operator	-11668
osevelt	-11669
▁checked	-11670
▁belonging	-11671
▁protocols	-11672
▁surviving	-11673
▁bugs	-11674
▁Freder	-11675
▁14.	-11676
arched	-11677
aft	-11678
lob	-11679
onomous	-11680
▁icon	-11681
▁damaging	-11682
▁endeav	-11683
▁makers	-11684
▁Relations	-11685
▁pollutants	-11686
▁RA	-11687
▁Virt	-11688
▁Previous	-11689
▁bats	-11690
▁lapt	-11691
▁disposal	-11692
eous	-11693
▁promised	-11694
3–	-11695
▁Body	-11696
▁Mu	-11697
▁ignor	-11698
▁herbs	-11699
▁decomp	-11700
▁promoted	-11701
▁viable	-11702
dam	-11703
▁IC	-11704
▁syll	-11705
▁grave	-11706
▁Rod	-11707
▁ric	-11708
▁Stone	-11709
instein	-11710
▁stressed	-11711
▁TB	-11712
▁2-	-11713
▁Account	-11714
elson	-11715
▁Cass	-11716
▁sorts	-11717
Google	-11718
▁incredibly	-11719
▁overt	-11720
▁genus	-11721
▁designers	-11722
▁breakfast	-11723
uty	-11724
▁Argent	-11725
▁unions	-11726
▁Population	-11727
▁mainstream	-11728
▁lunar	-11729
▁shopping	-11730
▁Dor	-11731
▁nas	-11732
▁chip	-11733
▁perspectives	-11734
ibli	-11735
▁gre	-11736
▁Vers	-11737
white	-11738
▁tempt	-11739
thening	-11740
▁limiting	-11741
▁Sa	-11742
▁spelling	-11743
▁matrix	-11744
▁lect	-11745
▁edited	-11746
▁filters	-11747
FA	-11748
▁Kong	-11749
▁potatoes	-11750
▁intervals	-11751
▁corruption	-11752
▁stuck	-11753
▁traged	-11754
▁Cultural	-11755
▁substitute	-11756
MM	-11757
doi	-11758
▁pharmac	-11759
▁Personal	-11760
▁Apollo	-11761
▁jew	-11762
▁monitored	-11763
▁documentation	-11764
rac	-11765
▁disci	-11766
▁machinery	-11767
▁Rout	-11768
▁historically	-11769
lear	-11770
▁supre	-11771
▁Napole	-11772
▁initiated	-11773
▁voices	-11774
▁..	-11775
▁2000,	-11776
▁assass	-11777
▁poultry	-11778
▁coordinate	-11779
▁Tips	-11780
▁Had	-11781
▁Vill	-11782
▁revolutionary	-11783
range	-11784
hell	-11785
▁anten	-11786
arma	-11787
▁29,	-11788
urred	-11789
▁facial	-11790
▁Question	-11791
▁brick	-11792
▁races	-11793
▁agenda	-11794
father	-11795
▁crossed	-11796
▁q	-11797
ele	-11798
▁Declaration	-11799
▁hepat	-11800
▁racism	-11801
▁presidential	-11802
▁Fisher	-11803
▁shortly	-11804
▁Deep	-11805
▁butt	-11806
▁uter	-11807
cr	-11808
▁slide	-11809
▁Afghanistan	-11810
▁constraints	-11811
PD	-11812
held	-11813
abama	-11814
▁Games	-11815
▁Dublin	-11816
▁whilst	-11817
atherine	-11818
▁Edition	-11819
agh	-11820
▁isot	-11821
htm	-11822
seud	-11823
▁Roosevelt	-11824
▁disasters	-11825
▁Albert	-11826
▁banking	-11827
▁pitch	-11828
▁foster	-11829
▁kit	-11830
eland	-11831
▁Bapt	-11832
▁yields	-11833
bral	-11834
restrial	-11835
▁applicable	-11836
/10.	-11837
iler	-11838
6%	-11839
aments	-11840
▁projected	-11841
▁bands	-11842
▁Utah	-11843
aughters	-11844
▁imposed	-11845
▁retreat	-11846
▁unnecessary	-11847
link	-11848
▁headed	-11849
▁Communication	-11850
▁Collect	-11851
▁cataly	-11852
May	-11853
▁Ross	-11854
TC	-11855
bird	-11856
▁Saturn	-11857
▁shadow	-11858
▁arsen	-11859
▁imagery	-11860
▁responded	-11861
▁omega	-11862
▁inflammatory	-11863
▁Dick	-11864
▁bottles	-11865
▁depicted	-11866
▁jet	-11867
ailing	-11868
▁Defense	-11869
▁Almost	-11870
▁attempting	-11871
▁0.0	-11872
▁preschool	-11873
▁architectural	-11874
▁Boy	-11875
▁Magn	-11876
▁affil	-11877
PC	-11878
▁Job	-11879
▁bom	-11880
▁entity	-11881
▁globally	-11882
▁republic	-11883
▁smallest	-11884
irs	-11885
▁neighbors	-11886
▁10:	-11887
ausea	-11888
▁intu	-11889
otechnology	-11890
▁Ib	-11891
▁drawings	-11892
▁publicly	-11893
▁vapor	-11894
▁twentieth	-11895
fat	-11896
▁Broad	-11897
▁Past	-11898
8%	-11899
▁wounded	-11900
▁packaging	-11901
▁caffe	-11902
▁(197	-11903
▁seiz	-11904
▁examining	-11905
▁correlation	-11906
▁Effects	-11907
()	-11908
▁acquis	-11909
▁polymer	-11910
▁Gil	-11911
▁inquiry	-11912
▁Sel	-11913
▁influenza	-11914
▁religions	-11915
2%	-11916
aza	-11917
▁Anim	-11918
activity	-11919
egu	-11920
lip	-11921
These	-11922
▁bore	-11923
▁proclaim	-11924
▁residence	-11925
▁2013,	-11926
▁700	-11927
▁Visual	-11928
EST	-11929
▁feas	-11930
▁Staff	-11931
▁Hans	-11932
▁Summer	-11933
▁comparable	-11934
▁persec	-11935
▁relates	-11936
▁devastating	-11937
▁announce	-11938
▁overweight	-11939
▁counts	-11940
▁headaches	-11941
▁regulated	-11942
▁extraction	-11943
▁27,	-11944
▁Rain	-11945
▁EN	-11946
▁Lady	-11947
▁explicitly	-11948
▁Lie	-11949
▁Archived	-11950
▁scheduled	-11951
▁Mong	-11952
▁Genesis	-11953
▁20%	-11954
▁receptors	-11955
▁prevalent	-11956
aki	-11957
▁Fem	-11958
ewater	-11959
==	-11960
▁aquatic	-11961
2/	-11962
▁Choose	-11963
▁virtue	-11964
▁Ball	-11965
▁Nuclear	-11966
embered	-11967
appy	-11968
▁Regard	-11969
etheless	-11970
▁Vo	-11971
▁dozen	-11972
▁closest	-11973
▁convinced	-11974
▁Alf	-11975
▁gel	-11976
▁Character	-11977
▁gau	-11978
▁Wy	-11979
▁immense	-11980
▁transparent	-11981
59	-11982
▁speaks	-11983
ORD	-11984
▁Allen	-11985
▁Youth	-11986
▁defining	-11987
iking	-11988
rasound	-11989
▁Democr	-11990
▁constitute	-11991
▁singing	-11992
▁Conserv	-11993
amic	-11994
zech	-11995
▁forty	-11996
rets	-11997
▁dimension	-11998
▁dirt	-11999
▁tear	-12000
▁Clear	-12001
▁Persian	-12002
▁Memorial	-12003
▁bip	-12004
▁Iowa	-12005
▁hearts	-12006
▁consisted	-12007
▁corporations	-12008
▁offspring	-12009
iser	-12010
▁hip	-12011
▁semic	-12012
▁nurses	-12013
▁potent	-12014
▁Alabama	-12015
▁specimens	-12016
▁informal	-12017
ko	-12018
don	-12019
gebra	-12020
▁bases	-12021
orks	-12022
ugar	-12023
gered	-12024
okes	-12025
▁Nich	-12026
▁stiff	-12027
▁Cert	-12028
▁meets	-12029
opl	-12030
1-	-12031
▁2015,	-12032
▁seemingly	-12033
▁Ros	-12034
▁°	-12035
osity	-12036
angular	-12037
▁electrom	-12038
▁expenses	-12039
▁brilliant	-12040
▁entities	-12041
▁comprehension	-12042
ulus	-12043
▁evac	-12044
▁programmes	-12045
▁gaining	-12046
akota	-12047
▁peaceful	-12048
▁quantitative	-12049
▁Series	-12050
▁meanings	-12051
▁checking	-12052
▁Success	-12053
ocus	-12054
▁2005.	-12055
▁altitude	-12056
▁collaborative	-12057
▁Commer	-12058
▁equations	-12059
▁url	-12060
▁parish	-12061
▁Indiana	-12062
▁refriger	-12063
▁ren	-12064
oning	-12065
▁talked	-12066
▁Ye	-12067
▁Cab	-12068
▁agreements	-12069
venile	-12070
▁Pa	-12071
▁powered	-12072
▁Everyone	-12073
acre	-12074
oin	-12075
▁Nort	-12076
▁groundwater	-12077
eu	-12078
▁Prevent	-12079
▁reforms	-12080
▁personally	-12081
inflammatory	-12082
ructive	-12083
▁railroad	-12084
keley	-12085
▁chim	-12086
▁Pap	-12087
▁ties	-12088
▁dated	-12089
▁Hawaii	-12090
▁frustr	-12091
▁appetite	-12092
▁2014.	-12093
▁toile	-12094
▁eligible	-12095
uto	-12096
iotics	-12097
▁crystal	-12098
600	-12099
▁Sky	-12100
▁Arist	-12101
▁Prep	-12102
itance	-12103
▁Nobel	-12104
▁obese	-12105
lastname	-12106
▁Exercise	-12107
▁Literature	-12108
▁Myth	-12109
▁Authority	-12110
▁cerv	-12111
ogene	-12112
▁Poll	-12113
imeter	-12114
▁bulbs	-12115
ESS	-12116
▁warri	-12117
▁coating	-12118
▁darkness	-12119
▁accused	-12120
▁tremendous	-12121
▁peas	-12122
▁founding	-12123
▁2003,	-12124
▁missed	-12125
▁Franklin	-12126
▁Sri	-12127
▁astronaut	-12128
esy	-12129
▁fart	-12130
One	-12131
▁Getting	-12132
▁readings	-12133
DT	-12134
▁interval	-12135
etus	-12136
only	-12137
▁Planning	-12138
▁ceremony	-12139
▁Institutions	-12140
▁permits	-12141
▁symbolic	-12142
▁assignments	-12143
rage	-12144
▁dual	-12145
Pl	-12146
▁Publishing	-12147
▁satisfaction	-12148
upp	-12149
conf	-12150
MD	-12151
▁WH	-12152
uming	-12153
▁costly	-12154
ciplinary	-12155
▁Travel	-12156
▁Protect	-12157
▁cel	-12158
▁snake	-12159
▁guided	-12160
▁millenn	-12161
▁magnesium	-12162
▁Muhammad	-12163
▁Radio	-12164
▁Castle	-12165
▁concentrate	-12166
lessly	-12167
▁pathway	-12168
▁practitioners	-12169
ilton	-12170
graduate	-12171
ropolitan	-12172
▁Evidence	-12173
▁clusters	-12174
▁sacrific	-12175
anol	-12176
▁lighter	-12177
▁Bishop	-12178
▁Gi	-12179
▁scal	-12180
▁deemed	-12181
▁neighbour	-12182
▁Joh	-12183
▁bloom	-12184
▁combining	-12185
hot	-12186
▁ensures	-12187
▁flies	-12188
▁Market	-12189
was	-12190
:10.10	-12191
▁slope	-12192
▁dishes	-12193
▁precious	-12194
▁motivated	-12195
▁Build	-12196
▁Dog	-12197
▁negotiations	-12198
▁ingredient	-12199
▁accumulation	-12200
▁kin	-12201
▁palm	-12202
▁sore	-12203
▁glory	-12204
▁hosts	-12205
▁arteries	-12206
▁Eat	-12207
▁fees	-12208
▁Luc	-12209
▁exem	-12210
jamin	-12211
▁wells	-12212
▁combinations	-12213
▁gang	-12214
▁teachings	-12215
ERS	-12216
▁Volunt	-12217
▁winning	-12218
▁biblical	-12219
onto	-12220
ooks	-12221
▁Louisiana	-12222
▁simulation	-12223
▁manufactured	-12224
▁archaeological	-12225
▁bay	-12226
▁induced	-12227
,000.	-12228
idays	-12229
▁Kenya	-12230
10,	-12231
uru	-12232
first	-12233
irie	-12234
▁menu	-12235
▁artery	-12236
▁gastro	-12237
▁judges	-12238
▁mosquitoes	-12239
▁equity	-12240
▁suspic	-12241
▁VI	-12242
stra	-12243
▁compact	-12244
oard	-12245
▁belongs	-12246
▁aluminum	-12247
▁autumn	-12248
preced	-12249
▁basin	-12250
▁freed	-12251
.-	-12252
wall	-12253
▁Rena	-12254
▁retire	-12255
▁Collection	-12256
▁peripher	-12257
▁blo	-12258
▁abdominal	-12259
▁6:	-12260
▁Tal	-12261
aints	-12262
▁lets	-12263
TML	-12264
▁fears	-12265
▁Together	-12266
▁Sustainable	-12267
▁Marx	-12268
▁gland	-12269
▁basics	-12270
▁Raj	-12271
▁replacing	-12272
▁drew	-12273
▁campaigns	-12274
▁updates	-12275
▁pointing	-12276
▁telescope	-12277
▁pencil	-12278
▁advised	-12279
stan	-12280
esthet	-12281
▁conform	-12282
▁bioc	-12283
▁praise	-12284
▁strikes	-12285
▁stack	-12286
▁bin	-12287
▁Anti	-12288
▁expense	-12289
▁navigation	-12290
ependent	-12291
▁anniversary	-12292
▁billions	-12293
▁indication	-12294
▁spell	-12295
▁locate	-12296
deg	-12297
ounded	-12298
▁Venus	-12299
▁customs	-12300
▁curious	-12301
▁forgotten	-12302
▁cer	-12303
osynt	-12304
▁decreasing	-12305
letter	-12306
Fig	-12307
▁Independence	-12308
erenn	-12309
▁Wright	-12310
eur	-12311
away	-12312
▁Ale	-12313
induced	-12314
▁microbes	-12315
▁explosion	-12316
▁181	-12317
▁deals	-12318
ilibrium	-12319
▁physiological	-12320
▁practiced	-12321
▁Hope	-12322
▁gums	-12323
▁lesser	-12324
▁Snow	-12325
Us	-12326
▁Draw	-12327
▁tale	-12328
▁Diagn	-12329
▁worried	-12330
▁interrupt	-12331
BA	-12332
▁volunteer	-12333
roach	-12334
monary	-12335
▁Includ	-12336
precedented	-12337
erves	-12338
▁lith	-12339
opy	-12340
rank	-12341
▁fool	-12342
alo	-12343
▁Imm	-12344
▁deple	-12345
▁PS	-12346
five	-12347
▁intact	-12348
▁mant	-12349
▁Around	-12350
▁Beyond	-12351
▁sugars	-12352
▁cement	-12353
▁wetlands	-12354
▁Dat	-12355
▁ate	-12356
▁unsu	-12357
▁lenses	-12358
▁imported	-12359
▁provinces	-12360
▁illustrations	-12361
4%	-12362
▁(7	-12363
etry	-12364
▁Territ	-12365
▁interviews	-12366
▁robots	-12367
▁crowd	-12368
▁mankind	-12369
ationally	-12370
government	-12371
▁poisoning	-12372
▁antioxidants	-12373
▁feat	-12374
▁heated	-12375
▁observing	-12376
mother	-12377
▁Israeli	-12378
inus	-12379
istence	-12380
▁silicon	-12381
bled	-12382
▁dynasty	-12383
▁castle	-12384
▁voluntary	-12385
▁foundations	-12386
plus	-12387
ulent	-12388
▁melt	-12389
▁Analy	-12390
▁loads	-12391
▁discusses	-12392
▁requests	-12393
Im	-12394
forestation	-12395
there	-12396
▁dwarf	-12397
iolet	-12398
▁Game	-12399
▁legitimate	-12400
▁Block	-12401
▁Primary	-12402
▁Gro	-12403
▁Title	-12404
▁toxicity	-12405
En	-12406
appropriate	-12407
58	-12408
▁critics	-12409
▁somehow	-12410
PL	-12411
sa	-12412
post	-12413
▁Strateg	-12414
▁2004,	-12415
▁Would	-12416
mitt	-12417
▁norms	-12418
▁movies	-12419
▁sho	-12420
▁guilty	-12421
▁aspir	-12422
▁explanations	-12423
▁ADHD	-12424
▁revel	-12425
▁130	-12426
zens	-12427
▁enterprise	-12428
gon	-12429
▁7:	-12430
▁probe	-12431
▁breathe	-12432
▁terrible	-12433
▁jurisdiction	-12434
▁177	-12435
▁Pra	-12436
igo	-12437
▁Fri	-12438
roups	-12439
▁prostate	-12440
▁utter	-12441
▁Stanford	-12442
▁specialists	-12443
uilt	-12444
RL	-12445
adi	-12446
school	-12447
▁railway	-12448
▁cher	-12449
▁static	-12450
▁Mun	-12451
▁Tai	-12452
▁Greeks	-12453
▁thrown	-12454
▁4-	-12455
▁dign	-12456
▁Transl	-12457
▁satellites	-12458
WS	-12459
▁boot	-12460
▁Kings	-12461
▁Nig	-12462
▁pigs	-12463
▁Renaissance	-12464
▁considerations	-12465
▁Nan	-12466
otional	-12467
idel	-12468
third	-12469
▁caution	-12470
▁90%	-12471
▁Veter	-12472
▁spirits	-12473
▁controversy	-12474
edge	-12475
▁compete	-12476
▁quiz	-12477
▁sword	-12478
▁automatic	-12479
▁Ra	-12480
estion	-12481
▁magic	-12482
Do	-12483
▁spite	-12484
▁Kentucky	-12485
▁soap	-12486
▁enters	-12487
▁modest	-12488
▁USDA	-12489
▁cheaper	-12490
▁Regional	-12491
vo	-12492
▁bold	-12493
▁travels	-12494
▁constitu	-12495
▁Prophet	-12496
▁compress	-12497
sur	-12498
▁Coal	-12499
▁$2	-12500
▁caffeine	-12501
▁SM	-12502
▁Si	-12503
▁PRO	-12504
▁Financial	-12505
▁champ	-12506
km	-12507
▁15.	-12508
▁asbestos	-12509
▁certificate	-12510
▁Tour	-12511
▁combust	-12512
▁harmony	-12513
▁advocates	-12514
▁imprison	-12515
▁impul	-12516
▁rating	-12517
▁hind	-12518
▁Philosophy	-12519
▁exclusive	-12520
9%	-12521
lict	-12522
▁longest	-12523
exts	-12524
▁blast	-12525
▁Bah	-12526
▁wast	-12527
▁Sound	-12528
▁enthusi	-12529
anth	-12530
iciency	-12531
▁advocate	-12532
▁labeled	-12533
venue	-12534
▁lean	-12535
▁colours	-12536
▁geography	-12537
▁margin	-12538
▁environmentally	-12539
pton	-12540
▁soldier	-12541
▁methodology	-12542
arse	-12543
▁2.5	-12544
▁Looking	-12545
▁Members	-12546
▁scattered	-12547
▁jun	-12548
▁pushing	-12549
▁commemor	-12550
itzerland	-12551
▁analog	-12552
▁dysfunction	-12553
▁appreciation	-12554
TO	-12555
▁Les	-12556
▁Benjamin	-12557
▁tast	-12558
▁chips	-12559
▁shifts	-12560
izational	-12561
▁unprecedented	-12562
eded	-12563
▁Czech	-12564
▁weren	-12565
▁Newton	-12566
▁Sant	-12567
▁Song	-12568
osures	-12569
▁26,	-12570
▁Fox	-12571
▁deck	-12572
▁networking	-12573
▁EM	-12574
▁eliminated	-12575
▁2004.	-12576
▁Howard	-12577
▁extending	-12578
▁earthquakes	-12579
▁tutorial	-12580
▁remembered	-12581
▁needle	-12582
▁elevation	-12583
▁Stock	-12584
▁worlds	-12585
resistant	-12586
▁BBC	-12587
▁hack	-12588
ynamic	-12589
▁Bird	-12590
ushing	-12591
coma	-12592
▁builds	-12593
▁recycled	-12594
▁Simon	-12595
▁slower	-12596
▁Sche	-12597
arches	-12598
▁titled	-12599
▁efficacy	-12600
▁1-	-12601
▁orb	-12602
▁ecology	-12603
▁LG	-12604
▁horizon	-12605
olly	-12606
▁cups	-12607
▁purely	-12608
▁sphere	-12609
▁disciplines	-12610
ttes	-12611
▁attending	-12612
▁Ku	-12613
▁coins	-12614
▁warrant	-12615
,'	-12616
Eng	-12617
BD	-12618
▁bitter	-12619
▁Document	-12620
▁Communist	-12621
▁introducing	-12622
UM	-12623
▁raises	-12624
ulative	-12625
▁trips	-12626
▁therapist	-12627
▁Tell	-12628
vance	-12629
aration	-12630
▁Flore	-12631
▁staying	-12632
▁erad	-12633
urally	-12634
▁strings	-12635
▁Mathematics	-12636
two	-12637
Ad	-12638
▁Pack	-12639
FT	-12640
ouch	-12641
▁ink	-12642
▁seas	-12643
apore	-12644
▁Total	-12645
▁strip	-12646
forward	-12647
▁basket	-12648
▁41	-12649
▁Ark	-12650
riction	-12651
▁geographical	-12652
itches	-12653
▁47	-12654
▁briefly	-12655
oping	-12656
▁settlements	-12657
▁Pil	-12658
▁rows	-12659
▁contracts	-12660
▁legislative	-12661
▁Ottoman	-12662
asis	-12663
▁blacks	-12664
▁challenged	-12665
pur	-12666
▁explos	-12667
▁symmet	-12668
▁recru	-12669
▁walked	-12670
▁alb	-12671
3/	-12672
orrh	-12673
▁voy	-12674
▁Return	-12675
▁surely	-12676
▁fathers	-12677
▁revised	-12678
▁inadequate	-12679
▁transactions	-12680
▁functionality	-12681
▁operates	-12682
▁separately	-12683
rea	-12684
▁Award	-12685
▁unclear	-12686
sl	-12687
▁stew	-12688
▁ruler	-12689
▁Confederate	-12690
▁aids	-12691
▁resting	-12692
olutions	-12693
▁demonstration	-12694
Res	-12695
▁bowl	-12696
▁bowel	-12697
tein	-12698
tically	-12699
▁fragments	-12700
▁rival	-12701
▁Seattle	-12702
▁alk	-12703
Co	-12704
▁Soci	-12705
▁Editor	-12706
▁Eventually	-12707
four	-12708
▁Cust	-12709
▁luck	-12710
▁dictionary	-12711
▁extensively	-12712
▁Hal	-12713
▁Definition	-12714
eton	-12715
▁radar	-12716
▁tunnel	-12717
▁strengths	-12718
▁Upon	-12719
▁thou	-12720
▁workshops	-12721
fficking	-12722
▁loaded	-12723
▁Gospel	-12724
▁Team	-12725
▁notably	-12726
▁perceive	-12727
▁desper	-12728
▁Biological	-12729
▁mines	-12730
▁pharmaceutical	-12731
organisms	-12732
▁Resource	-12733
▁Rap	-12734
ushes	-12735
▁sake	-12736
▁seats	-12737
▁activists	-12738
▁Philippines	-12739
▁survivors	-12740
▁oak	-12741
▁Southeast	-12742
▁extinct	-12743
▁Ze	-12744
▁plural	-12745
▁menstru	-12746
▁eternal	-12747
▁Ta	-12748
▁Multip	-12749
lahoma	-12750
▁watched	-12751
▁likes	-12752
4),	-12753
▁Easter	-12754
▁verbal	-12755
▁Malaysia	-12756
▁undertaken	-12757
▁continually	-12758
▁photography	-12759
▁95	-12760
▁modules	-12761
▁Batt	-12762
▁Maine	-12763
▁myths	-12764
▁blocked	-12765
▁carcin	-12766
▁desirable	-12767
PP	-12768
cat	-12769
▁downt	-12770
800	-12771
bet	-12772
▁grat	-12773
▁Mechan	-12774
▁Norway	-12775
▁stayed	-12776
fficiency	-12777
▁whites	-12778
▁CC	-12779
▁USB	-12780
▁placement	-12781
letal	-12782
▁numb	-12783
▁segments	-12784
▁transcript	-12785
elta	-12786
▁upset	-12787
▁Switzerland	-12788
▁radioactive	-12789
imity	-12790
▁tribal	-12791
▁uncons	-12792
▁emergence	-12793
▁Chen	-12794
▁weeds	-12795
▁dispar	-12796
▁modify	-12797
▁ants	-12798
▁contexts	-12799
▁intermediate	-12800
odge	-12801
urrection	-12802
▁recur	-12803
▁statue	-12804
▁10-	-12805
▁Ground	-12806
ardo	-12807
izoph	-12808
isa	-12809
▁headache	-12810
▁counting	-12811
▁Intelligence	-12812
iencies	-12813
▁banned	-12814
ilization	-12815
▁AF	-12816
redict	-12817
▁Impact	-12818
▁behave	-12819
▁Protestant	-12820
▁rum	-12821
▁comprised	-12822
▁Moscow	-12823
▁floating	-12824
________________	-12825
▁planes	-12826
▁Diseases	-12827
engu	-12828
▁sul	-12829
backs	-12830
▁beer	-12831
▁belt	-12832
▁football	-12833
▁dependence	-12834
▁Agricultural	-12835
▁quot	-12836
▁actors	-12837
▁distress	-12838
▁Fried	-12839
▁biomass	-12840
▁automated	-12841
▁reliability	-12842
11.	-12843
look	-12844
▁Anth	-12845
ryption	-12846
whe	-12847
reach	-12848
▁charts	-12849
▁astronomers	-12850
arity	-12851
mates	-12852
ordan	-12853
▁invisible	-12854
▁resilience	-12855
rish	-12856
▁trim	-12857
▁2001,	-12858
▁tackle	-12859
▁interference	-12860
hematic	-12861
▁closing	-12862
▁bon	-12863
▁hate	-12864
▁rebell	-12865
▁similarly	-12866
▁offset	-12867
▁releases	-12868
▁fundament	-12869
itives	-12870
▁receptor	-12871
▁Moore	-12872
▁patches	-12873
▁disappeared	-12874
▁investigations	-12875
▁plug	-12876
▁bridges	-12877
▁attribute	-12878
▁IL	-12879
▁lacking	-12880
▁Palestine	-12881
▁analyzing	-12882
▁tech	-12883
▁purchasing	-12884
▁Ow	-12885
sels	-12886
▁gross	-12887
▁illum	-12888
VI	-12889
▁Pi	-12890
▁trap	-12891
annel	-12892
▁scarce	-12893
▁variability	-12894
comp	-12895
wind	-12896
▁digestion	-12897
▁Byz	-12898
▁bush	-12899
▁Innov	-12900
▁highlighted	-12901
▁Proceed	-12902
▁Berkeley	-12903
▁fits	-12904
iating	-12905
▁angles	-12906
▁assessing	-12907
izophren	-12908
▁Comment	-12909
▁Typically	-12910
▁Brad	-12911
▁Images	-12912
▁hypertension	-12913
▁registration	-12914
some	-12915
▁Bed	-12916
▁desp	-12917
illes	-12918
▁toll	-12919
▁hint	-12920
▁legally	-12921
uate	-12922
▁Fortunately	-12923
▁landmark	-12924
▁depressed	-12925
▁altogether	-12926
opol	-12927
▁Gas	-12928
▁Software	-12929
▁promotion	-12930
GA	-12931
▁ions	-12932
▁wires	-12933
mus	-12934
sens	-12935
▁Benefits	-12936
rock	-12937
▁Annual	-12938
▁suited	-12939
▁Ay	-12940
▁OR	-12941
olen	-12942
▁Hun	-12943
▁truck	-12944
▁Recently	-12945
▁retained	-12946
▁fossils	-12947
▁implant	-12948
stud	-12949
▁2017.	-12950
▁Words	-12951
▁careers	-12952
▁goddess	-12953
▁identifies	-12954
▁Verm	-12955
▁Stress	-12956
eterm	-12957
▁alleg	-12958
ounding	-12959
▁inserted	-12960
▁infrared	-12961
▁Visit	-12962
▁delight	-12963
▁calculation	-12964
▁binary	-12965
▁fluctu	-12966
▁priests	-12967
especially	-12968
▁File	-12969
▁critically	-12970
▁acknowledge	-12971
▁Beach	-12972
▁(196	-12973
▁geometry	-12974
xic	-12975
▁Haz	-12976
▁carrier	-12977
▁newborn	-12978
▁circuits	-12979
▁Upper	-12980
▁dialect	-12981
oths	-12982
▁crafts	-12983
▁currents	-12984
▁firstname	-12985
▁accommodate	-12986
▁Loc	-12987
▁datas	-12988
▁premature	-12989
▁SD	-12990
lied	-12991
olia	-12992
ez	-12993
▁dye	-12994
▁pix	-12995
erto	-12996
ierce	-12997
▁Trump	-12998
▁Machine	-12999
▁Oklahoma	-13000
▁structured	-13001
▁Pharm	-13002
▁cous	-13003
▁deny	-13004
▁Od	-13005
▁safegu	-13006
hend	-13007
▁fungi	-13008
▁threatening	-13009
▁pod	-13010
▁tries	-13011
▁substrate	-13012
▁attraction	-13013
▁pronounced	-13014
▁Link	-13015
▁Quebec	-13016
▁conception	-13017
▁acquisition	-13018
▁queen	-13019
▁Fun	-13020
▁hoped	-13021
▁joining	-13022
sets	-13023
arson	-13024
▁worms	-13025
immune	-13026
▁breakdown	-13027
▁panic	-13028
▁Alliance	-13029
▁chemotherapy	-13030
▁creature	-13031
▁publishing	-13032
7–	-13033
▁rust	-13034
▁Dry	-13035
▁deriv	-13036
Lear	-13037
ercul	-13038
PM	-13039
agus	-13040
iffs	-13041
▁draws	-13042
▁nausea	-13043
▁insulation	-13044
▁Course	-13045
▁cavity	-13046
▁collaps	-13047
▁impacted	-13048
▁instructional	-13049
▁gy	-13050
good	-13051
▁Amb	-13052
▁hub	-13053
▁Pit	-13054
▁Bron	-13055
▁rhet	-13056
rup	-13057
▁certification	-13058
▁bicy	-13059
▁ministry	-13060
▁completing	-13061
▁182	-13062
lades	-13063
otted	-13064
▁journals	-13065
ocytes	-13066
▁energ	-13067
▁strictly	-13068
dig	-13069
ocene	-13070
▁naval	-13071
▁triggered	-13072
ioned	-13073
ousing	-13074
oriented	-13075
▁formally	-13076
▁inability	-13077
▁Smart	-13078
▁admit	-13079
▁imbal	-13080
itime	-13081
▁Viol	-13082
▁dwell	-13083
▁sculpture	-13084
▁Wel	-13085
▁modes	-13086
▁arrangements	-13087
▁Magazine	-13088
▁5-	-13089
▁evolve	-13090
inge	-13091
uliar	-13092
▁enroll	-13093
▁140	-13094
▁practicing	-13095
erk	-13096
adays	-13097
▁ranks	-13098
mill	-13099
▁Patrick	-13100
▁melting	-13101
▁coin	-13102
▁cruel	-13103
▁highway	-13104
▁warfare	-13105
▁gasoline	-13106
pha	-13107
▁Lesson	-13108
▁consolid	-13109
▁pressing	-13110
odus	-13111
▁enfor	-13112
▁quoted	-13113
▁valued	-13114
weg	-13115
ierra	-13116
olith	-13117
▁CL	-13118
▁realm	-13119
▁lasted	-13120
▁artifacts	-13121
rubs	-13122
▁Morris	-13123
▁Ky	-13124
▁Citiz	-13125
▁glands	-13126
▁Loss	-13127
General	-13128
▁cannab	-13129
▁monetary	-13130
▁1992	-13131
▁disse	-13132
▁pulse	-13133
▁intrig	-13134
▁elephant	-13135
▁uncommon	-13136
▁vocal	-13137
▁Initiative	-13138
▁outstanding	-13139
▁trains	-13140
Ab	-13141
nty	-13142
▁secured	-13143
▁presenting	-13144
▁recognised	-13145
▁80%	-13146
▁Chemistry	-13147
▁Aboriginal	-13148
▁Burn	-13149
▁Determ	-13150
▁killer	-13151
▁noble	-13152
▁occasions	-13153
version	-13154
........	-13155
▁divisions	-13156
weed	-13157
▁Napoleon	-13158
▁oct	-13159
month	-13160
▁brut	-13161
▁sanct	-13162
▁maternal	-13163
lies	-13164
▁56	-13165
▁sting	-13166
▁obstacles	-13167
▁succ	-13168
▁Immun	-13169
▁floods	-13170
bling	-13171
▁editing	-13172
▁Consequently	-13173
-21	-13174
laim	-13175
opor	-13176
▁acre	-13177
zi	-13178
eps	-13179
vas	-13180
orse	-13181
▁mast	-13182
▁retired	-13183
▁Agreement	-13184
▁triggers	-13185
▁CE	-13186
▁Marshall	-13187
▁Commonwealth	-13188
iscal	-13189
forming	-13190
▁bench	-13191
▁veterin	-13192
ART	-13193
▁ok	-13194
▁similarities	-13195
odia	-13196
▁daughters	-13197
▁employer	-13198
▁neighborhoods	-13199
▁flame	-13200
▁achievements	-13201
ikes	-13202
▁delayed	-13203
▁warned	-13204
▁Brig	-13205
estinal	-13206
▁infinite	-13207
▁refined	-13208
▁judicial	-13209
energy	-13210
▁trillion	-13211
7:	-13212
onge	-13213
ben	-13214
▁8:	-13215
▁Hyp	-13216
▁Oak	-13217
▁strat	-13218
▁lining	-13219
▁relies	-13220
▁Anderson	-13221
▁Proceedings	-13222
▁thumb	-13223
▁Eating	-13224
▁Publ	-13225
kh	-13226
▁Hind	-13227
▁Live	-13228
▁landed	-13229
▁compromise	-13230
Read	-13231
direct	-13232
esteem	-13233
▁HTML	-13234
articles	-13235
▁unconscious	-13236
▁yog	-13237
▁tales	-13238
atis	-13239
▁landscapes	-13240
▁predictions	-13241
▁Harry	-13242
▁trapped	-13243
▁petroleum	-13244
oche	-13245
▁11:	-13246
▁Methods	-13247
▁Universe	-13248
▁fired	-13249
▁inval	-13250
▁microbi	-13251
View	-13252
▁Ever	-13253
▁olive	-13254
▁snakes	-13255
▁deployed	-13256
▁CM	-13257
rokes	-13258
▁exert	-13259
▁(2010	-13260
▁vascular	-13261
▁stir	-13262
▁discount	-13263
▁inferior	-13264
▁Der	-13265
▁antioxidant	-13266
Tube	-13267
pack	-13268
▁μ	-13269
cap	-13270
▁Ts	-13271
▁databases	-13272
▁temporal	-13273
▁Singapore	-13274
▁handful	-13275
▁confined	-13276
urbed	-13277
▁mixing	-13278
▁destructive	-13279
▁frames	-13280
imination	-13281
cerpt	-13282
▁ghost	-13283
▁investigating	-13284
Com	-13285
▁filt	-13286
rosion	-13287
▁prosperity	-13288
▁municipal	-13289
unciation	-13290
opsy	-13291
access	-13292
▁litter	-13293
▁activated	-13294
▁entertainment	-13295
▁factories	-13296
▁spill	-13297
▁fusion	-13298
▁attachment	-13299
▁precipitation	-13300
otive	-13301
rative	-13302
▁exams	-13303
▁chromosome	-13304
▁tags	-13305
▁inspire	-13306
▁navigate	-13307
▁Ara	-13308
▁sor	-13309
▁Caes	-13310
idth	-13311
TE	-13312
▁Heat	-13313
▁baseline	-13314
▁extracted	-13315
▁integrate	-13316
quency	-13317
▁blame	-13318
▁shells	-13319
▁unhealthy	-13320
igs	-13321
▁rolling	-13322
▁petition	-13323
▁individ	-13324
▁plastics	-13325
▁110	-13326
hol	-13327
som	-13328
▁Hug	-13329
▁Thom	-13330
▁dump	-13331
▁seaf	-13332
▁afterwards	-13333
ranes	-13334
itar	-13335
▁2014,	-13336
▁Colomb	-13337
▁Banglades	-13338
▁Ltd	-13339
ensions	-13340
▁consultation	-13341
▁Syd	-13342
▁indo	-13343
▁pilgrim	-13344
▁stretching	-13345
eering	-13346
▁dozens	-13347
▁synthes	-13348
▁cows	-13349
▁Answer	-13350
▁jar	-13351
▁Thor	-13352
▁learner	-13353
▁sufficiently	-13354
▁Wat	-13355
ocaust	-13356
▁appliances	-13357
▁inspection	-13358
amma	-13359
bian	-13360
giving	-13361
▁plaque	-13362
▁singular	-13363
▁Tech	-13364
▁Dental	-13365
▁31,	-13366
▁asset	-13367
▁Nev	-13368
▁Peru	-13369
scribe	-13370
▁Better	-13371
▁Weight	-13372
tics	-13373
week	-13374
▁incons	-13375
▁suspended	-13376
▁Dakota	-13377
▁tragedy	-13378
▁suppress	-13379
▁subjected	-13380
▁knock	-13381
▁upward	-13382
rof	-13383
ilies	-13384
▁tablets	-13385
▁Disorder	-13386
▁maintains	-13387
▁generator	-13388
▁saturated	-13389
▁disabled	-13390
▁graphics	-13391
▁grasses	-13392
▁Northwest	-13393
proof	-13394
▁exports	-13395
▁2002,	-13396
▁tears	-13397
▁dissolved	-13398
▁unst	-13399
▁2016,	-13400
▁passages	-13401
▁Joint	-13402
▁peculiar	-13403
▁Guidelines	-13404
▁sink	-13405
▁selecting	-13406
▁sensation	-13407
▁negatively	-13408
pathy	-13409
▁Chair	-13410
▁certified	-13411
▁stimulation	-13412
▁Server	-13413
ikh	-13414
▁Birth	-13415
▁bapt	-13416
▁intim	-13417
amation	-13418
▁Planet	-13419
▁fortun	-13420
▁monaster	-13421
▁Extension	-13422
▁exploitation	-13423
▁jack	-13424
▁yoga	-13425
▁elite	-13426
▁checks	-13427
pres	-13428
▁ceiling	-13429
▁outbreaks	-13430
▁Safe	-13431
▁rituals	-13432
▁Technical	-13433
▁considers	-13434
▁Adams	-13435
-16	-13436
ogenesis	-13437
▁animation	-13438
cery	-13439
tebrates	-13440
▁silent	-13441
▁Content	-13442
▁conceptual	-13443
▁58	-13444
▁Tol	-13445
▁athe	-13446
▁bulb	-13447
▁inevitable	-13448
▁Pos	-13449
▁Zion	-13450
▁Notes	-13451
▁nesting	-13452
fam	-13453
supp	-13454
▁schemes	-13455
birds	-13456
pit	-13457
▁Fest	-13458
vasive	-13459
▁Walter	-13460
▁worthy	-13461
erculosis	-13462
▁Accessed	-13463
▁approaching	-13464
obacter	-13465
▁cargo	-13466
lighten	-13467
▁linguistic	-13468
▁FL	-13469
▁GPS	-13470
▁sends	-13471
▁marker	-13472
▁Hamilton	-13473
▁preference	-13474
▁economically	-13475
▁fisheries	-13476
▁dolph	-13477
group	-13478
▁NA	-13479
53	-13480
leys	-13481
▁3,000	-13482
▁Syndrome	-13483
▁reconstruct	-13484
▁compiled	-13485
▁citizenship	-13486
▁Cos	-13487
▁Gord	-13488
▁liber	-13489
▁caring	-13490
▁intestine	-13491
▁impaired	-13492
▁Police	-13493
▁failing	-13494
▁Sad	-13495
▁Acts	-13496
▁systemic	-13497
Hz	-13498
-14	-13499
lad	-13500
plan	-13501
▁screw	-13502
ambo	-13503
▁lesions	-13504
▁outlined	-13505
▁Dead	-13506
avirus	-13507
▁Queens	-13508
roximately	-13509
▁Problems	-13510
▁testimony	-13511
▁Bat	-13512
▁ank	-13513
▁asteroid	-13514
▁satisfied	-13515
Qu	-13516
aline	-13517
iller	-13518
▁Wolf	-13519
▁stocks	-13520
▁crystals	-13521
▁formerly	-13522
▁uncomfort	-13523
▁Tu	-13524
▁transported	-13525
▁spont	-13526
oub	-13527
▁McK	-13528
▁proc	-13529
▁Sarah	-13530
▁explores	-13531
▁everybody	-13532
AND	-13533
▁Molecular	-13534
BL	-13535
Col	-13536
John	-13537
illery	-13538
▁Olympic	-13539
▁30%	-13540
▁Hud	-13541
second	-13542
▁hepatitis	-13543
uma	-13544
▁18.	-13545
▁abdomen	-13546
Pub	-13547
chem	-13548
▁Luke	-13549
▁Anton	-13550
▁Truth	-13551
▁washed	-13552
▁Brother	-13553
▁occasional	-13554
▁Dal	-13555
▁vic	-13556
▁unders	-13557
▁designer	-13558
ATE	-13559
▁dia	-13560
▁contra	-13561
▁interven	-13562
▁shooting	-13563
▁illustrates	-13564
▁emphasize	-13565
educ	-13566
▁Compan	-13567
oporosis	-13568
Can	-13569
bin	-13570
▁tourist	-13571
▁Skin	-13572
▁DS	-13573
scill	-13574
▁Hart	-13575
▁depict	-13576
▁descent	-13577
izophrenia	-13578
▁Lev	-13579
▁prejud	-13580
▁planetary	-13581
▁standardized	-13582
jan	-13583
▁innovations	-13584
namese	-13585
▁todd	-13586
▁Imagine	-13587
By	-13588
▁unre	-13589
▁surroundings	-13590
DC	-13591
▁Active	-13592
ridge	-13593
nest	-13594
▁Pun	-13595
rophy	-13596
▁Sic	-13597
▁inputs	-13598
▁withdrawal	-13599
▁Testing	-13600
▁keyboard	-13601
▁Neuro	-13602
▁adulthood	-13603
Or	-13604
aran	-13605
▁Lanc	-13606
mind	-13607
▁Forum	-13608
▁Price	-13609
ulatory	-13610
▁perenn	-13611
▁mysterious	-13612
▁YO	-13613
upun	-13614
▁Aer	-13615
▁Dur	-13616
retion	-13617
▁radius	-13618
▁companion	-13619
▁Lett	-13620
▁barely	-13621
▁primitive	-13622
▁generates	-13623
▁requested	-13624
▁Ps	-13625
...]	-13626
▁Fif	-13627
▁True	-13628
▁2018.	-13629
▁mad	-13630
▁Subject	-13631
▁Khan	-13632
alling	-13633
▁drilling	-13634
▁lifes	-13635
▁wastewater	-13636
reas	-13637
▁median	-13638
▁sixth	-13639
▁cooler	-13640
▁hungry	-13641
▁Activities	-13642
57	-13643
onut	-13644
grad	-13645
▁disciples	-13646
▁Causes	-13647
▁Legisl	-13648
▁Sydney	-13649
▁traces	-13650
▁episodes	-13651
tr	-13652
▁apost	-13653
▁wounds	-13654
▁acknowledged	-13655
▁Posted	-13656
▁Late	-13657
▁Spect	-13658
interest	-13659
▁grab	-13660
▁jury	-13661
▁metaphor	-13662
▁stopping	-13663
▁Emergency	-13664
▁9:	-13665
vity	-13666
▁incentives	-13667
4:	-13668
ipt	-13669
▁Improve	-13670
▁examines	-13671
▁monument	-13672
▁TR	-13673
▁Armen	-13674
▁demanded	-13675
▁Hou	-13676
▁Portugal	-13677
▁12:	-13678
▁Nelson	-13679
▁retrie	-13680
▁Margaret	-13681
IH	-13682
lem	-13683
ige	-13684
▁2000.	-13685
▁Einstein	-13686
▁Eli	-13687
▁besides	-13688
▁museums	-13689
ococc	-13690
▁empirical	-13691
tech	-13692
▁excit	-13693
.20	-13694
▁Mas	-13695
▁pipeline	-13696
▁sexually	-13697
▁positively	-13698
home	-13699
▁mul	-13700
▁amph	-13701
▁mechanics	-13702
▁provincial	-13703
▁compression	-13704
Pe	-13705
▁mol	-13706
▁boom	-13707
arency	-13708
▁Iss	-13709
▁conve	-13710
▁40%	-13711
▁organizing	-13712
▁restaurants	-13713
▁bike	-13714
▁farther	-13715
▁workforce	-13716
▁supervision	-13717
▁(2011	-13718
▁CON	-13719
▁resolved	-13720
▁microscope	-13721
▁Stage	-13722
▁neglect	-13723
uana	-13724
▁filed	-13725
▁sie	-13726
▁Changes	-13727
▁eliminating	-13728
▁PV	-13729
▁Hold	-13730
▁Lakes	-13731
▁intens	-13732
expensive	-13733
▁variants	-13734
▁authentic	-13735
▁OK	-13736
uter	-13737
▁inert	-13738
▁Sports	-13739
lementary	-13740
count	-13741
▁adventure	-13742
ipation	-13743
process	-13744
▁transit	-13745
▁autonomous	-13746
erald	-13747
▁stain	-13748
▁Alexand	-13749
▁assembled	-13750
▁Eve	-13751
▁ma	-13752
▁16.	-13753
▁Aristot	-13754
▁corrupt	-13755
▁surgeon	-13756
▁supporters	-13757
edic	-13758
▁semiconduct	-13759
ppers	-13760
▁firmly	-13761
▁Mercury	-13762
card	-13763
▁packed	-13764
▁recipe	-13765
pent	-13766
▁Run	-13767
▁electromagnetic	-13768
▁Function	-13769
▁theft	-13770
▁reactor	-13771
▁Orthodox	-13772
avy	-13773
isan	-13774
▁1/2	-13775
▁Universal	-13776
ethyl	-13777
▁Joe	-13778
▁frost	-13779
▁centres	-13780
▁divorce	-13781
▁retention	-13782
▁evaluating	-13783
PT	-13784
▁Hispanic	-13785
▁tourists	-13786
▁Nile	-13787
liminary	-13788
▁remedies	-13789
▁parameter	-13790
▁’	-13791
▁Recomm	-13792
▁pyram	-13793
▁Skills	-13794
▁adjusted	-13795
alia	-13796
ante	-13797
ussion	-13798
▁matching	-13799
▁Traditional	-13800
▁Higher	-13801
utter	-13802
▁touching	-13803
▁voted	-13804
▁birthday	-13805
▁equilibrium	-13806
▁EC	-13807
mans	-13808
▁Box	-13809
▁lightning	-13810
▁individually	-13811
threat	-13812
▁gently	-13813
▁sits	-13814
▁Vienna	-13815
▁squir	-13816
▁odds	-13817
artz	-13818
powered	-13819
utenant	-13820
▁Toronto	-13821
▁embrace	-13822
▁terrain	-13823
▁Complete	-13824
▁blockchain	-13825
▁prohibited	-13826
▁Salt	-13827
-17	-13828
0.0	-13829
16/	-13830
▁Delta	-13831
ryst	-13832
▁Kal	-13833
▁Kind	-13834
opoly	-13835
houses	-13836
▁Ethiopia	-13837
▁Foot	-13838
▁Bangladesh	-13839
rator	-13840
building	-13841
▁Anglo	-13842
OV	-13843
▁YouTube	-13844
▁Province	-13845
-11	-13846
▁preventive	-13847
▁preliminary	-13848
tail	-13849
istor	-13850
itated	-13851
▁Ms	-13852
With	-13853
▁Gre	-13854
▁obtaining	-13855
▁hoping	-13856
▁coupled	-13857
aman	-13858
intestinal	-13859
▁crystall	-13860
▁definitive	-13861
matic	-13862
var	-13863
user	-13864
imental	-13865
▁reproduce	-13866
▁pumps	-13867
▁countless	-13868
▁neighboring	-13869
chi	-13870
▁que	-13871
ignty	-13872
▁rash	-13873
▁rigid	-13874
▁feathers	-13875
ophers	-13876
▁Could	-13877
▁veins	-13878
▁Nearly	-13879
▁ambit	-13880
▁proposals	-13881
▁formats	-13882
▁letting	-13883
cha	-13884
overs	-13885
control	-13886
▁breastfeeding	-13887
▁Ul	-13888
▁Pul	-13889
▁cyt	-13890
▁Academic	-13891
▁producer	-13892
▁2021	-13893
▁thir	-13894
▁handed	-13895
▁excluded	-13896
▁shoulders	-13897
▁cultivation	-13898
▁Tow	-13899
depth	-13900
▁Jordan	-13901
olerance	-13902
▁posture	-13903
▁promises	-13904
▁philosopher	-13905
oglob	-13906
▁Eric	-13907
▁Swedish	-13908
▁interconn	-13909
onder	-13910
▁Share	-13911
▁Signs	-13912
▁submar	-13913
▁grazing	-13914
▁cultivated	-13915
▁Europeans	-13916
▁rept	-13917
species	-13918
▁Activity	-13919
▁activation	-13920
▁drum	-13921
▁flags	-13922
▁compelling	-13923
▁Douglas	-13924
▁Antarctic	-13925
▁demanding	-13926
vic	-13927
aunt	-13928
▁coding	-13929
▁counterparts	-13930
ROM	-13931
ensing	-13932
▁instructor	-13933
▁preferences	-13934
▁strengthening	-13935
open	-13936
ctica	-13937
▁Occup	-13938
ricular	-13939
writing	-13940
▁mandatory	-13941
▁respected	-13942
54	-13943
iasis	-13944
tem	-13945
▁adject	-13946
▁bureau	-13947
▁problematic	-13948
3-	-13949
▁Eld	-13950
▁pean	-13951
▁Phase	-13952
imore	-13953
umph	-13954
rians	-13955
▁legislature	-13956
▁Hopkins	-13957
▁foam	-13958
▁pour	-13959
▁connects	-13960
▁delicate	-13961
▁Columbus	-13962
chester	-13963
▁Fourth	-13964
▁padd	-13965
▁elaborate	-13966
when	-13967
▁Dra	-13968
▁ana	-13969
▁Hyper	-13970
hu	-13971
/200	-13972
▁Dark	-13973
▁Brand	-13974
▁reluct	-13975
Why	-13976
▁Il	-13977
▁Bos	-13978
▁Soon	-13979
▁wool	-13980
▁witnessed	-13981
mid	-13982
aders	-13983
▁Programme	-13984
▁(17	-13985
▁adequ	-13986
▁tent	-13987
▁cosmic	-13988
▁weekend	-13989
copes	-13990
▁stamp	-13991
▁garlic	-13992
▁memorial	-13993
▁permanently	-13994
style	-13995
breaking	-13996
▁couples	-13997
▁Frederick	-13998
▁conditioning	-13999
▁sne	-14000
▁Liver	-14001
anyon	-14002
PE	-14003
insic	-14004
▁hasn	-14005
▁nearest	-14006
20.	-14007
▁tomatoes	-14008
▁Sin	-14009
Europe	-14010
▁cortex	-14011
▁fungus	-14012
▁nationwide	-14013
▁practically	-14014
▁uncomfortable	-14015
▁erected	-14016
52	-14017
fund	-14018
▁flora	-14019
▁wishes	-14020
▁comprises	-14021
len	-14022
▁Zoo	-14023
▁clot	-14024
▁smok	-14025
▁blade	-14026
▁modification	-14027
ellar	-14028
endix	-14029
▁exempl	-14030
▁surrender	-14031
reck	-14032
▁Consult	-14033
▁exceptional	-14034
wick	-14035
▁Bart	-14036
▁Square	-14037
▁lectures	-14038
▁SQL	-14039
▁tric	-14040
▁Basin	-14041
▁Nigeria	-14042
▁deposit	-14043
▁microbial	-14044
fu	-14045
▁Alt	-14046
▁Norweg	-14047
▁termed	-14048
▁Plus	-14049
gender	-14050
▁embryos	-14051
▁lowering	-14052
gets	-14053
lihood	-14054
▁Leave	-14055
▁consec	-14056
aceous	-14057
▁Cas	-14058
▁Gram	-14059
▁illustration	-14060
▁ib	-14061
▁verte	-14062
▁palace	-14063
▁Alb	-14064
▁Stalin	-14065
▁buffer	-14066
▁supportive	-14067
ECD	-14068
Ref	-14069
aga	-14070
ova	-14071
▁Vietnamese	-14072
▁worksheets	-14073
▁folks	-14074
▁reass	-14075
▁info	-14076
▁Ukraine	-14077
▁parasites	-14078
▁vulnerability	-14079
HT	-14080
Sc	-14081
▁epic	-14082
▁Chron	-14083
▁Simple	-14084
▁solved	-14085
62	-14086
▁flowering	-14087
▁soda	-14088
▁bullet	-14089
▁Arn	-14090
ussian	-14091
▁allies	-14092
▁pedest	-14093
▁impairment	-14094
fight	-14095
▁orph	-14096
▁Summary	-14097
▁targeting	-14098
▁arche	-14099
▁burial	-14100
▁anemia	-14101
▁Shah	-14102
▁participant	-14103
orb	-14104
wich	-14105
limited	-14106
▁Vacc	-14107
▁trucks	-14108
▁signaling	-14109
▁Pent	-14110
▁duck	-14111
▁holidays	-14112
olis	-14113
▁momentum	-14114
▁arom	-14115
▁aligned	-14116
▁periodic	-14117
▁wherever	-14118
krit	-14119
storm	-14120
▁limb	-14121
▁publish	-14122
lav	-14123
▁claiming	-14124
▁gardening	-14125
▁trunk	-14126
ometric	-14127
upuncture	-14128
arms	-14129
iage	-14130
▁LGBT	-14131
▁nurt	-14132
driven	-14133
▁Baptist	-14134
vised	-14135
▁Alber	-14136
▁Gender	-14137
▁Nicholas	-14138
▁Professional	-14139
▁2003.	-14140
▁controller	-14141
▁lin	-14142
▁snack	-14143
▁signature	-14144
abs	-14145
rones	-14146
▁Poor	-14147
▁flee	-14148
ailand	-14149
▁grasp	-14150
▁summit	-14151
▁urinary	-14152
▁cock	-14153
▁tomorrow	-14154
▁Canyon	-14155
▁contest	-14156
▁meg	-14157
▁(2000	-14158
▁renown	-14159
▁urgent	-14160
▁recipes	-14161
▁prototype	-14162
▁Cart	-14163
▁Hudson	-14164
ijing	-14165
▁pile	-14166
▁Kir	-14167
▁laugh	-14168
▁LA	-14169
▁Bear	-14170
▁orch	-14171
▁delivering	-14172
▁specially	-14173
▁rehabilitation	-14174
hess	-14175
icates	-14176
ository	-14177
▁Originally	-14178
▁ultrasound	-14179
▁abortion	-14180
▁confusing	-14181
▁MC	-14182
▁spotted	-14183
▁accordingly	-14184
▁MRI	-14185
▁trusted	-14186
▁triangle	-14187
▁humanitarian	-14188
▁Rio	-14189
ilage	-14190
4-	-14191
▁2001.	-14192
▁accounted	-14193
rett	-14194
▁propri	-14195
▁resort	-14196
▁crude	-14197
ennis	-14198
▁Seven	-14199
tha	-14200
▁cater	-14201
▁gallons	-14202
▁overseas	-14203
▁meta	-14204
▁appropriately	-14205
▁induce	-14206
speaking	-14207
▁fluoride	-14208
▁intestinal	-14209
▁170	-14210
▁beaches	-14211
▁Industry	-14212
▁lact	-14213
▁handled	-14214
▁earnings	-14215
▁Victorian	-14216
▁57	-14217
pler	-14218
▁Cuba	-14219
▁ports	-14220
▁layout	-14221
▁Religion	-14222
▁dinosaurs	-14223
▁dehydration	-14224
▁anyway	-14225
▁united	-14226
▁monarch	-14227
▁weights	-14228
doc	-14229
▁Rat	-14230
ordin	-14231
▁twin	-14232
▁inclusive	-14233
▁modifications	-14234
▁hay	-14235
minute	-14236
▁shops	-14237
▁Tokyo	-14238
▁Antarctica	-14239
▁arose	-14240
▁cooperative	-14241
bound	-14242
▁Cand	-14243
▁leather	-14244
▁mistaken	-14245
▁Framework	-14246
▁ventilation	-14247
▁1993	-14248
▁riding	-14249
▁hed	-14250
▁untreated	-14251
fin	-14252
ograms	-14253
▁scans	-14254
▁counted	-14255
▁NAT	-14256
perature	-14257
▁reconstruction	-14258
12.	-14259
▁gig	-14260
acerb	-14261
50,	-14262
▁displace	-14263
pub	-14264
▁Too	-14265
▁offensive	-14266
▁oun	-14267
▁yards	-14268
▁editors	-14269
▁civilian	-14270
▁spectacular	-14271
▁da	-14272
▁sins	-14273
▁belonged	-14274
cod	-14275
▁Records	-14276
▁hanging	-14277
.3	-14278
▁Gab	-14279
▁upt	-14280
▁noting	-14281
enez	-14282
▁ambitious	-14283
news	-14284
▁silence	-14285
▁combustion	-14286
aux	-14287
thirds	-14288
▁anterior	-14289
▁hemisphere	-14290
axis	-14291
▁Cool	-14292
▁(2012	-14293
63	-14294
▁alternate	-14295
ysics	-14296
▁Allied	-14297
▁poster	-14298
▁portable	-14299
▁Description	-14300
asia	-14301
antry	-14302
▁lawyer	-14303
▁Belgium	-14304
▁linking	-14305
adic	-14306
ashing	-14307
▁wheels	-14308
▁stating	-14309
▁Critical	-14310
▁paradigm	-14311
▁]	-14312
agu	-14313
walk	-14314
▁edit	-14315
▁Economics	-14316
▁inventory	-14317
▁translate	-14318
▁Apart	-14319
▁Graph	-14320
▁harvesting	-14321
autions	-14322
▁heading	-14323
▁proximity	-14324
▁obligations	-14325
▁respondents	-14326
▁Ker	-14327
ector	-14328
▁dupl	-14329
▁Crown	-14330
othermal	-14331
▁exercising	-14332
▁straightforward	-14333
▁failures	-14334
▁elephants	-14335
87	-14336
ifiers	-14337
▁carved	-14338
▁Discovery	-14339
▁recommendation	-14340
rosis	-14341
▁traumatic	-14342
opic	-14343
▁shame	-14344
▁closure	-14345
▁abnormalities	-14346
regn	-14347
▁McD	-14348
";	-14349
▁altar	-14350
▁fright	-14351
pi	-14352
itol	-14353
▁Money	-14354
▁matches	-14355
▁emphasized	-14356
▁butterflies	-14357
cult	-14358
▁dens	-14359
▁acted	-14360
▁ozone	-14361
opamine	-14362
▁switching	-14363
▁underwater	-14364
lie	-14365
criptions	-14366
▁microorganisms	-14367
cend	-14368
▁gym	-14369
▁clicking	-14370
headed	-14371
▁Parks	-14372
▁Workers	-14373
▁Holocaust	-14374
▁SU	-14375
▁Abd	-14376
▁Bud	-14377
▁strongest	-14378
pose	-14379
▁Institutes	-14380
▁capitalism	-14381
▁Eye	-14382
▁Michel	-14383
▁membranes	-14384
▁priorities	-14385
fre	-14386
usually	-14387
▁faithful	-14388
▁patron	-14389
▁preserving	-14390
▁surf	-14391
▁Compar	-14392
▁potato	-14393
▁commerce	-14394
▁22.	-14395
▁Ath	-14396
atics	-14397
▁nests	-14398
site	-14399
▁dirty	-14400
▁template	-14401
▁Peninsula	-14402
estab	-14403
▁Juda	-14404
▁ammon	-14405
▁Breast	-14406
▁desires	-14407
▁whereby	-14408
▁inexpensive	-14409
iw	-14410
arettes	-14411
▁Institution	-14412
▁orth	-14413
keeping	-14414
▁exacerb	-14415
▁indoors	-14416
PI	-14417
hn	-14418
▁penalty	-14419
▁recruit	-14420
▁Communications	-14421
▁Sans	-14422
engine	-14423
▁Syrian	-14424
▁fertile	-14425
hal	-14426
oos	-14427
▁Athens	-14428
▁gradual	-14429
▁troubles	-14430
▁beverages	-14431
▁curiosity	-14432
▁routinely	-14433
ilia	-14434
arted	-14435
dy	-14436
▁Tower	-14437
▁harvested	-14438
▁knife	-14439
olics	-14440
▁drama	-14441
▁rated	-14442
ocate	-14443
▁Solomon	-14444
▁Everything	-14445
="	-14446
▁DE	-14447
▁Ig	-14448
▁Advis	-14449
▁hits	-14450
▁Night	-14451
▁satisfy	-14452
▁bug	-14453
▁Stra	-14454
▁towers	-14455
▁contacts	-14456
▁Ple	-14457
▁invested	-14458
FL	-14459
esterday	-14460
▁defence	-14461
▁Provide	-14462
▁Various	-14463
helial	-14464
eat	-14465
aron	-14466
overty	-14467
▁apples	-14468
REE	-14469
▁Greater	-14470
inar	-14471
opter	-14472
▁timely	-14473
▁aug	-14474
▁incub	-14475
▁depths	-14476
▁declare	-14477
▁violation	-14478
igious	-14479
▁clues	-14480
▁diabetic	-14481
▁smile	-14482
▁Regular	-14483
▁introduces	-14484
▁presentations	-14485
bus	-14486
▁Thailand	-14487
▁musicians	-14488
▁imped	-14489
ifiable	-14490
▁harassment	-14491
▁Alan	-14492
▁978-0	-14493
▁Explain	-14494
▁regards	-14495
▁aggression	-14496
rov	-14497
▁hes	-14498
▁weed	-14499
▁Links	-14500
▁hardy	-14501
▁Federation	-14502
▁Row	-14503
national	-14504
lightenment	-14505
sky	-14506
cler	-14507
Christ	-14508
▁enrich	-14509
▁simpler	-14510
▁Robinson	-14511
▁scholarship	-14512
▁Tob	-14513
clusion	-14514
gly	-14515
▁investing	-14516
▁pneumonia	-14517
▁violations	-14518
ean	-14519
▁Lank	-14520
▁disappoint	-14521
▁tie	-14522
outer	-14523
cost	-14524
▁adhes	-14525
▁cookies	-14526
▁Observatory	-14527
▁communicating	-14528
▁Gate	-14529
▁Rule	-14530
▁arrow	-14531
amel	-14532
pine	-14533
▁comet	-14534
▁manipulation	-14535
▁Gran	-14536
▁armies	-14537
▁extrem	-14538
▁fans	-14539
▁assisted	-14540
▁fracture	-14541
roc	-14542
fram	-14543
▁Growth	-14544
▁differs	-14545
▁forcing	-14546
▁combines	-14547
▁(15	-14548
▁bol	-14549
grass	-14550
▁hostile	-14551
▁Jesuits	-14552
▁processor	-14553
[...]
